#version: 0.2
i n
Ġ a
r e
Ġ t
o n
t i
e n
e r
Ġ o
h e
Ġ p
e d
Ġ s
a l
Ġ w
Ġ c
Ġ in
Ġa n
r o
Ġ ,
Ġan d
Ġt he
a t
Ġo f
i t
e s
Ġ .
en t
o r
a ti
Ġ d
a n
Ġ m
a s
Ġ f
i c
i s
a r
Ġ b
Ġ (
in g
Ġ re
Ġ )
o m
v e
Ġ e
e c
Ġt o
it h
c e
l e
t er
Ġw e
Ġ g
ti on
u s
t h
ati on
l y
Ġw ith
Ġ T
Ġ n
Ġ 1
u p
o s
u r
Ġ h
ent s
Ġt h
a c
i m
u l
i g
Ġ r
o l
i d
Ġs t
Ġ l
Ġwe re
Ġc on
Ġf or
i f
Ġ Ġ
Ġ C
Ġp ati
Ġw as
Ġ P
m ent
t s
u n
Ġ A
ro up
Ġ %
e t
o c
Ġ 2
Ġpati ents
i l
u t
Ġg roup
s s
s e
u d
ĠT he
Ġ v
Ġp ro
o w
Ġc om
o d
re at
r i
a m
it y
f f
Ġ S
Ġ I
Ġ on
re d
Ġo r
in e
e l
at e
ti c
an t
o p
Ġ 0
re n
ig n
u c
es s
v er
a in
a b
i on
a p
at ed
ti ve
y s
v en
ic al
u m
g e
Ġ M
Ġcom p
Ġ 3
Ġa t
o t
l l
a d
Ġst ud
i r
t ro
i z
Ġt reat
Ġd e
Ġre s
Ġe ff
Ġe x
Ġ R
0 0
if ic
Ġa d
Ġp re
t ed
Ġp er
q u
u re
Ġ im
Ġin ter
o re
Ġb e
t r
Ġin c
Ġc h
ĠĠ ĠĠ
ig h
Ġstud y
Ġa ss
o g
Ġm e
ign ific
l in
i v
Ġa c
Ġ =
ignific ant
Ġ us
ar y
Ġ H
Ġtreat ment
u b
Ġ 4
Ġ B
Ġs ignificant
Ġ O
Ġeff ec
ven tion
Ġ ;
Ġb y
ro m
Ġim p
re as
Ġcon tro
Ġp l
ri al
er s
Ġ D
Ġw h
Ġa s
i p
Ġ is
Ġ 6
t e
p ec
iz ed
Ġo m
i a
Ġ 5
e ar
ĠI n
d uc
c h
d oc
Ġ he
se p
Ġd is
f ter
Ġ 9
a y
f e
en ce
Ġth at
Ġt rial
un d
os t
th er
en d
O N
Ġ F
or t
es t
a re
w e
Ġ :
a ce
m on
b o
Ġ N
Ġ E
ati ve
os e
Ġinter vention
c om
Ġa fter
Ġm on
Ġ le
ol l
Ġf rom
Ġs c
Ġe v
re ss
Ġ y
Ġd if
Ġn ot
u g
s t
fe ren
l s
Ġt r
en s
d i
Ġb et
i ve
e k
Ġ -
Ġ W
Ġin f
ap y
an ce
an c
on e
Ġgroup s
Ġo ut
as e
Ġs e
Ġp ar
or m
ac t
m p
a ge
j ec
Ġd i
Ġdif feren
Ġre ce
lin ical
o us
Ġs h
Ġmon th
Ġs ur
â Ģ
Ġth an
Ġ 7
i b
o ur
Ġp h
Ġn e
a red
oll ow
p er
Ġimp ro
we en
v i
ul ts
ation s
al u
ll ed
Ġpl ace
Ġcontro l
Ġ 8
Ġs ub
Ġy ear
Ġbet ween
E S
Ġp r
oc i
Ġf ollow
l o
e m
is k
Ġh igh
u al
Ġwe ek
Ġplace bo
i es
Ġmonth s
igh t
Ġl ow
Ġn o
Ġinc reas
is t
Ġ L
Ġan al
Ġcomp ared
Ġsignificant ly
Ġc linical
Ġh ad
Ġth er
a g
Ġd ur
Ġ G
Ġa r
Ġa l
Ġo b
v ed
Ġout com
id e
Ġin t
Ġm g
Ġre duc
Ġ1 2
Ġin d
Ġc o
Ġc are
e p
m o
Ġd a
Ġ qu
an s
Ġre c
Ġb as
ab le
Ġth is
Ġom ized
Ġass ess
ĠT h
un c
o th
w o
Ġr isk
t om
Ġ <
Ġme as
al th
c l
Ġre p
an ts
Ġwh o
Ġm ed
Ġpro g
T S
t al
ti v
d om
Ġa re
id ence
r am
Ġa ll
i al
ul ar
p h
Ġr an
or s
Ġrece iv
il d
Ġcon s
Ġh a
T I
om en
as t
k e
re e
m in
Ġ9 5
Ġp ain
Ġre l
Ġther apy
Ġyear s
Ġp ost
p p
tic ip
Ġm ore
p on
Ġ1 0
al ity
Ġ un
en ti
ve l
or y
e f
y p
Ġt im
Ġre g
g es
al l
Ġo ver
s pec
Ġev alu
Ġdur ing
tion s
Ġd ec
ac h
Ġw omen
U S
E T
Ġt wo
ĠĠĠĠ ĠĠĠĠ
Ġs y
ol og
us ion
Ġs up
0 1
ac y
p le
al ly
en c
Ġc ar
ress ion
ĠW e
Ġass oci
C L
Ġhe alth
Ġa pp
i ti
g er
Ġ k
Ġeffec ts
ĠC I
ĠC ON
Ġv s
p it
f orm
el ine
Ġweek s
Ġb ut
Ġm od
Ġch an
at es
Ġsc ore
il ity
unc tion
is e
d er
c ent
Ġ en
r on
Ġinc l
anc er
ar i
ti m
Ġimpro ve
Ġ [
ĠR ES
Ġeffec t
ure s
Ġ end
Ġus e
I ON
U L
er c
Ġb oth
Ġme an
Ġn on
Ġanal ys
k ing
US ION
Ġcontro lled
ĠRES UL
CL USION
ĠCON CLUSION
n e
ĠRESUL TS
Ġ +
Ġincl ud
op er
Ġpar ticip
Ġdis e
i tive
mp tom
il l
Ġ und
ain ing
im ary
Ġ ed
Ġph ys
Ġd o
ic acy
ter m
Ġbas eline
as s
e w
ĠTh is
a il
Ġch ild
at h
p l
Ġ ]
Ġc or
Ġtim e
Ġsh ow
pit al
os pital
i ed
D S
ul ation
Ġr ate
Ġs er
Ġran dom
Ġc ancer
Ġus ing
Ġa b
d ing
m ents
ac k
Ġprog ram
Ġreceiv ed
Ġdise ase
Ġres pon
g n
Ġha ve
H O
b in
ug h
Ġassoci ated
v al
at a
Ġde p
t ing
s er
oper ative
is ed
Ġto tal
th od
Ġda ys
Ġsy mptom
/ -
N D
ĠC on
c es
Ġres ults
tive ly
Ġper i
r ic
jec ts
Ġpr imary
t in
Ġf unction
Ġs el
o in
00 1
Ġan ti
ut e
er g
it s
ĠM ET
Ġres pec
s tr
al e
i ly
Ġ U
Ġm an
Ġa ge
tiv ity
Ġper form
mon g
Ġin v
a us
ati s
Ġex erc
ĠMET HO
at ing
ul t
o und
Ġd r
Ġpati ent
lo od
ĠP ati
Ġthe ir
ain ed
lin d
ĠR es
am in
Ġd es
Ġon e
i x
Ġ '
l ic
Ġ V
i an
0 5
ar t
e x
Ġa g
Ġoutcom e
Ġeff icacy
Ġm in
ff ec
er al
et y
ĠT o
Ġv ers
Ġm ul
Ġ i
ec tion
Ġm ay
Ġincreas ed
Ġus ed
ve ls
in al
re l
Ġperi od
Ġh ospital
Ġt est
Ġchild ren
Ġdec reas
Ġdifferen ce
Ġpre s
ro p
Ġle vels
ĠMETHO DS
Ġb lood
Ġpro spec
ul d
Ġw he
Ġs im
c on
a f
di tion
ĠThe re
m un
m a
Ġrespec tively
um b
Ġ1 9
ĠPati ents
Ġd id
on g
i o
A C
ĠS t
Ġvers us
as ed
s y
Ġexerc ise
Ġanalys is
Ġcomp le
re s
Ġc l
Ġtr ans
ic h
Ġ ve
Ġass ign
om e
ith er
Ġ2 4
Ġd ata
l u
ar d
Ġsub jects
Ġlow er
Ġ1 5
Ġp os
Â ±
Ġoutcom es
Ġhigh er
Ġth ose
Ġth ree
e ver
âĢ ĵ
on d
Ġa mong
Ġcon f
ther apy
ger y
iv al
Ġob ser
Ġg en
Ġdifferen ces
Ġm a
n al
Ġcomp ar
o ut
ati c
u e
ub le
ir st
os is
Ġf act
Ġe l
or ted
y l
Ġl ess
a vi
ab ility
Ġtr aining
at ory
Ġom ly
ic e
Ġassign ed
o x
Ġ2 0
Ġe ither
cl usion
Ġf irst
ls o
ĠM e
enc y
Ġsur gery
iz ation
am e
Ġwh ich
t en
ec ted
f ore
Ġcom bin
f er
ap h
Ġcar di
c ur
a v
Ġp red
Ġpro v
Ġqu ality
Ġ ro
u red
E C
c ular
h avi
Ġs mo
Ġeffec tive
i ver
b ased
Ġwe ight
Ġparticip ants
Ġa lso
Ġh y
Ġr ates
ation al
Ġtreat ed
Ġl if
he d
ĠCONCLUSION S
Ġdo uble
te m
Ġrandom ized
Ġthe se
Ġsymptom s
o v
Ġ1 1
Ġbe en
Ġsur v
ec ond
Ġ3 0
b lind
Ġdi ab
is s
od y
ĠRes ults
c ess
Ġn umb
Ġh as
il ar
Ġo ther
Ġb en
vel op
Ġinclud ed
ti g
Ġstud ies
Ċ ĠĠĠĠĠĠĠĠ
ĠĠ Ġ
ĠĠĠĠ ĠĠĠ
ĊĠĠĠĠĠĠĠĠ ĠĠĠĠĠĠĠ
Ġo p
Ġg reat
Ġassess ed
Ġs ys
Ġprospec t
og r
Ġd ose
he s
Ġv ari
Ġm o
Ġshow ed
Ġc an
ver se
Ġ1 8
Ġthe re
Ġex per
Ġ1 4
thod s
Ġin tr
Ġt e
sy ch
ow ever
Ġo c
R O
V E
atis tic
i um
Ġda ily
ic ation
a i
Ġdr ug
Ġrespon se
Ġreduc tion
or d
Ġe ach
Ġ /-
ec h
t reat
J EC
iv id
Ġs uc
m s
B JEC
ogr aph
Ġphys ical
Ġ es
min is
et es
Ġscore s
Ġin s
Ġpr ac
Ġv is
ic i
ri b
Ġpre ss
Ġde velop
ron ic
c op
âĢ Ĳ
yp e
Ġsup p
Ġsim ilar
Ġon ly
Ġd el
Ġac tivity
i le
Ġnumb er
Ġbe havi
Ġs p
as cular
ren t
ion s
Ġst r
age ment
t y
Ġben ef
es tig
ven ess
Ġgreat er
Ġ1 3
Ġ Â±
Ġar d
Ġ â
Ġchan ge
Ġsurv ival
Ġd ay
Ġsel f
ĠO BJEC
Ġdi et
Ġs ug
it ed
ĠOBJEC TI
og n
) .
Ġ1 6
ia gn
Ġbe fore
Ġund er
ac tion
Ġinter val
Ġg r
Ġr ati
Ġst atistic
Ġm m
Ġtrial s
Ġinc idence
ti s
Ġimpro ved
Ġwe ll
re c
ort ality
Ġper cent
a k
ent al
t ens
aus e
p t
Ġ2 00
Ġincreas e
Ġlif e
m ed
Ġ up
Ġinv estig
vi ew
ren ce
olog ical
C T
Ġreduc ed
n ess
rel ated
oin t
Ġchan ges
Ġpred ic
Ġprac ti
Ġpress ure
i or
el l
Ġc he
Ġobser ved
Ġf ound
ti veness
Ġ âĢ
Ġmeas ures
re qu
Ġwith out
Ġm en
t ained
Ġm ain
Ġg l
ad e
a z
U ND
Ġ2 5
c o
Ġrep orted
Ġo l
Ġm ortality
Ġperform ed
Ġch ronic
Ġad minis
Ġdiab etes
Ġev ents
Ġac ute
y ear
ĠCon clusion
Ġdes ign
A S
tro lled
Ġad j
ol es
Ġsys tem
v ing
Ġ it
o od
Ġimprove ment
at er
Ġs pec
ib le
Ġ Q
Ġcon duc
o uld
Ġd iagn
Ġco un
ar ly
Ġmeas ured
i e
Ġp op
K G
Ġm et
ĠB AC
Ġl ong
Ġs econd
RO UND
ĠBAC KG
ĠBACKG ROUND
ar ge
ter n
Ġ id
enti f
Ġw or
Ġre m
Ġex p
ro s
jec tive
ab l
tin u
o id
Ġne ed
Ġpost operative
a ke
p ar
p tion
Ġwhe ther
ivid ual
en ing
o ol
0 2
op h
o ugh
Ġwh en
an e
Ġrati o
k ers
Ġad dition
Ġpop ulation
x im
Ġf r
ar m
ĠP ro
Ġs ch
ĠA t
Ġad verse
Ġfact ors
it e
Ġc ol
Ġv alu
Ġ5 0
ac ter
it er
t o
Ġf e
g en
tr ation
Ġhy per
ad i
os s
Ġrece ive
is on
Ġf requ
af ety
ol ic
r al
es tion
ogn itive
Ġre qu
as es
ĠI I
Ġp sych
Ġoc cur
d ay
Ġevalu ated
Ġp e
ĠC h
Ġex amin
Ġde f
mon th
Â ·
Ġad v
Ġreceiv ing
Ġf ail
Ġa im
Ġc al
Ġind ic
am ple
ĠN o
Ġed uc
Ġcom mun
Ġpro b
Ġc r
tic s
Ġprov id
l er
Ġint o
Ġc y
Ġle vel
I V
m e
Ġb i
Ġpl us
Ġin iti
ti l
ing le
Ġsmo king
our s
Ġind ividual
g th
Ġm ost
Ġpro p
Ġh yp
Ġpracti ce
Ġman agement
Ġconduc ted
term ine
Ġor al
o ver
Ġdifferen t
Ġc ent
Ġde termine
Ġ >
Ġst at
Ġevalu ate
ĠT rial
Ġmeas ure
v ent
Ġsc re
Ġdep ression
Ġe p
Ġassess ment
ĠH owever
Ġconf idence
te red
Ġint ens
ĠC om
ter s
ĠMe thods
Ġpres ent
Ġover all
ve re
u ce
o f
T E
ro ugh
Ġb ody
Ġ1 7
ĠOBJECTI VE
Ġ1 00
Ġpro t
c ed
Ġcon t
Ġl oss
Ġev idence
Ġs afety
ar g
un g
Ġmod el
Ġf in
Ġwith in
we ek
Ġapp ro
a x
c in
Ġe arly
Ġp o
Ġmul ti
w ent
ĠA n
Ġs ingle
Ġd os
Ġt ype
Ġf our
Ġdecreas ed
Ġper s
Ġ K
Ġa bo
j or
Ġintervention s
n ow
Ġs ample
Ġid entif
cent r
Ġhe m
ul in
reas t
Ġ ur
h ol
Ġgen eral
ate g
Ġre d
Ġm us
p ir
ar di
ro ss
te in
orm al
Ġom ised
Ġstatistic ally
Ġmed ical
Ġcon centr
Ġne w
0 3
ĠA ll
er ate
ĠSt ud
Ġde ath
Ġt es
m b
vi ous
Ġm ic
Ġsupp ort
Ġintr a
Ġeffec tiveness
end ent
Ġen ro
Ġc ognitive
Ġmed ian
Ġ2 1
Ġstat us
Ġ4 0
ro und
o b
ĠG roup
Ġfollow ing
ĠP A
ĠA fter
Ġma jor
Ġser um
ur ther
Ġfollow ed
Ġcomp lic
con trolled
ĠH IV
mon str
tion al
U R
Ġo x
Ġd et
Ġt er
ment ation
it ation
Ġde monstr
ĠS c
Ġse vere
i qu
Ġpos itive
Ġan y
c le
Ġth rough
Ġal one
Ġhe art
Ġn ai
on ary
ur rent
ed ing
er v
Ġv ol
enti al
Ġb reast
Ġ ly
Ġinf orm
Ġp ot
d s
Ġc ost
Ġin h
Ġpre gn
Ġrequ i
Ġcomple ted
olog y
g est
ti t
ĠThe se
anc ed
h ort
Ġh ours
as ma
ĠA l
ar ch
iti es
i ven
Ġdur ation
Ġres ult
Ġind ex
or al
0 4
Ġp a
I G
p ati
ov ascular
Ġ J
c er
ding s
Ġcombin ation
f ul
k in
i tion
Ġqu estion
am ine
th ough
Ī Ĵ
Ġ j
ĠP ar
on s
it or
is ion
Ġadj us
r u
Ġund erg
Ġreg im
ep endent
Ġh ome
Ġcomp are
u th
ech n
ur al
tom y
ĠA d
Ġred uce
Ġcon tinu
Ġ6 0
Ġbet ter
Ġinf ection
Ġc lin
Ġcompar ison
Ġ2 2
at in
Ġrel ative
n ing
g ical
o le
Ġpre vious
o ing
Ġto ler
Ġmod erate
Ġc oll
I N
Ġle ast
Ġse ver
Ġg iven
Ġat t
Ġph ase
iss ion
Ġcal c
Ġac h
Ġabo ut
Ġsup ple
Ġ2 8
Ġm or
ate ly
Ġint ake
Ġach ie
Ġfail ure
Ġexper i
ĠD ES
Ġgl uc
Ġus ual
Ġinclud ing
g roup
ĠA ND
Ġs ix
Ġf l
Ġcor onary
Ġbas ed
Ġre view
IG N
oci al
oin ts
u id
Ġl im
Ġran ge
g round
Ġ "
ĠB ack
end ed
R T
ĠDES IGN
Ġperform ance
Ġse x
Ġsug gest
Ġcommun ity
Ġn ur
Ġt echn
Ġol der
ĠConclusion s
Ġst ro
Ġk now
Ġmed ication
Ġpre vention
j ur
1 2
ĠC linical
ĠStud y
Ġsch ool
l i
ĠO b
Ġm y
u tion
ter vention
TI ON
Ġscre ening
he rence
anc y
at al
Ġco uld
Ġ ul
Ġpro ced
duc ed
r y
Ġrec ord
Ġag ed
Ġes tim
Ġar ter
ĠB M
ĠH e
Ġcom mon
Ġac tive
Ġdis t
Ġde ter
C I
os ed
et ting
Ġ19 9
1 0
Ġpro st
am m
Ġmic ro
n d
ab il
oc ol
Ġcons um
h y
Ġeduc ation
l ine
ter ol
Ġstro ke
Ġf lu
Ġpl asma
Ġb one
Ġimp ort
m ic
Ġoccur red
Ġfin dings
Ġre com
s es
mo therapy
Ġanti b
k g
Ġimp act
Ġ2 3
Ġcardi ovascular
ĠBack ground
Ġl oc
Ġl i
c rib
Ġthe y
Ġb l
Ġimp l
Ġh ist
m all
R I
a ir
Ġ2 6
Ġch ar
Ġs ess
Ġdecreas e
ĠM ed
l ed
Ġenro lled
ce pt
Ġins ulin
Ġne u
Ġac id
P A
Ġs ens
Ġad ults
c or
abl es
Ġcomplic ations
i at
if ied
k ed
Ġsh ould
se l
Ġcon tr
Ġsh ort
in ary
m it
ul mon
g ative
Ã ©
om a
ress ive
Ġv it
ent er
ver age
Ġin jur
Ġsuc h
ulmon ary
Ġgluc ose
Ġm al
N TS
Ġas th
ĠH R
) ,
Ġc ases
Ġcr iter
Ġb ec
cop ic
Ġm ar
Ġf em
ro l
Ġcombin ed
Ġd ys
Ġstr ateg
Ġv er
oc k
Ġre se
Ġclin ic
Ġfor m
iti s
ab or
v es
Ġ if
med i
ĠM A
id ity
Ġrep ort
Ġrese arch
Ġe qu
Ġm ass
. <
ec t
Ġinform ation
ĠI N
Ġche motherapy
Ġdef in
Ġv al
ent ly
Ġther ap
le v
Ġprot ocol
Ġsc ale
x i
Ġcontro ls
ograph y
og en
Ġ4 8
Ġf at
arm ac
Ġ3 6
Ġ er
ĠPar ticip
iz e
atis f
u ter
Ġnai re
str uc
Ġ its
treat ed
Ġrel ated
Ġinf lu
Ġfunction al
A L
Ġel ec
Ġunderg oing
Ġn ormal
tens ion
ane ous
Ġrec ru
Ġchar acter
Ġop en
Ġinf ants
Ġim mun
ĠU n
in es
r an
Ġa ffec
tr ic
Ġmul tic
op ro
duc tion
Ġar m
om et
Ġw ill
e u
Ġco hort
r a
ici ans
Ġcardi ac
Ġa v
Ġme thod
tic al
Ġo per
Ġwh ile
Ġevalu ation
v ic
ĠO R
Ġin jec
Ġk g
Ġsur gical
Ġwor k
cl ud
is h
Ġrecom m
Ġe ver
Ġdeter min
oc ardi
ren gth
Ġbenef it
Ġcriter ia
is hed
im ental
xi ety
Ġ3 5
Ġad herence
Ġâ ĪĴ
ĠParticip ants
ĠHe alth
is ted
am ic
is m
Ġc ap
Ġdos es
Ġinh ib
Ġasth ma
Ġprop or
Ġl ip
C O
ag es
Ġanal ges
Ġp at
Ġsuc cess
M S
ro w
Ġspec ific
Ġy o
Ġpre val
oles terol
Ġf ib
ys is
ĠR e
Ġg uid
ut ri
Ġpre vent
Ġprob le
ograph ic
Ġ2 7
T he
E ffec
Ġox y
Ġiniti al
ĠF or
Ġf ew
Ġt um
ĠP re
Ġvalu es
Ġre nal
Ġall oc
M E
Ġtreat ments
Ġdel iver
iat ric
Ġgr ade
Ġli ke
Ġâ ī
Ġadminis tration
Ġfact or
at or
Ġtim es
Ġtechn iqu
ĠA c
ĠE x
Ġs atisf
ĠO ne
Ġfrequ ency
00 01
ti es
Ġanalys es
e tic
Ġs al
ven ous
Ġst ress
Ġpregn ancy
ur p
Ġs mall
vention al
ne e
Ġcl ass
d ose
Ġind ependent
at he
Ġimport ant
Ġadminis tered
Ġvol um
Ġs us
Ġdemonstr ated
o red
Ġpro f
Ġs tim
Ġ3 2
ĠM E
Ġb r
ur ing
Ġst rength
m ission
Ġth rom
Ġmus cle
Ġs ide
Ġf am
Ġexamin ed
in f
D L
arg et
pir atory
ec tomy
Ġ ir
s ing
rec t
ĠI C
Ġn ec
Ġsever ity
or ts
ĠO n
Ġinv ol
ain s
urp ose
Ġever y
ti al
Ġb ack
Ġl arge
h ip
ut es
olog ic
Ġhealth y
Ġt w
Ġrel i
ĠO f
Ġcon dition
ĠS D
ĠD es
Ġ9 0
is ts
re p
Ġcon ventional
Ġpar ame
Ġdis c
Ġsecond ary
m ia
Ġpot ential
Ġlike ly
cor ding
und red
ĠS ub
Ġdevelop ed
Ġs it
2 5
Ġpredic t
Ġr adi
Ġs ame
os tic
reat ment
Ġg as
Ġa verage
Ġf urther
l amm
os ts
Ġob es
Ġ2 9
b al
ir th
Ġvari ables
Ġdis ch
Ġconsum ption
Ġ3 1
em ia
f usion
Ġr ad
c t
Ġfr act
Ġcy cl
ĠSc ale
pati ent
u ff
d e
Ġp oints
le eding
Ġp ub
Ġp ri
al ed
Ġdiet ary
Ġde m
ĠC O
ist ance
Ġpar t
ap a
t est
iver s
Ġ4 5
o k
um ab
h abil
se qu
Ġre f
Ġpro tein
ec tions
P O
Ġc ross
Ġp oint
di tions
Ġex t
v ir
ess ation
op le
co hol
Ġrandom ised
Ġ7 5
ag ing
1 5
ĠP h
Ġimprove ments
r h
Ġph armac
e ffec
Ġh undred
i tivity
Ġs etting
ul ated
ment ed
Ġ3 3
Ġantib io
an dom
x ic
Ġcon ditions
nd rom
Ġch olesterol
enc ed
g an
ocardi al
Ġexper imental
Ġd ue
Ġintens ive
Ġsup er
P D
Ġdevelop ment
g i
Ġsug ges
Ġconcentr ations
Ġprog ression
Ġan xiety
Ġcharacter is
Ġk nee
N G
Ġe mp
Ġtes ts
er ic
Ġd ate
Ġ8 0
ĠC A
Ġparame ters
os ure
le ep
Ġab s
habil itation
f ree
Ġc osts
Ġintra venous
Ġpreval ence
Ġaddition al
Ġc essation
Ġ ill
Ġt arget
Ġunder went
Ġob tained
s te
Ġreg ression
or der
Ġwhe reas
ec u
ib ility
at ure
Ġw ould
le ar
Ġreduc ing
Ġadv anced
treat ment
ur n
Ġreg is
i ous
is od
ical ly
o therapy
Ġ2 01
Ġf ive
it ing
iv ed
Ġprovid ed
Ġob jective
Ġh um
Ġdiagn osis
io therapy
Ġpo ly
p ro
ech an
ĠB oth
Ġanal y
Ġac cording
Ġsess ions
00 0
Ġma xim
Ġ3 4
led ge
Ġvolum e
Ġrecord ed
Ġad d
ĠI t
Ġc urrent
Ġne gative
ĠAl though
ĠIn d
Ġb leeding
Ġvit amin
1 1
he l
g r
ter oid
lic ation
m an
+ /-
apa ros
Ġsur ve
der ly
Ġe m
t ain
Ġidentif ied
Ġpos s
S A
ĠâĢ Ļ
ph yl
Ġen h
Ġme thods
Ġc ir
Ġdrug s
Ġ /
Ġs a
Ġtw ice
Ġindividual s
Ġha z
Ġs ocial
Ġp ulmonary
Ġregim en
cop y
ĠT reatment
v ice
Ġal cohol
Ġhaz ard
Ġrequi red
Ġpri or
pl ant
Ġstud ied
Ġdeliver y
Ġc ell
ĠS ET
ĠIn tervention
Ġcomple te
Ġvalu e
went y
Ġsub st
Ġinjur y
le t
Ġconf ir
TI NG
R P
2 0
Ġb lind
Ġm ater
Ġbec ause
Ġmed ic
Ġmy ocardial
Ġpe ople
1 3
Ġl ung
Ġappro ach
ĠS T
Ġdisch arge
ĠI mp
ĠSET TING
Ġo ur
Ġ7 0
erg y
1 4
Ġsel ected
b idity
Ġneed ed
Ġsy ndrom
Ġachie ved
Ġassoci ation
our se
Ġmulti ple
eu tic
Ġm ild
Ġ6 5
Ġres id
Ġalloc ated
Ġre habilitation
Ġpa ren
Ġep isod
Ġdefin ed
Ġcharacteris tics
ĠOb jective
Ġrep e
d ro
Ġknow ledge
Ġhyp ot
Ġst age
Ġprogram me
3 6
Ġad oles
Ġinf ections
p oint
Ġprost ate
az ole
Ġav ail
Ġh owever
Ġs ome
Ġl es
C A
Ġte le
AS UR
ĠIN TE
Ġb irth
ĠME ASUR
Ġ u
Ġin g
Ġvis its
ri tis
Ġintens ity
at eral
Ġsupple mentation
Ġanaly z
Ġadjus ted
oc y
S E
Ġs ol
ĠW h
Ġex tr
Ġs l
c al
ĠO ut
ĠW ith
Ġs leep
S T
Ġ3 7
ive ly
uc t
ĠA ss
Ġim medi
Ġsatisf action
Ġobser v
Ġdetermin ed
g ed
Ġmin utes
andom ized
tic ular
Ġm echan
ff icacy
est hes
Ġshow n
ations hip
1 6
e red
Ġinf usion
ph one
Ġel derly
ecu tive
Ġ z
Ġinvestig ate
Ġo d
Ġcons ist
an d
Ġpropor tion
Ġrecru ited
Ġmin im
in c
ow er
vic es
Ġcoll ected
ĠO ur
itor ing
en gth
Ġ3 8
ĠP r
Ġimp le
Ġloc al
Ġres istance
ac tive
Ġc aus
em ic
un t
ĠT wo
Ġsuper ior
Ġhyper tension
Ġg ly
over y
Ġs ize
Ġvis ual
Ġon ce
ath y
Ġur inary
1 8
Ġrel ap
ion al
il ot
Ġc athe
Ġ4 2
Ġf ac
ĠI V
Ġl abor
Ġâī ¥
Ġarter y
Ġcol on
ens ity
Ġse en
Ġprospec tive
ter ior
ĠBM I
Ġincreas ing
Ġprov ide
Ġ5 2
Ġc ase
ic ial
Ġl o
a ine
feren ce
Ġper ce
Ġtest ing
Ġhe l
y n
Ġ ent
c are
Ġod ds
Ġp urpose
Ġex pl
Ġinvestig ated
ic ian
Ġrel ationship
ide red
od ium
Ġphys icians
Ġl aparos
ĠR CT
Ġpro m
Ġn utri
Ġhist ory
ver s
Ġsa fe
on ger
Ġcons idered
Ġdis order
ce ll
iv ing
Ġsyndrom e
l es
1 7
Ġh ip
Ġincreas es
mp h
Ġbenef its
ĠII I
Ġf av
Ġst ay
ĠA s
Ġo ste
r isk
Ġbehavi or
m eric
Ġro le
Ġmultic enter
Ġsmo kers
esthes ia
Ġr ct
ĠO ver
O L
em b
Ġf ood
ten ance
w ard
Ġpro cess
ve ment
m en
ress ed
Ġw a
Ġcoun sel
ĠD ata
Ġrec ur
we ight
ear ch
Ġm at
ĠD uring
Ġsens itivity
Ġ est
Ġw al
Ġpercent age
Ġtes ted
Ġ3 9
Ġres piratory
ut aneous
Ġfe as
Ġdif fer
Ġl ength
5 0
Ġproced ure
3 0
ic k
ten tion
Ġare a
le x
Ġimpl ant
Ġint en
Ġs k
ĠA D
ment al
Ġm id
os ph
Ġavail able
ig ible
2 4
l ace
Ġrec overy
Ġb al
Ġcontinu ous
1 9
Ġl onger
ce t
s et
Ġ4 4
Ġcompar ing
Ġ âĢĵ
p os
as on
Ġpro phyl
Ġv en
C S
Ġpo or
c he
Ġ Î
ag ed
Ġbe ing
Ġweek ly
Ġre t
Ġf ul
B T
Ġth ir
Ġp ath
Ġconcentr ation
Ġoxy gen
ĠD i
Ġto xic
B P
Ġtherap eutic
ak en
ad ing
Ġexperi enced
Ġof f
Ġpers on
Ġinter view
ĠH b
Ġv i
Ġ ion
a ff
Ġinjec tion
Ġcor rel
Ġmor bidity
Ġth en
Ġem erg
Ġfam ily
Ġbehavi oral
Ġd oc
c ri
Ġstim ulation
Ġinf lamm
spec ific
p s
ĠS e
Ġs o
Ġfew er
al es
jec t
ĠOut com
y cin
id er
ĠA I
Ġapp ear
ti vi
Ġin te
Ġp ilot
Ġex amine
ĠS ix
tens ive
Ġt ren
Ġanalyz ed
ĠC H
ĠB P
ific ation
rop ri
og lo
g ram
spec tive
Ġal tern
Ġmain tenance
ĠD ep
Ġ5 5
ĠT wenty
Ġhypot hes
9 5
il ls
ĠT r
Ġcomp li
Ġcomp uter
ix ed
ar r
ec tive
Ġc ourse
Ġul tr
Ġcounsel ing
Ġ Â
Ġv ir
I I
7 5
Ġcl us
Ġinf a
Ġpl an
Ġ ively
ĠTrial s
Ġag ain
ĠSub jects
Ġrespon ses
a ro
Ġl og
ĠCom p
ĠA mong
Ġcompar able
Ġun it
enti l
Ġtele phone
Ġsch iz
b e
N A
Ġhum an
Ġro ut
g in
Ġde g
y le
us s
ĠC D
Ġcir c
at ors
or mon
Ġproble ms
Ġh al
erv ical
V ES
d r
Ġpro l
oph ren
e th
Ġc ur
Ġb o
Ġcoun t
el ines
Ġdec ision
ĠN CT
ros is
tiv es
Ġtechniqu e
c hed
ĠF urther
Ġcons ecutive
Ġar th
Ġstrateg ies
f t
res pon
Ġa mo
ot or
p art
Ġm ale
ag inal
Ġphys ician
ĠDes ign
aus al
R S
Ġa ut
ĠOBJECTI VES
Ġf al
ari ate
us t
Ġm l
op ausal
Ġrout ine
om ic
Ġtoler ated
Ġest abl
Ġrespon d
g ov
in s
Ġme th
Ġrem ained
Ġv entil
Ġpar ticular
U T
Ġc el
t ure
Ġe ight
Ġsub sequ
t es
ĠS econd
Ġidentif y
pit e
Ġinflu ence
as k
Ġcompli ance
Ġal though
is c
Ġs our
Ġlaparos copic
Ġprog n
Ġ4 6
Ġfem ale
ĠQ u
tivi ties
Ġc reat
ut ure
Ġdiagn osed
Ġrecomm end
Ġc e
0 6
Ġ4 3
Ġm ag
Ġposs ible
ĠC T
Ġpre operative
ĠS ur
b ack
% )
Ġpres crib
ore c
st in
Ġprevious ly
ĠH C
Ġre ve
Ġb el
Ġmm ol
Ġ+ /-
ic ot
Ġ7 2
r in
Ġsex ual
Ġdep ressive
ne um
p re
Ġlim ited
is ation
lo bal
ab el
ĠMA IN
ĠA meric
r it
clud ed
i el
Ġmeasure ments
Ġre ac
Ġm ental
Ġdes crib
ĠTh ir
l or
Ġen ergy
Ġmon itoring
c utaneous
qu e
is tic
Ġindic ated
it ud
Ġser vices
Ġstud ents
Ġ Y
Ġs odium
ĠR R
Ġv ac
t olic
Ġschiz ophren
c ents
ĠH g
v ant
ut ed
Ġgr af
ri ef
Ġs kin
Ġprogram s
ord ers
ĠP UR
tro l
Ġrecur rence
Ġimpro ving
ive red
Ġad ult
rep orted
ĠA b
oc us
Ġreduc tions
PO SE
op l
Ġbl ock
om y
Ġanalges ic
Ġtrans plant
Ġg ood
ast ing
Ġm L
Ġhe ad
ĠPUR POSE
orec tal
Ġh ormon
id ine
VE N
Ġcomp os
ĠINTE R
enc es
ĠA nal
as one
Ġle ft
Ġmodel s
Ġu til
en e
Ġcar ri
oglo bin
ar ding
Ġg row
em s
Ġguid elines
ĠMe an
Ġdis ability
Ġproced ures
ap ine
Ġestim ated
VEN TION
Ġexp osure
Ġs ign
Ġter ms
p ass
v ari
Ġimpro ves
Ġa m
dom inal
o al
in ine
Ġstrateg y
ĠO UT
ax is
Ġcathe ter
rol og
ĠOUT CO
Ġin duction
Ġ4 7
w ay
Ġtum or
ĠINTER VENTION
Ġlip id
Ġfl ow
icot ine
Ġt iss
os copy
ĠC o
f unction
2 8
Ġm uc
Ġdi rect
ici ent
Ġdif f
f en
Ġthrom b
as is
Ġab stin
ici ency
Ġbenef icial
Ġepisod es
tim e
Ġpro duc
Ġac ross
R TI
Ġac tivities
Ġpat tern
Ġdo es
v alu
R A
Ġsub group
ol ar
Ġac cept
Ġ5 4
ent ric
or k
ĠSecond ary
Ġanal og
g l
al le
um in
ĠR ec
Ġstatistic al
a king
Ġexamin ation
an ti
Ġan gi
Ġregim ens
ar in
Ġs ti
h ood
Ġex pec
ĠHb A
ropri ate
C E
Ġvis it
Ġantibio tic
ivers ity
Ġly mph
ĠRe g
ol d
I n
ag l
o ther
al ing
Ġres t
Ġ x
Ġrequi re
Ġcomp on
Ġcalc ium
Ġr ating
Ġhel p
Ġ4 1
ast atin
Ġp neum
Ġpe ak
ĠE n
ph ine
Ġsuccess ful
Ġst ron
Ġop tim
ĠCO PD
Ġsit es
3 5
Ġinten tion
Ġ unc
ip h
Ġun til
Ġtren d
Ġev ent
Ġsk ills
Ġre fer
Ġimp air
N S
s c
Ġdr in
a ys
ac ity
Ġc lear
u it
Ġflu id
G F
Ġad mission
ĠR andomized
Ġ4 9
Ġ5 6
a um
est yle
2 2
ph a
Ġ $
Ġparticip ated
en ed
r ine
Ġof ten
it al
Ġnur se
Ġimpl ants
t le
Ġpsych ological
n er
is ing
Ġrep lace
o tic
TI E
Ġcons isted
Ġdiab etic
Ġ6 4
Ġrelap se
Ġby pass
b ral
ĠP l
Ġe lev
ti le
Ġbehavi our
Ġreve aled
Ġm ade
Ġdel ay
Ġsurve y
ĠC ancer
mit ted
cin oma
Ġgen er
F S
opro tein
Ġde x
Ġsys tolic
enti a
Ġyo ung
Ġreg arding
Ġver y
0 7
i er
Ġadoles cents
Ġa er
am p
ĠPA TIE
Ġcel ls
Ġthir d
Ġc ervical
on ic
Ġreport ing
Ġme mb
alle l
Ġor gan
Ġqu it
ĠP D
ĠN e
p r
g ue
ĠC R
Ġreduc es
Ġreg ard
Ġcap acity
00 2
it r
men opausal
ĠI L
Ġom ization
Ġl ater
Ġrepe ated
Ġtrans fusion
Ġthe m
Ġd er
ĠA f
Ġel igible
Ġha em
ĠW omen
Ġven ous
Ġsus tained
Ġclus ter
ĠCh ild
Ġn icotine
Ġm ight
if e
Ġc ause
ef ul
ed back
tin ence
Ġill ness
ĠThir ty
f ied
Ġis che
Ġdis orders
ĠM ul
ens ive
or rh
Ġe ven
Ġac cur
Ġus eful
3 4
ob ic
Ġreli ef
Ġdis con
Ġt yp
ĠOUTCO ME
Ġcycl es
Ġfunction ing
ĠâĢ Ķ
it us
Ġl iver
Ġagain st
2 6
I D
ll ing
Ġpar allel
Ġmul tiv
e qu
Ġmaxim um
Ġeduc ational
Ġrecomm ended
Ġg est
Ġas pir
Ġemerg ency
Ġend point
Ġrec urrent
ac in
Ġhy dro
Ġbi op
Ġles ions
ac he
ĠAf ric
form in
entric ular
4 0
Ġne on
Ġb acter
ĠC P
Ġsc hed
Ġanalges ia
id ent
um m
i ological
Ġw ound
ar ger
is es
ĠP ain
Ġknow n
Ġ5 3
tr y
Ġle ad
u vant
ati gue
Ġsystem atic
Ġon set
Ġtiss ue
Ġdys function
Ġha ving
Ġpres ence
ial ly
Ġre ad
tr al
Ġinc on
l ied
ast y
Ġaltern ative
8 0
Ġgas tro
on ia
2 3
I C
Ġgrow th
Ġh er
Ġ5 7
Ġatt end
Ġa uth
Ġconfir med
Ġcont rib
Ġout patient
Ġ8 5
Ġsal ine
ĠP ost
ĠPr imary
8 5
re st
CI PA
Ġc m
Ġpers ons
I S
ĠP E
Ġ US
o ro
Ġabstin ence
Ġun its
Ġf ocus
or n
ody n
Ġobes ity
Ġexperi ence
Ġst able
end er
Ġ5 9
Ġtoxic ity
ĠP er
Ġmo b
p or
f ace
Ġobes e
ap id
th asone
xim ately
RTI CIPA
ar ia
ĠF ort
Ġindic ate
ĠC V
ĠPA RTICIPA
2 7
Ġdel ivered
Ġf ree
Ġan a
Ġsubsequ ent
ĠPARTICIPA NTS
Ġsymptom atic
Ġg oal
Ġh om
= .
Ġrad iotherapy
Ġs ite
Ġst ate
ĠOver all
Ġcol orectal
Ġfract ure
Ġreg ular
Ġab ility
in tervention
oth ers
Ġfac il
Ġadjus t
Ġman y
ĠInd ex
in duced
Ġs uff
Ġcalc ulated
ach ing
Ġschizophren ia
A R
ĠComp ared
E R
Ġbet a
ĠPATIE NTS
Ġinhib itor
ivid ed
Ġdiscon tinu
ĠAss ess
if ty
Ġreplace ment
he m
ĠPh ys
ed iatric
Ġlif estyle
Ġcontr ast
us e
ĠIn tern
Ġdet ected
ĠFort y
Ġaffec t
Ġc ult
Ġte mp
as al
Ġ5 8
ai red
Ġg ain
ause a
RI AL
2 1
u le
ap p
Ġv aginal
Ġcor related
tiv ation
il lin
Ġcons ider
iel d
at ur
te x
Ġab dominal
6 0
' s
Ġdiagn ostic
Ġapp lied
Ġdem entia
Ġser ious
ac tic
te en
Ġl as
Ġto ol
Ġbal ance
um p
9 9
ne y
Ġv ascular
Ġstr uct
Ġ5 1
U D
a w
Ġwal king
or i
Ġcon clusion
Ġmet ab
Ġto p
Ġre lev
anc es
Ġrece pt
Ġmain tained
Ġfrequ ent
art ment
3 3
Ġfract ures
Ġnec k
ing s
ab ly
I T
av ir
ti d
l abel
Ġcontinu ed
Ġd ivided
C om
b umin
Ġhigh ly
Ġe mb
Ġpredic ted
Ġl arger
Ġan terior
y mptom
8 6
Effec t
Ġcarri ed
Ġc ri
9 0
struc tion
ĠN S
Ġa ir
ĠQu estion
Ġinterval s
Ġdeath s
Ġret urn
r ane
Ġac cess
4 5
fe red
g ing
Ġne ut
ron ch
Ġmedic ations
ĠF ollow
Ġto ward
Ġ Z
pos itive
lo y
ĠM ore
Ġbehavi ors
ĠAmeric an
00 5
Ġ6 3
Ġd one
Ġ6 7
Ġt ub
odyn amic
Ġpredic tive
Ġwh om
Ġse ven
Ġep id
ac er
Effec ts
Ġprom ot
Ġfav or
i ents
are t
ap er
6 5
Ġa cet
Ġmet formin
im in
Ġarter ial
ol ism
Ġimpair ment
Ġnur sing
8 9
b er
Ġar ms
Ġprof ile
ig aret
l ished
Ġs ed
2 9
Ġst ar
am ide
Ġwith d
Ġrep res
d ep
Ġr apid
Ġhospital ization
Ġd ensity
ĠM an
Ġl iving
Ġl ine
n ormal
Ġnot ed
Ġbas is
Ġover weight
ro ph
Ġs ignific
Ġprophyl axis
Ġte am
as ive
ul atory
8 8
Ġ6 6
Ġschool s
Ġmar kers
Ġcent ral
io id
Ġce re
Ġrep orts
ch an
im e
ast olic
Ġse qu
ĠIC U
ti de
ame thasone
Ġn ausea
M P
Ġf atigue
Ġm others
3 7
r s
Ġor der
l ist
ĠTh ree
Ġapp ropriate
Ġb rief
ĠMEASUR ES
ad j
ĠAssess ment
Ġmater nal
Ġe t
Ġdiff ic
IN G
ch ing
Ġproble m
ce mic
m L
ĠH ospital
Ġdoc u
Ġp ower
par in
ĠCon trolled
hol d
par ison
str act
Ġsever al
g et
Ġblind ed
omet ric
Ġb up
od e
Ġpers ist
8 7
ĠE u
Ġful l
m al
Ġmod ified
ar th
ĠDep ression
id one
Ġ6 9
Ġestabl ished
Ġt ri
or b
Ġup per
d en
umb ar
Ġdep end
Ġbr ain
ĠWh en
Ġpl ay
it tle
Ġstr ati
ĠV AS
Ġpl ate
Ġim aging
Ġtechniqu es
im ens
Ġauth ors
o ot
Ġcorrel ation
oc aine
Ġme m
Ġprol ong
Ġsystem ic
Ġt ask
as ound
Ġimmedi ately
ĠD is
Ġv entricular
Ġ6 2
Ġ7 4
Ġpracti tion
ud es
Ġf it
Ġdist ress
v ascular
ol ec
Ġincon tinence
Ġm otor
le ase
Ġappro ximately
Ġan esthesia
Ġbi as
Ġ6 8
Ġhormon e
ĠL DL
< .
7 3
0 9
Ġthrom bo
h ing
a que
jec tion
spec t
ist ant
n is
Ġt aken
Ġund ers
ĠRes earch
Ġnai res
Ġd om
Ġparen ts
B S
Ġst ep
Ġre mo
Ġ &
Ġcar cinoma
Ġle g
d L
ce p
ĠIn s
n ed
ĠTh er
ĠPro spect
ĠIn c
Ġf inal
Ġsignific ance
ra w
Ġperce ived
te mp
8 4
ĠP C
Ġdec line
ĠE ffec
A P
u es
il ateral
Ġg lobal
Ġad equ
d ers
x y
Ġsti ll
Ġpredict ors
Ġf all
is ms
Ġcon cer
hy dr
Ġdisc uss
Ġmicro g
Ġser vice
Ġfeas ibility
ac ed
Ġsugges ts
Ġcy cle
Ġir on
Ġter m
Ġall ow
Ġ enc
Ġhospital s
6 7
Ġs w
Ġv ia
00 3
Ġexerc ises
Ġcross over
ĠC are
ĠD ec
ed uc
Ġb est
Ġcent ers
Ġneu ro
Ġregis tered
l ess
ri es
Ġrecept or
Ġprovid es
V A
ter one
Ġsugges ted
c k
m l
Ġt aking
Ġ6 1
Ġparticular ly
Ġpub lic
0 8
l im
un te
Ġsol ution
he st
Ġn or
i ent
Ġex c
iz umab
Ġspec ial
Ġpub lished
ĠM I
Ġresid ents
Ġneu rop
Ġpro duced
Ġfrequ ently
ul ative
O R
Ġapp lication
clud e
Ġwhe re
Ġmal aria
Ġaer obic
Ġclinic s
3 2
Ġ9 6
g ly
Ġ7 6
t wo
Ġpost menopausal
Ġa mb
Ġelec tr
a ren
v astatin
Ġhal f
Ġag ents
Ġf lex
Ġres ection
he tic
Ġinter action
fer on
Ġlabor atory
Ġc op
Ġlip oprotein
Ġwho le
Ġch o
Ġaspir in
erc ise
h our
D M
c ine
or tic
effec tiveness
Ġthrough out
Ġw ater
k er
ax el
Ġfe edback
iph eral
Ġ15 0
Ġfal ls
up p
or ter
Ġ4 00
rec ted
Ġl ate
ĠIn f
Ġelec tro
7 0
Ġhypothes is
ell itus
Ġc ateg
Ġb ronch
ĠM ain
Ġa reas
ĠN ew
Ġtr aum
Ġ8 4
Ġpneum onia
â ĪĴ
Ġe ar
os ocial
3 9
ĠA r
M I
Ġcreat inine
ĠThe y
ic in
e ti
Ġcons ult
Ġdi astolic
ĠS ignificant
M T
ail ored
Ġcare g
jec tives
om iting
Ġhe parin
ual ity
Ġc igaret
Ġsess ion
Ġcar b
Ġmeasure ment
Ġemp loy
acer b
Ġmem ory
Ġdi al
Ġs ul
Ġsh orter
Ġhem oglobin
Ġadjust ment
Ġ7 8
adi tional
part um
Ġadv ant
Ġ Ã
Ġoc c
7 9
P V
Ġend ot
Ġend omet
Ġtoler ability
Ġop ioid
en ia
id es
Ġequ ival
B G
Ġl iter
Ġultr asound
f our
test inal
3 8
pati tis
ĠN ational
oc al
Ġde vice
Ġpre term
Ġmor phine
7 6
Ġg ender
ĠMEASUR E
P S
Ġt able
L A
ial ysis
Ġimmedi ate
ĠS F
Ġrelev ant
ĠC BT
ig hest
ĠS p
Ġ5 00
Ġsp inal
ens ion
Ġtransplant ation
Ġgas tric
opro st
ĠChild ren
Ġantibio tics
Ġs teroid
Ġnec ess
Ġenh ance
valu ation
ent re
z y
Ġvol unte
Ġf uture
Ġme ans
Ġh ous
ĠE l
Ġinte gr
ag on
Ġrandom ly
Ġwithd raw
Ġv ide
Ġinjur ies
Ġpar tial
ĠU sing
Ġtoler ance
Ġh ighest
ĠPati ent
Ġinvol ved
ĠF I
Ġimple mentation
Ġab normal
Ġm is
Ġve get
ven tive
m atic
Ġcent er
o arth
b r
Ġl ast
Ġres tric
Ġard ized
Ġs in
3 1
hel ial
4 4
he a
ul ating
âĢ Ļ
Ġrem ission
iz ing
Ġparticip ation
in testinal
Ġse par
Ġtr ained
Ġdist rib
Ġe th
Ġnur ses
Ġm ellitus
re ad
rop e
ĠF ifty
ĠSix ty
Ġ ib
Ġ7 9
t aining
d ependent
M D
Ġex acerb
Ġs et
Ġb ase
ĠD ise
Ġrep air
Ġnutri tion
Ġ7 1
Ġhe patitis
act ory
Ġdecreas es
Ġl umbar
an g
Ġmater ial
vari an
vir on
Ġto b
Ġcor tic
y r
Ġperiod s
erg ic
u k
ĠP R
Ġoper ation
Ġrespec t
Ġische mic
Ġhe p
Ġh ow
Ġe y
pec ially
o L
z apine
a ve
er ve
ĠâĢ ľ
Ġs pon
Ġl ittle
ĠC l
ĠMe as
ur ia
og ly
ow el
Ġf asting
Ġe mo
ĠR E
Ġinflamm atory
re g
Ġf as
ĠIn ter
U C
Ġadv ice
ocy te
t ake
ĠR T
Ġes pecially
ĠE ight
Ġ8 6
ĠS etting
Ġs oci
4 8
Ġrecommend ations
Ġtr act
Ġappear s
Ġr h
Ġprogn ostic
A TION
Ġa p
Ġmin or
if y
ur ance
ĠMed ical
enti ally
ent an
Ġcont aining
Ġper ipheral
Ġin str
Ġaffec ted
ĠP T
Ġpresent ed
a ily
re h
unc ture
et ine
ĠAfric an
ib r
Ġv omiting
Ġnon s
m g
Ġrem ains
Ġlas er
Ġunders t
os teroid
Ġdeg ree
Ġsy n
id ney
ĠF our
re tion
4 9
ĠS E
Ġelev ated
Ġ7 7
6 6
ac tions
oc hem
ĠG P
and ard
ĠF in
Ġmo od
ul es
Ġbiop sy
oarth ritis
o e
Ġventil ation
c y
im er
Ġph osph
ĠS er
Ġp ul
Ġ7 3
Ġcon clude
al s
t ation
t ent
ĠE D
ĠA C
Ġan tic
ĠH F
Ġto oth
ĠPro gram
Ġad mitted
% ,
p oints
Ġprevent ing
Ġhe aling
et al
Ġad en
ar ri
in ib
Ġ8 2
G I
Ġpsych osocial
ch ool
ĠL e
ĠEu rope
l ing
ĠST UD
ary n
Ġconsist ent
ĠM D
Ġm arg
ĠOutcom es
) -
Ġpres cri
Ġch lor
Ġamo unt
h ospital
ĠB et
Ġle ar
( -
Ġmat ched
Ġtr ig
Ġrec ip
Ġtr aditional
ĠUn ited
Ġc er
ĠH igh
ĠSTUD Y
ĠQ uality
Ġgraf t
l it
Ġul cer
O M
as tic
ĠReg is
c a
Ġfr action
Ġ8 1
Ġmultiv ariate
Ġat tention
ac co
ĠI S
Ġcomple tion
Ġst aff
Ġsub jective
um ulative
Ġrec ent
Ġs u
Ġ8 8
ess ional
Ġlo ad
t oc
Ġpl aque
f ive
Ġtyp es
Ġinclud e
ĠA L
Ġn g
os copic
Ġdelay ed
Ġmag n
Ġneon atal
Ġ8 9
ĠAb stract
Ġinhib it
m or
6 9
00 4
Ġdet ection
s ection
ĠM S
Ġrepres ent
Ġn ine
ĠâĢ Ŀ
Ġ8 3
Ġ12 0
Ġer y
as eline
Ġaccur acy
Ġt end
ot al
Ġl ack
ĠS im
7 8
ĠDi ab
op ath
Ġobserv ation
6 4
7 4
Ġo varian
A T
Ġs of
Ġre tro
Ġex cluded
man agement
Ġth res
5 5
ĠBM D
Ġestim ate
Ġl ed
Ġ3 00
Ġus ers
P T
ac hes
Ġdex amethasone
ĠS el
ĠMETHO D
ĠCh an
us ted
Ġm il
Ġsl ight
od ialysis
ub ation
Ġrisk s
Ġsh am
h ib
Ġelec tive
Ġcontr ace
Ġdiffic ult
all en
el i
oci ated
ĠOutcom e
an tial
Ġpre m
Ġan t
Ġen viron
Ġdem ographic
Ġb ur
og ram
ĠE S
P C
ab ine
ir ing
Ġpre par
ĠI U
Ġw ar
ys t
iv ors
ri um
Ġin duced
ĠH A
Ġn orm
6 8
Ġ9 4
Ġol d
ĠDise ase
Ġj oint
Ġregis tration
Ġadj uvant
Ġat temp
Ġminim al
Ġur ine
ĠF rom
Ġlog istic
or ies
Ġw ide
Ġvir us
rom ycin
ore s
ys te
Ġenh anced
dep ress
Ġrati os
m ol
Ġsim ple
Ġdise ases
Ġcomple x
il i
ĠImp ro
E V
ar b
os es
Ġr un
ĠD e
Ġtrans fer
Ġperiod on
Ġdi ed
Ġthere fore
feren ces
r il
7 2
t on
Ġc le
Ġmon otherapy
Ġp ediatric
ath er
b an
un ger
s ix
op athy
e ight
Ġac co
Ġpostoperative ly
Ġpregn ant
umm ary
Ġcortic osteroid
ĠM in
Ġpr im
Ġmet ast
n ual
Ġvari ous
Ġobserv ational
c it
struc tive
Ġstrati fied
Ġprolong ed
Ġ X
Ġinter n
it ment
d le
Ġcount ries
Ġfit ness
Ġ9 2
Ġmechan ical
Ġcaus ed
ĠR ep
Ġanti depress
Ġer ro
ol ute
Ġfail ed
ist ing
Ġdemonstr ate
ĠO S
ough t
el vic
Ġre min
Ġ- -
Ġinvol ving
b l
ĠT E
5 6
anc ies
Ġm ess
Ġinflamm ation
Ġgen ot
ĠAnal ysis
Ġgastro intestinal
ĠA T
Ġcirc um
ul ed
tens ity
Ġtreat ing
Ġcommun ication
Ġ100 0
p tive
et ric
Ġb ed
ro id
Ġval idity
t ual
Ġal bumin
9 8
Ġcomp reh
Ġassess ing
Ġ8 7
es e
ick ness
5 4
Ġman ual
itud inal
Ġcons ent
Ġabo ve
Ġl act
Ġpost partum
Ġd ental
Ġsign s
xim al
Ġsup erv
Ġsubst antial
Ġac c
ĠE ach
re x
Ġvac cine
ĠUn iversity
ell ing
Ġtherap ies
i red
Ġthromb osis
Ġme et
Ġradi ation
it ored
Ġk idney
9 4
ill ary
7 7
Ġ9 3
Ġm ixed
ir ls
ne tic
Ġdep artment
Ġdevelop ing
ter nal
ĠB ec
Ġal pha
TE RIAL
Ġcompar ative
Ġb owel
Ġfeas ible
Ġar tic
Ġsour ces
id ation
ĠMA TERIAL
Ġf oot
Ġat tit
Ġpre ventive
Ġbi om
Ġachie ve
Ġch allen
iss ions
Ġn asal
Ġprescrib ed
8 2
Ġsp e
Ġit ems
Ġexp ression
Ġins tit
Ġinvestig ation
es is
Ġl in
ĠA N
til ity
Ġl ost
5 3
Ġcont ent
Ġmaxim al
e fficacy
Ġin ser
ear t
Ġval i
Ġfacil it
9 6
ĠS U
ol one
Ġgener ally
ail ed
Ġche ck
Ġm ut
Ġst andard
Ġag ent
H A
ĠTher apy
H g
Ġ9 1
Ġoptim al
Ġsh ock
Ġvolunte ers
ĠMed ian
k le
Ġc umulative
Ġ ke
um at
Ġsour ce
Ġindependent ly
Ġmultic entre
8 3
Ġm es
Ġg el
Ġlim it
4 2
ĠO A
f ort
Ġcaus es
ro x
Ġrating s
ys tem
th rop
cl us
Ġn one
Ġrel ation
ĠHR Q
Ġhem orrh
ĠC M
9 7
Ġp anc
Ġconfir m
ul a
il ies
k now
en z
gen er
ĠHC V
Ġcor respon
yn amic
vent y
Ġtob acco
Ġsc ales
Ġl ight
inf ected
4 1
4 6
Ġclear ance
Ġac up
ĠQ OL
ĠA E
u ts
Ġassoci ations
Ġspecific ity
Ġext ent
Ġt en
ox ic
Ġrequ iring
o ag
Ġoccur rence
Ġgly cemic
o ul
ĠOn ly
Ġmal ign
Ġ9 7
Ġdial ysis
l d
Ġcompon ents
ĠDes pite
B V
ĠA us
p sych
n ia
Ġoste oarthritis
Ġinter nal
Ġis s
Ġsurv ivors
Ġp aper
Ġc ef
8 1
rec tomy
us cular
Ġor ig
5 9
ĠH eart
C C
ĠS S
p an
im us
Ġrecip ients
Ġinc re
ĠJ an
Ġsof t
Ġch i
Ġst op
Ġadd ress
Ġequival ent
ĠM T
of ol
id ol
5 7
oprost ol
1 00
Ġt ailored
Ġex cept
Ġf il
Ġplate let
Ġmedic ine
6 3
ok ine
4 7
Ġrec on
Ġis ol
Ġr ural
4 3
n el
Ġf er
Ġhe ight
a it
uter ine
Ġref l
Ġnecess ary
e ared
ĠÎ ¼
ĠSt ates
on in
ĠCon trol
Ġcomp r
re es
are an
Ġg ing
Ġrefer ral
Ġabs olute
et in
Ġmm Hg
ic ated
Ġh our
Ġcompos ition
Ġg irls
Ġsub s
Ġdocu mented
ri pt
Ġabs ence
ro pl
Ġpersist ent
ĠC S
Ġimp aired
ĠAus tral
Ġdrin king
Ġmal es
th ree
adj usted
Ġdes pite
ogen ic
Ġenro ll
Ġmo tion
Ġcompos ite
o ly
ĠBet ween
5 2
Ġmon itored
ĠB e
ĠM ost
ĠB aseline
an tit
s on
Ġpattern s
oul der
ass ociated
be ing
ĠDiab etes
Ġdi e
E fficacy
Ġparticip ate
blind ed
in tensity
Ġ25 0
L E
ĠC an
hy per
c ers
ace t
ĠCon s
Ġhous e
9 2
Ġvari able
ĠF e
ĠRCT s
Ġmin eral
Ġincl usion
Ġv as
Ġb reat
m issions
Ġinjec tions
a rent
ti b
Ġpot entially
m ore
Ġequ al
bo hydr
or ing
Ġadd ed
Ġexpec ted
li er
Ġdet ect
ĠS o
Ġâī ¤
l ation
Ġl a
Ġhyp ogly
Ġneu rolog
6 2
lamm atory
d l
tic ally
p tions
Ġrec tal
Ġn erve
ur b
Ġan nual
ly ing
Ġf ixed
le vel
Ġ) <
I mp
ĠG en
n ers
Ġs earch
ul s
ĠC ardi
ĠFI ND
m od
ĠU K
O RT
Ġadj unc
Ġprog ressive
Ġte aching
Ġmar ked
es tions
oc oc
ING S
ti f
Ġac tion
N T
ĠF unction
Ġprof essional
know n
ĠFIND INGS
Ġcont act
Ġde ep
Ġtraum a
Ġ9 8
Ġad ap
Ġsub cutaneous
ogen e
Ġac tivation
r azole
Ġn at
es arean
Ġ ure
Ġmid dle
lo x
Ġrecord s
Ġmed i
Ġcar ies
l ip
ĠR ating
Ġrespon s
ol er
z in
ce mia
Ġfe eding
en ic
ot omy
Ġiniti ation
m at
Ġadequ ate
ĠN or
ĠC ol
Ġdos age
ĠA S
oph age
ogn ition
ĠT est
p tic
ĠB lood
Ġav oid
g oing
Ġob structive
Ġdeg rees
9 3
Ġtum ors
op ulmonary
iv ac
Ġrecru itment
V T
ophage al
Ġwh ite
st age
Ġul cers
Ġend points
O S
Ġin tro
Ġle uk
t or
7 1
Ġent ry
Ġunder t
Ġag g
Ġvari ance
Ġatt rib
ĠC L
ĠL ow
P I
antit ative
F A
fe eding
oc h
Ġsubst ance
Ġcoun se
u ary
Ġhem at
Ġin struc
Ġdys p
Ġmuc os
Ġm el
ĠD S
year s
5 8
ĠM od
itr ate
Ġemo tional
Ġestim ates
Ġdos ing
ps is
z he
ti tis
Ġse psis
tex t
effec tive
ĠTh us
ĠT A
Ġmonth ly
ĠAd dition
Ġrelative ly
Ġlim b
Ġof fered
ap e
Ġmo uth
Ġ9 9
ox id
zhe imer
t aneous
ĠS ymptom
ĠG r
ropl asty
p e
Ġanalog ue
ron ate
Ġe ating
Ġnutri tional
Ġwithdraw al
Ġinter mit
B I
Ġcho ice
ochem ical
oe a
Ġp elvic
AC T
Ġinf ant
as tom
n ic
Ġyo unger
ĠJan uary
ĠOb jectives
Ġex ternal
Ġcompreh ensive
Ġmajor ity
Ġtarget ed
ĠR isk
Ġhospital ized
havi oral
Ġear lier
em a
r ist
op o
ĠMEASURE ME
r up
5 1
ĠA pp
Ġre al
Ġre tention
ĠEurope an
ĠO r
Ġreli ability
Ġsched uled
r ing
ap an
Ġqu estions
Ġm amm
Ġa w
9 1
ĠM RI
Ġpredict or
Ġintra operative
Ġnew ly
ic ac
Ġan kle
Ġinf er
Ġser ies
Ġc aro
B C
Ġchild hood
m es
on ate
Ġne ph
Ġpsych iatric
Ġn et
Ġpos ition
Ġn it
pl atin
Ġsp ine
Ġm ig
Ġfem ales
ic s
Ġmis oprostol
Ġmo tiv
Ġcompon ent
Ġno vel
Ġperi operative
Ġprovid ing
ro b
O P
ĠAl zheimer
Ġbe gin
it one
Ġimport ance
Ġinv asive
az ine
Ġmetab olic
ĠSel f
ĠC C
Ġbel ow
D I
Ġpractition ers
ĠINTERVENTION S
Ġinter feron
ĠAI MS
lox acin
s ite
Ġvi ew
re t
on al
Ġprob ability
Ġcomplic ation
Ġtop ical
Ġwh ose
Ġr ight
Ġs ec
Ġoper ative
ĠMEASUREME NTS
Ġwor kers
Ġfam ilies
ly cer
Ġmag netic
Ġl at
ĠFurther more
N F
Ġscre ened
com e
Ġ200 0
ĠIntern et
ad der
Ġo il
Ġlong itudinal
Ġhem odialysis
s is
Ġintermit tent
Ġprophyl actic
Ġplace ment
Ġline ar
Ġun known
Ġstruct ured
00 6
ĠP urpose
ari ly
Ġnumb ers
Ġpa rent
f arin
ro fen
Ġcommon ly
un e
ĠN in
Ġir r
Ġprescrib ing
Ġsystem s
at ures
or ac
Ġtemp er
Ġneed s
M A
on es
Ġcere bral
fer ior
ĠCH D
Ġd rop
tr a
re am
ĠM R
Ġfr uit
Ġprop ofol
ĠC ox
com pl
p ut
Ġenroll ment
Ġlear ning
inf lammatory
Ġ ers
Ġpl aced
Ġp yl
ia z
Ġdi arr
n s
Ġperson al
Ġc is
Ġa mp
omet ry
iz ations
H S
Ġfem oral
Ġa id
Ġpre lim
Ġdec lin
ex t
GF R
l ife
ĠIns tit
Ġprelim inary
Ġsul f
Ġspon taneous
Ġpanc re
Ġl ig
Ġw k
H D
% -
ox if
R andomized
Ġk et
Ġins uff
ĠH y
Ġinc ident
Ġrel ax
ĠMed ic
6 1
in ed
Ġal ter
Ġe con
Ġal f
se ven
f or
Ġpred nis
Ġur ban
Ġfat ty
Ġst art
Ġant agon
Ġr ated
cur rent
Ġdep ressed
emb er
ĠS ystem
Ġeff icac
ĠN on
Ġaim s
Ġslight ly
Ġte eth
Ġcoun ts
om as
Ġun treated
per idone
Ġgest ation
Ġundert aken
Ġprogn osis
Ġsubgroup s
Ġthrombo emb
inc ip
ip lin
Ġp ac
hy dro
ith romycin
Ġthres hold
ĠIntervention s
enz a
Ġcomparison s
at o
ĠH DL
ĠH D
Ġappro aches
f l
Ġs qu
Ġext re
Ġpyl ori
N P
Ġto ok
d ensity
Ġneut rop
Ġyo uth
m i
in d
Ġanti psych
Ġa ud
Ġres ol
ĠS A
am pl
ĠS w
F N
ne gative
ĠR A
ĠC or
Ġrem aining
Ġantic oag
Ġup take
min ute
Com parison
ne a
Ġd il
Ġpe er
Ġbacter ial
Ġmil k
n ine
Ġp ass
ĠT e
Ġse ems
r ay
ar k
Ġstim ul
ĠCV D
Ġc at
Ġcur ve
Ġw arr
ĠTr ans
Ġor th
Ġat ten
ol us
Ġanalys ed
Ġman ip
pec ted
in ferior
Ġreac tions
itud e
f lu
Ġhead ache
ĠF EV
Ġ ess
Ġpro per
Ġepid ural
ivac aine
Ġcorrespon ding
Ġvide o
Ġbur den
Ġapp eared
ĠJ apan
s h
Ġche st
hes is
i ologic
ĠH S
ĠG y
Ġfib rosis
ac ted
Ġamb ulatory
Ġab le
Ġinstr u
Ġvac cin
Ġbiom ar
Ġp al
Ġn ear
zy me
Ġadoles cent
ent ary
Ġutil ization
u tions
ade qu
Ġremo val
ĠCA BG
Ġun iversity
Ġenc our
is peridone
ĠS ever
Ġb arri
R ET
Ġcomp ression
con trol
az ol
c ause
Ġmuc h
iplin ary
as ons
ĠThere fore
tro ke
re ak
in ant
Ġequ ally
Ġext ended
Ġphys iotherapy
ma x
Ġdistrib ution
uc h
Ġas pec
Ġprepar ation
Ġp ast
bohydr ate
or tion
Ġb ro
ĠC RP
Ġl ab
Ġarth ritis
b ut
on omic
ar ing
Ġt om
isc iplinary
ĠS P
Ġpre fer
Ġacup uncture
Ġend urance
om er
Ġaccept able
Ġparticip ating
Ġent ered
ĠA R
min ation
ĠCh ronic
id ocaine
Ġinc or
hy th
com it
Ġreac hed
Ġevalu ating
Ġwar farin
Ġas ked
Ġre ference
Ġo pp
Ġdist ance
tro gen
anc ers
ĠS hort
est hetic
ill ation
d aily
Ġsh oulder
ra ine
Ġattit udes
it amin
an zapine
Ġintr ac
id al
ĠSt atistic
Ġex hib
Ġlow est
w ork
re tro
ot rop
Ġp ep
Ġclin icians
Ġinhibit ors
b orn
ĠT otal
li ke
Ġs atur
us c
Ġadvant age
vir al
or ide
ĠP SA
Ġexpec t
ip tin
Ġdiarr hea
C D
Ġke y
ys tic
ri p
he umat
Ġa x
Ġve in
agl iptin
Ġex tension
pl ace
Ġre lease
ran ial
ĠÃ Ĺ
C H
res istant
ĠPhys ical
] .
ic es
io tic
Ġsuggest ing
Ġc ure
Ġsupple ment
effec ts
ĠSer um
Ġemb ry
Ġth us
Ġpromot e
a ment
ĠCan ad
Ġmechan isms
ĠPre vention
Ġa z
Ġdiscontinu ation
ĠB y
Ġcri tical
ar ies
Ġan other
Ġsur ge
Ġa ortic
ati tis
Ġac qu
Ġm iss
orb id
Ġstron g
ĠEx ercise
Ġiniti ally
Ġliter ature
Ġz inc
ĠDec ember
Ġref r
Ġmo vement
Ġantidepress ant
Ġefficac ious
Ġdel i
Ġgest ational
Ġtrig lycer
as ia
ur gical
Ġimple mented
Ġdescrib ed
et ron
uid ed
Ġm ac
Ġsub ject
of l
Ġprescri ption
Ġh ab
ĠSe venty
R E
Ġc ancers
ĠI g
Ġinform ed
ub icin
is ions
retro viral
Ġe as
P ro
Ġinterview s
Ġre tin
oci ation
ĠAc ute
u z
Ġmemb ers
Ġlo ading
ĠSim ilar
chan ged
Ġinte rest
Ġrefer red
Ġcounse lling
Ġst ent
Ġle v
Ġcap s
Ġrem ain
Ġfavor able
Ġendot helial
Ġair way
Ġb io
Ġspe ed
f old
Ġl ateral
Ġex cess
toc in
Ġgenot ype
ĠD if
section al
Ġl ist
iz es
he x
p ed
Ġhealth care
Ġen g
Ġsel ective
H E
Ġma ke
us ed
Ġmicro gram
ĠL V
Ġclass ified
Ġmod est
on ance
w ise
Ġat rial
Ġprovid ers
sc ale
ĠINTE RP
w w
Ġst en
Ġmeth yl
ĠA F
Ġsur face
RET ATION
Ġy et
ep s
Ġin adequ
Ġpr incip
ox ib
comit ant
ĠINTERP RETATION
Ġcareg ivers
ĠT ype
ad emic
ĠE C
ac ts
Ġshow s
Ġinflu enza
Ġqu anti
Ġdescrib e
Ġp ack
ox etine
Ġd ig
Ġcon cluded
Ġbegin ning
Ġor ally
an al
enc ing
Ġph en
Ġp olic
ĠE p
CL C
as h
d isciplinary
rop ion
ĠG l
hyper tensive
Ġy r
rol imus
ĠEight y
Ġrequire ments
ĠChan ges
Ġa min
art an
tr ans
ec al
te bral
ĠD NA
Ġsuperv ised
Ġcis platin
Ġdepend ence
ĠC G
Ġcy t
Ġun changed
m et
et ary
Ġalloc ation
Ġimmun e
ĠI T
Ġcontro lling
Ġa ges
Ġon going
Ġdeli rium
Ġe le
Ġhem odynamic
ant ed
Ġproduc ts
ic it
i ate
ĠMeas ure
Ġcon sequ
A n
V R
ic lo
up rofen
f at
Ġpat ch
Ġmicro b
medi ate
at s
og a
Ġrh in
Ġse em
Ġana esthesia
mo king
ec ting
Ġend oscopic
Ġin patient
ĠBec ause
Ġr ather
Ġresid ual
Ġr isperidone
Ġf ever
il es
Ġper cutaneous
Ġph ot
Ġminim um
e ff
Ġcardi opulmonary
Ġconf ound
er iatric
ar c
C s
Ġox id
Ġf etal
ĠE R
Ġepisod e
ĠÎ¼ g
Ġconsult ation
ĠP I
ines e
Ġs ought
Ġparticip ant
av ing
Ġinh aled
Ġvers ion
Ġre ach
os in
ow n
Ġan tim
en al
Ġstar ted
Ġd am
Ġom isation
ĠB r
al pha
Ġanti gen
opl asty
op ic
Ġinvol vement
adi ation
Ġpre treatment
Ġbl adder
ge ther
Ġl idocaine
Ġstar ting
Ġtemper ature
Ġvari ability
Ġimplant ation
ĠE valuation
ĠF S
ĠE nd
aff e
Ġm ill
ĠIn vent
Ġab use
ar s
) :
ar tile
ter al
ass isted
Ġdr ain
Ġinter pre
Ġatt ended
ĠEn gl
Ġy ield
Ġro om
ĠPost operative
ĠRes pon
ĠCh inese
i re
ĠP S
Ġexc retion
Ġ201 0
F R
ĠS h
L I
ud ine
Ġsed entary
Ġma king
Ġc all
Ġcon dom
Ġeffec tively
ĠE arly
ĠInvent ory
ress ing
Ġconsist ing
Ġwe b
le u
Ġpharmac ist
Ġfib rin
Ġex ce
us h
Ġsel ection
k s
Ġ2 001
Ġcigaret te
ĠI m
ĠIntern ational
00 8
Ġse g
o ff
Ġb olus
Ġrelax ation
Ġarth roplasty
ĠG I
ĠI s
Ġf ace
ĠO c
ĠS ep
Ġperiodon tal
ĠL ong
ĠSo uth
Ġincor por
ke le
Ġpresent ing
Ġcon current
Ġess ential
Ġres onance
igh ts
i od
olog ous
ĠJ une
Ġsubst anti
m ost
ĠD M
Ġof fer
er ing
Ġcon text
Ġassign ment
Ġph arm
kele tal
A D
Ġwor king
qu ine
requ ency
O C
ic rob
Ġwide ly
gin a
ce ler
s tim
Ġbi ochemical
ter y
ĠP FS
ot r
Ġfe atures
tis ol
v ation
Ġmig raine
f act
Ġqu antitative
Ġinh al
Ġvari ation
Ġdie ts
Ġantib ody
Ġatten u
Ġt am
00 7
a emia
rec tion
if lo
ĠWe b
Ġvir al
rit ten
ĠQ oL
Ġintegr ated
iflo zin
in ess
t ors
s ed
ĠM on
Ġ200 5
or ic
ĠF ive
Ġint ubation
Ġpre ser
ĠI f
Ġattend ing
Ġo v
Ġol anzapine
Ġdis tal
ĠAd verse
Ġcomp l
Ġ6 00
Ġs om
our nal
ĠE fficacy
ys es
Ġindic ating
ĠL ife
ens tr
iqu e
Ġecon omic
Ġrad ical
Ġcent res
ak es
- -
Ġs ection
cet axel
Ġsc ler
Ġmed ia
l am
Ġ enti
amin ation
Ġcir rh
Ġma x
Ġunc lear
ĠI M
Ġalf a
Ġre vascular
Ġn od
ĠÂ °
ĠU C
Ġdom ains
t ur
ĠD o
ĠE v
ĠAI M
ĠP e
Ġd ual
oph osph
Ġrecon struction
Ġfav our
ĠE T
Ġprom ising
Ġre action
opo rosis
Ġb reak
Ġcl osure
H R
ad one
ocy tes
t op
Ġcon comitant
L T
Ġdeter ior
f r
n a
Ġapp arent
ree ment
Ġfib r
Ġer ad
ic le
Ġflu oride
Ġprot ective
Ġplan ning
oc on
Ġfood s
ap arin
Ġo w
Ġn ight
Ġoxy tocin
g uided
Ġmob ility
Ġg um
Ġcor rect
Ġaspec ts
el ve
Ġdiscuss ed
Ġunderg o
Ġwor se
Ġguid eline
Ġrec ently
Ġan emia
Ġsl ow
olec ular
Ġre ason
ĠC F
Ġhyper tensive
Ġ200 3
ĠM M
A I
X T
id ed
Ġmain ly
Ġw ard
Ġhemorrh age
Ġsten osis
ĠGen eral
Ġst abil
cl er
Ġ200 6
re active
Ġexamin ations
hol ds
Ġd ro
Ġmicrogram s
am ol
Ġ vel
ud e
Ġsupp orted
Ġestabl ish
Ġop tion
Ġanti oxid
ome ter
Ġdr y
Ġin verse
Ġplan ned
ti ary
Ġdi ame
itone al
Ġa ug
usc itation
t ype
u tional
ĠO ther
Ġ200 4
ful ness
ĠC al
Ġtable ts
Ġac tiv
Ġrespond ers
Ġpro mo
ĠSt ate
cell ent
Ġid en
ro f
ĠA B
Ġprof iles
ĠA RT
Ġacid s
Ġprem ature
Ġelectr onic
Ġfocus ed
Ġcom m
Ġout put
Ġal ong
ul ate
Ġanti retroviral
Ġpos terior
ot ens
Ġhom es
Ġb ilateral
Ġt ro
Ġdecreas ing
Ġdam age
Ġtrans mission
Ġc ut
d uce
Ġultr ason
Ġc a
Ġbehaviour al
ĠF r
rep ort
op ram
Ġcy to
Ġadjus ting
Ġmy el
Ġfibr illation
ĠR educ
Ġr heumat
ĠP TS
Ġmain tain
in t
ĠWh ile
oph en
e ter
b y
Ġre asons
Ġcult ure
Ġre inf
Ġfin ding
Ġreg ion
ĠFollow ing
Ġth ickness
vers ion
ĠR el
es tern
Ġd ynamic
p ers
bin ant
Ġ200 7
ĠNin ety
Ġse ason
ĠV O
ĠC K
Ġco vari
Ġcor tisol
ĠÂ ®
Ġst ability
Ġneutrop enia
P P
Ġ200 2
Ġac celer
ĠP sych
Ġexp ir
Ġintr am
adi ol
Ġw ritten
Ġan gina
Ġcontrib ute
agl iflozin
Ġsc an
Ġmor ning
leu kin
ĠCom mun
ĠâĢ ĺ
Ġcircum ference
ĠM ay
oper idol
S ORT
ĠM a
Ġconduc t
k eli
Ġsubstanti ally
Ġre v
Ġexacerb ations
Ġd on
keli hood
Ġn ational
Ġinser tion
Ġun s
otens in
Ġcathe ters
ĠP CI
Ġhypothes ized
s w
af t
Ġsit u
P re
Ġsu ic
M G
Ġtom ography
Ġdiscontinu ed
ip ar
Ġf und
ĠG lobal
ill ance
ĠI Q
enc ies
Ġe jection
Ġcri tically
A s
Ġnew born
Ġpositive ly
Ġsuccessful ly
amin ophen
Ġcons tr
ĠC ognitive
unc tions
ad minis
i ology
ip ine
g ia
Ġacet ate
Ġ200 8
Ġqu al
Ġli kelihood
Ġsmall er
Ġnat ural
Ġf ield
Ġ200 9
ĠS I
Ġder ived
lit axel
Ġcheck list
c ology
tin ue
Ġanti hypertensive
od il
Ġcaro tid
Ġiden tical
00 9
Ġa th
Ġsin ce
ĠP G
Ġretro spective
Ġph one
Ġib uprofen
Ġcurrent ly
Ġdist urb
ac il
Ġg u
affe ine
kin son
u ly
iv es
cl ine
Ġplay ers
y ing
Ġex cellent
Ġac tual
ram ine
Ġpancre atic
Ġmod ification
inferior ity
ĠS ummary
ymptom atic
C P
a fter
or ption
Ġcoll abor
Ġdo cetaxel
Ġiniti ated
icrob ial
ĠC a
ophosph amide
Ġachie ving
Ġmotiv ational
Ġde vi
ĠMore over
Ġcompr ised
Ġst e
ple te
Ġman aged
Ġatt ack
Ġ uterine
C on
anc ing
ĠU se
Ġconsum ed
Ġsens itive
Ġregard less
Ġpharmac okine
M W
Ġv ar
Ġran ged
Ġcolon oscopy
pl er
> [
Ġex isting
Ġmeth adone
u x
Ġcomp uted
ens us
Ġcons erv
if er
Ġac ademic
Ġhy gi
tr adiol
ĠNS CLC
Ġdep endent
ox ide
Ġcontrace ptive
ĠT T
Ġles ion
w ays
ur ane
Ġreturn ed
Ġpregn ancies
Ġse iz
im ent
Ġt ake
Ġinhib ition
Ġdirect ly
Ġ Ã©
Ġradi ographic
os terone
Ġexpir atory
Ġdif fered
ol ol
S D
ĠInc reas
Ġfib er
Ġmus t
Ġrest or
C R
Ġt ext
Ġindic es
Ġs ampl
Ġad missions
ĠIV F
Ġey e
Ġintern ational
Ġw ors
rop athy
Ġbo ys
erc ul
Ġincre mental
Ġwa ist
ĠC E
AL Y
t a
red ic
um er
Ġhal operidol
Ġaccept ability
Ġperce ption
t he
ĠS oci
ĠM arch
er tain
ĠA UC
be havioral
Ġdeclin ed
fen ac
lu x
ĠAss ociation
ĠS tr
Ġcl ar
Ġt wenty
Ġco up
Ġst ages
Ġass ay
Ġrec all
Ġen zyme
ap l
ph rine
Ġoste oporosis
ati ves
kin es
Ġenti re
yst ectomy
Ġj ud
entan yl
i ef
ĠHy per
Ġdiame ter
Ġas ymptomatic
Ġy oga
Ġin ges
Ġbreast feeding
Ġpro duction
Ġveget able
Ġprim arily
ic ular
in a
Ġgen e
Ġint ent
Ġse ptic
olog ists
Ġsurve ys
Ġiss ues
Ġal le
Ġqu ad
Ġpredic tion
ĠPh ase
w ide
Ġpred om
enstr ual
Ġcommun ities
Ġal g
Ġcoll ection
Ġall ergic
Ġendomet rial
Ġlab our
ĠP F
Ġgly c
Ġg em
Ġag on
ar rh
Ġpro ject
az one
ĠCom parison
Ġc esarean
Ġpropor tional
ĠO F
Ġrep ro
ĠP O
le ge
ap s
oro us
ĠA CL
II I
ococ c
Ġpro ximal
ĠS R
ĠÎ ²
ĠSur ve
pr il
Ġcop ing
ĠM ater
avir in
Ġocc up
Ġle ading
ens itivity
id azole
Ġte ach
Ġe ch
Ġres c
Ġres uscitation
Ġevalu ations
ĠD r
ĠT B
Ġform ation
o un
th ers
Ġg on
ro se
Ġimple ment
ĠMul ti
ĠPl asma
Ġpro duce
oc ity
ĠD el
hex idine
ĠPTS D
Ġag reement
end ing
Ġangi ography
ĠTr aining
P E
or vastatin
yste ine
Ġveget ables
n i
it ative
act ing
in v
ĠD isc
Ġle t
Ġup on
Ġcorticosteroid s
os itive
Ġme al
Ġp an
Ġn ode
Ġcar bohydrate
Ġchan ged
Ġcigaret tes
O T
a emic
ord in
ĠCON SORT
Ġtoward s
if ically
oxif en
Ġaut om
N CE
it es
v ac
ĠC oll
ĠPre vious
hel p
Ġwal k
ercul osis
y roid
p ump
Ġmass age
os cler
Ġrespond ed
Ġprov ision
Ġfor ce
Ġcr uc
arc tion
ĠT en
on ide
ul ations
Ġwa iting
Ġrevascular ization
cit abine
t t
ress ure
ĠJ uly
Ġantagon ist
ĠN eu
Ġrestric tion
Ġunc ertain
Ġpart ners
Ġto gether
i tions
Ġg am
Ġver bal
on ly
Ġw ay
op pler
Ġol og
m m
Ġcom orbid
Ġf oll
Ġv iv
Ġch olec
other mia
Ġf unctions
er man
it inib
Ġsoci o
Ġp H
Ġdec isions
b ri
Ġphys iological
Ġhe ter
af en
Ġlimit ations
Ġpar as
Ġsed ation
Ġ18 0
ĠInstit ute
ain ts
Ġmar ker
o es
Ġbl ack
cell ular
Ġv es
ve ments
og rel
Ġsequ ential
ĠAn xiety
ĠP L
R H
ĠEffec ts
op id
Ġprop osed
u xim
Ġter tiary
Ġe c
Ġey es
ĠT ime
Ġacco unt
h n
or r
Ġsw it
Ġinter mediate
oph ag
Ġoper ating
opid ogrel
Ġproduc t
Ġes trogen
ĠC och
ment ary
Ġintravenous ly
f requency
Ġsc i
ĠS C
in come
Ġdo x
p ing
Ġapp lic
Ġoff ice
Ġvi rolog
Ġmanip ulation
Ġp ool
Ġinter active
Ġco eff
uxim ab
Ġsched ule
Ġac com
Ġrefr actory
ig orous
ĠS troke
Ġprot ection
f atal
h en
Ġcycl ophosphamide
Ġexpl ore
Ġpolic y
Ġ ip
Ġextr action
Ġo thers
m y
im es
Ġal most
ĠA pril
iclo fenac
ve red
Ġexhib ited
a e
Ġbel ief
d entif
Ġt ended
ca emic
Ġbarri ers
or ith
Ġwe ak
al ine
ĠC lin
s mall
ĠC r
ip olar
Ġmagn itude
ess ion
ĠR NA
Ġinter leukin
ĠP RO
b ulin
com fort
Ġm as
let es
Ġa ther
Ġhygi ene
Ġsc ored
Ã© s
Ġclass es
Ġin st
y c
as m
Ġr a
ti ally
PA P
Ġan im
cl es
bri le
Ġantipsych otic
ĠB ased
ine phrine
Ġhep atic
Ġartic le
Ġorig inal
ĠCom bin
ĠP P
Ġf usion
Ġde vices
Ġlipid s
Ġrecom binant
T MS
th rom
or phine
Ġmoderate ly
os por
TE XT
Ġenviron ment
ĠN T
CS F
Ġstron gly
ĠAE s
Ġprefer red
Ġrheumat oid
ĠCON TEXT
Ġ199 9
Ġg eriatric
Ġ199 8
Ġth orac
Ġr ib
ĠO ral
Ġsyn t
Ġproper ties
Ġmo ther
Ġsupp ression
lo ad
x t
Ġbro ad
Ġmulti disciplinary
y ond
Ġinflu enced
Ġabnormal ities
re ening
e g
Ġbiomar kers
Ġerad ication
Ġimp lication
Ġpul se
Ġvari ed
Ġbup ropion
yl ine
ĠFin dings
Ġimmun otherapy
ĠStud ies
w elling
Ġl ive
Ġgreat est
Ġlig ament
Ġmess ages
an a
ang u
il ization
Ġg ait
Ġ201 1
Ġcirrh osis
Ġexp ressed
to ber
oc l
Ġthromboemb olism
Ġon line
Ġad op
Ġinvestig ators
Ġisol ated
ĠI D
op a
ĠS up
Ġprogram mes
Ġmet a
Ġaut ologous
Ġoxid ative
e e
Ġad hes
d is
Ġm olar
om p
ĠT RIAL
Ġc lo
in ally
or ubicin
Ġre vers
Ġc ream
ĠSw ed
ĠG erman
Ġemp h
Ġr ace
Ġsurve illance
b ur
Ġint akes
ĠF ew
Ġsin us
Ġreg ional
ache al
ec tin
Ġtask s
i op
ĠA CT
Ġ enter
Ġerro r
ript yline
ill ed
ĠCoch rane
ex amic
ĠCH F
re ed
AC E
ĠO p
Ġtrans ient
Ġindic ators
im umab
ix im
Ġpractition er
ĠIn v
Ġgoal s
es ted
Ġmetast atic
ĠFunction al
Ġmalign ant
Ġs ick
Ġful ly
Ġex ample
Ġcon j
Ġsus pected
ĠOc tober
w k
ĠTE NS
ĠStatistic al
i veness
Ġalg orith
Ġexp osed
Ġextr act
Ġunder lying
ĠCom pl
Ġreli able
Ġelectr ical
ari able
Ġconserv ative
re lease
ĠC enter
ol ence
xic illin
ec ts
Ġtr an
ĠIQ R
it em
ti ous
Ġt itr
en ium
Ġwarr anted
Ġfor ms
Ġne ither
Ġerro rs
ixim ab
Ġd ent
Ġoc clusion
opath ic
Ġepid em
Ġt urn
ĠT C
et r
Ġdep th
Ġsupp or
Ġmin d
ĠGP s
mor ph
ĠD oppler
ĠA ug
Ġv ary
Ġvel ocity
aryn g
ĠT w
Ġvit ro
ten atal
ĠIn tra
ĠSoci ety
Ġbas ic
Ġtri ple
P h
Ġemp ir
Ġco ugh
Ġparen tal
Ġg ains
Ġel imin
Ġinter actions
Ġc affeine
om ide
Ġfas ter
Ġis ch
Effec tiveness
M e
Ġd ri
ox y
Ġsal iv
Ġantim icrobial
Ġdrain age
Ġresc ue
Ġad ip
am il
ĠH PV
Ġinf ected
ron tal
ĠT ai
Ġevalu able
Ġsepar ate
Ġguid ed
ro gen
os a
Ġmechan ism
Ġrelationship s
Ġacet aminophen
ĠA P
Ġbe yond
Ġcon tinue
A A
ĠIN T
ĠJapan ese
at ectomy
Ġpromo tion
es ium
ĠFe b
i ance
Ġpa ir
Ġh ar
ĠI dentif
ĠT R
Ġchlor hexidine
all i
Ġro ot
f ac
Ġpredom inant
ĠDS M
ap se
Ġremin ders
ol ate
Ġdi arrh
in ce
ob acter
Ġm it
Ġpre c
am iv
ĠWe ight
Ġtub e
om nia
Ġf entanyl
ĠC urrent
ĠS L
os ing
Ġf ell
Ġische mia
Ġhazard s
Ġcomputer ized
ĠRegis tration
Ġattend ance
un ted
c ardi
ec oxib
o z
Ġper fusion
tro ph
Ġs izes
Ġgraf ting
al ities
Ġgr an
Ġsuppor tive
Ġat orvastatin
ag en
ric e
tem ber
clus ive
Ġpre ference
ort un
Ġtam oxifen
Ġth ough
ult aneous
em ographic
Ġdis pl
Ġinc en
os cop
ĠMe thod
od ies
mit te
Ġextre m
Ġd iclofenac
Ġcl ose
t az
Ġf ix
Ġprovid er
ĠIn iti
me th
ĠI BS
Ġj ournal
Ġc ognition
ĠTh ose
ass ium
afen ib
mo kers
Ġref lux
in ol
ĠMeasure ments
ac king
Ġsupple ments
et ry
Ġcateg ories
ex p
ĠCh i
Ġver tebral
ĠDis ability
Ġa round
Ġhydro ch
st ate
compl icated
Ġdr aw
ox aparin
Ġneon ates
Ġne ver
Ġmean ing
Ġmamm ography
Ġinadequ ate
Ġ199 7
) /
Ġs ent
G T
Ġpain ful
ĠA im
ĠDr ug
S I
Ġmed ium
Ġpost treatment
Ġchallen ge
n ai
Ġco h
ĠOr gan
st etric
Ġamo xicillin
s ies
ĠPar kinson
Ġs m
ĠS afety
Ġmus cles
Ġg ained
ĠF orm
iti z
Ġsuff icient
Ġmeet ing
Ġst ret
ĠAustral ia
Ġpreval ent
utri tion
ef ore
ĠAfric a
Ġf ram
ol ip
Ġdi ary
Ġclass ification
ĠPro spective
Ġcol d
Ġwas h
Ġco ag
ĠH B
Ġwa it
uss ion
H C
Ġp ur
ĠHC C
up s
Ġtum our
cep tib
ĠCommun ity
ĠSep tember
os upp
Ġsp ent
Ġgr ad
ro g
ib ly
ur ys
Ġp g
ogen ous
ĠAd j
Ġcl opidogrel
ure tic
tr aining
Ġfacil ities
ĠE GFR
ĠSc ore
Ġath letes
Ġdevi ation
ĠI FN
ed ic
Ġcal ls
Ġform ula
Ġs il
Ġantioxid ant
Ġbas al
Ġd op
Ġn oc
c ul
Ġdis comfort
Ġcons ensus
in ter
Ġvaccin ation
uc le
Ġflex ion
Ġrepro duc
Ġutil ity
ect able
Ġpac litaxel
ul um
Ġfor ced
Ġery th
yp es
Ġadvant ages
ag matic
Ġanalgesic s
Ġcor d
throp o
ep razole
ĠS y
Ġangi otensin
Ġprednis one
Ġgem citabine
ef ined
um ents
Ġst ool
Ġsuff ering
Ġging ival
Ġfe brile
Ġrepe at
Ġval id
ĠL I
arg ed
ĠRE GI
vac izumab
% ;
c ourse
ST R
ower ing
ac tivity
oid s
Ġsti ff
Ġbup ivacaine
Ġdiscuss ion
angu age
Ġintram uscular
il tration
ĠF P
Ġtub erculosis
Ġconsequ ences
ĠSur gery
n RH
Ġun complicated
cep ted
ibr ation
p red
ological ly
ut um
RA TION
Ġradi ograph
Ġre jection
av y
Ġrepe ti
Ġadjunc t
ound s
pon ent
Ġcent re
Ġinstru ment
uz umab
c ar
ec onomic
ut ing
Ġapp oint
Ġexacerb ation
ge al
Ġloc ally
Ġrib avirin
Ġal b
ĠInd ividual
ĠB efore
Ġev ident
Ġox ide
Ġcur ric
c ipar
Ġh yste
ĠN P
Ġbreat hing
Ġs uit
ot e
Ġn al
Ġwh at
Ġk in
ros copic
Ġmar row
ĠWith in
Ġlact ate
Ġan g
week ly
Ġall erg
udes onide
Ġser ved
Ġspec ifically
Ġs per
ĠL A
Ġne xt
ĠT NF
ru ary
Ġeff iciency
Ġsampl ing
ĠA M
ĠMul tiv
ĠGr ade
per imental
Ġthe ory
cipar um
ĠV is
h al
Ġinf arction
Ġopp ortun
Ġech ocardi
Ġpoly morph
r imin
lit azone
Ġro t
Ġche m
ph al
Ġhaem oglobin
Ġdeterior ation
Ġcan n
ace u
od one
Ġdes cri
Ġbec ome
O VA
ĠW or
entan il
Ġdiarrh oea
Ġpredic ting
ĠI R
Ġindic ates
iter rane
m er
Ġemploy ed
iterrane an
ot a
ĠH em
Ġun ilateral
E D
c hes
ĠC B
ĠWe ek
Ġan tenatal
Ġshow ing
igh ted
ĠEv idence
cent er
Ġan e
ur acil
Ġneurop sych
Ġ16 0
Ġbiop sies
Ġmeas uring
Ġrequi res
ĠAc tivity
Ġbo ok
Ġneurolog ical
ST RATION
Ġscler osis
Ġdef iciency
BJEC TS
Ġpreoperative ly
Ġd u
Ġint est
Ġhum ans
Ġresol ution
ther n
Ġagon ist
Ġsel enium
ĠREGI STRATION
ro us
ĠA g
Ġtarget ing
aceu tical
ogen esis
Ġfal ciparum
Ġcoh orts
Ġvit al
Ġcer tain
Ġprofessional s
od al
iv ariate
Ġreg ions
ĠFeb ruary
y m
Ġf ish
on azole
Ġmagn esium
Ġwor ld
Ġaccom pan
Ġflu oxetine
Ġpress ures
d el
Ġc ore
Ġsteroid s
ti ce
ĠSurve y
Ġmet ron
Ġc ystic
re en
e en
ĠM y
Ġ12 5
Ġr TMS
ĠCK D
Ġs en
ĠE duc
ĠD VT
adminis tered
Ġpro mp
tr aum
Ġ13 0
ĠNor th
Ġremin der
ĠF uture
Ġtransfusion s
Ġib ular
Ġ199 6
u ity
ĠP ET
Ġstiff ness
Ġtechn ology
Ġcholec ystectomy
ric h
mitte e
Ġco ordin
L P
ĠE E
Ġcor tex
Ġser ving
Ġdiagn oses
Ġlymph oma
Ġneph ropathy
Ġconcer ns
ĠM en
Ġan astom
Ġspec imens
iaz ep
) ;
Ġn ow
Ġ11 0
ĠN SA
Ġpresent ation
Ġdox orubicin
b ody
Ġmus ic
at us
Ġperce ptions
Ġmob ile
oro uracil
Ġendomet ri
ĠSU BJECTS
Ġsim ultaneous
ten e
ap eutic
di ab
Ġelev ation
Ġcareg iver
ov ir
Ġb ab
ot inib
Ġres istant
aren ess
or p
ĠA CE
di rect
ari o
ec tious
Ġen oxaparin
Ġ ide
Ġg e
ĠE V
E valuation
on tic
n atal
ĠG nRH
Ġs ummary
ĠAd herence
C linical
Ġhab its
Ġeff orts
Ġpro ven
Ġeth nic
ut able
Ġreinf or
Ġab ortion
ĠS BP
ours es
Ġsens ory
Ġm ail
Ġlower ing
ato cellular
ch ild
Ġpot assium
ĠCP B
aryn geal
Ġb in
ĠT able
Ġar rest
Ġins omnia
Ġmemb rane
Ġmarg inal
Ġindividual ized
Ġphosph ate
bo tic
ĠO l
p ation
Ġid i
imens ional
st ant
Ġsupple mented
ĠN one
Ġgen etic
B ased
c m
Ġread mission
Ġval idation
Ġt ib
ĠS pec
Ġtooth br
imes ter
ĠN ur
Ġhospital izations
F T
o etin
ĠPro ject
re pt
ĠAn ti
in atal
ĠC he
tro duction
Ġinstit utional
Ġallow ed
ĠDo uble
Ġg ave
Ġpropor tions
ĠB i
Ġaffec ts
Ġsubsequ ently
oc ar
Ġur g
Ġ ial
Ġres ting
Ġprob ably
alli ative
Ġf ear
acet amol
ĠL S
Ġ14 0
ar ter
ĠP lace
form ation
Ġclinic ian
inv asive
or bidity
ĠB ody
ĠCR C
Ġintr av
Ġow n
ati de
Ġmin ute
STR ACT
Ġhyste rectomy
Ġac cepted
Ġsp utum
ren atal
Ġpart ner
ĠÃ© t
roph il
Ġtrans c
ĠY o
R D
ro d
Ġc ourses
st able
Ġfail ures
Ġpromot ing
on o
Ġs oc
Ġ201 2
Ġl anguage
ĠMed iterranean
Ġbreat h
Ġpro ved
Ġstop ped
ic ations
Ġt ac
Ġman ner
Ġbec ame
ip er
Ġk cal
ac ill
Ġdis tric
ĠF D
Ġcateg or
Ġpep tide
as te
Ġpl ant
Ġenviron mental
ofl urane
Ġg yn
oph il
ĠSur v
i ence
Ġtrans p
us hing
Ġn erv
Ġbelief s
Ġd ressing
ul l
ri e
or afenib
Ġ199 5
Ġr up
Ġtrans l
Ġneurop athy
M B
Ġf atal
ĠIn troduction
b ul
Ġpre p
Ġidentif ication
Ġinc ision
Ġgl ut
ĠS ch
Ġrequire ment
mat ched
b irth
ĠDif ferences
ren orphine
Ġane urys
Ġcompl aints
is pan
Ġpharmac ists
C h
k et
end it
ĠCA D
Ġather oscler
Ġst em
ĠM c
Ġmetron idazole
r as
Ġh ot
Ġery thropo
i etin
ĠRespon se
Ġ199 4
Ġp i
respon se
ĠT D
Ġb ipolar
Ġn umer
oc om
ew ork
Ġtend on
Ġinges tion
ĠS moking
Ġac uity
lor ide
Ġdisc rimin
Ġanticoag ulation
Ġstat in
Ġh arm
read y
ĠDi etary
ĠSever al
Ġb urn
ĠP H
ĠS chool
b all
Ġfix ation
n it
Ġp ow
ĠDisc ussion
ĠAug ust
Ġcirc ulating
Ġposs ibly
ĠColl abor
rex ate
Ġb udesonide
res tim
Ġm ailed
con taining
Ġfr ail
Ġlead s
un ts
Ġpre ced
Ġteam s
a u
di rected
Ġform ulation
Ġsatisf ied
Ġvolum es
E P
ca emia
Ġcomp et
Ġsh if
ĠIC D
Ġviv o
Ġop tions
Ġhyp othermia
Ġmemb ran
Ġfacilit ate
ĠB reast
ĠN I
Ġultrason ography
ĠM al
Ġo es
Ġd ip
Ġdisch arged
Ġprocess es
Ġp ort
Ġass ist
Ġpost intervention
Ġsmo ke
Ġir re
ot rexate
Ġexp endit
ĠSe ven
Ġt el
Ġconf lic
a ffec
Ġsus ceptib
tral ine
Ġmetab olism
Ġpass ive
Ġex tens
lo red
Ġal ready
ĠAddition al
Ġend oscopy
ĠW HO
ay ed
im plant
ĠB l
Ġcl osed
Ġconcer ning
Ġhe avy
pred nis
s qu
D CS
Ġdysp nea
ĠQ ALY
Ġtable t
Ġintest inal
ĠM P
ĠW he
Ġnec rosis
azol am
Ġinv ited
Ġattrib utable
Ġbe vacizumab
eth yl
Ġan esthetic
lip id
s ul
Ġ ens
Ġab lation
Î ±
per fusion
tr um
Ġcon n
f ication
Ġemb olism
mb er
Ġtriglycer ides
Ġ ?
Ġyield ed
ĠTw elve
Ġre ading
Ġgon ad
Ġd imin
Ġusual ly
Ġter min
Ġcruc iate
A RT
ve mber
ĠD iagn
ac ent
ĠMan y
Ġtran examic
ĠS G
z il
m ill
ek ing
Ġdifferen tial
Ġ8 00
Ġscre en
Ġcontinu ing
ĠV ers
I s
Ġin direct
Ġass um
ĠF und
Ġhypogly cemia
v is
Ġcoun ter
mon itoring
ro om
os ide
Imp act
ual ly
ip ramine
pl asia
e al
Ġr it
andom ised
Ġartic les
ĠDep artment
ĠAnal yses
ĠCh ina
ĠAustral ian
Ġsuperior ity
ĠEp id
adj uvant
Ġobserv ations
ĠT I
Ġv ul
Ġsub set
ĠMeas ures
Ġpar tially
Ġmo tivation
Ġn ar
Ġattemp t
Ġgeneral ized
A d
Ġoccup ational
ĠNSA ID
Ġt it
ic its
Ġcon ce
ad iotherapy
Ġexpl ained
Ġcolon ization
k ine
Ġ10 4
ĠAN OVA
Ġob tain
ph osph
l ow
ĠNo vember
Ġstate ment
Ġa ver
Ġr are
Ġthir ty
Ġprob ing
L ong
Ġeff icient
Ġm enstrual
Ġqual itative
Ġmeaning ful
me an
Ġrapid ly
O H
Ġhep atocellular
Ġr ise
et a
Ġne opl
ĠL BP
Ġsatur ation
Ġl abel
qu artile
Ġes ophageal
Ġconsist ently
Ġocc as
Ġsuit able
Ġthere after
Ġit em
ĠPr ac
ĠC HO
Ġheter ogene
ly sis
Ġcarb on
ĠL C
par ing
ĠSc reening
ĠT M
ĠT P
Ġmod alities
ail ure
ph en
an ol
yl ated
V P
F I
ĠR S
Ġoccur ring
Ġc ocaine
Ġcult ures
ap ril
ĠH BV
ad ol
Ġgl omer
ear s
ran k
om an
Ġdemonstr ates
Ġp s
Ġp le
Ġrad io
op e
Ġper inatal
lo or
ĠNe ither
Ġp renatal
Ġg lo
ĠF am
Ġmain taining
un nel
Ġle ak
Ġexp lored
Ġmucos itis
Ġconsult ations
medi ated
Ġher nia
Ġneut rophil
ost asis
Ġexpl or
Ġso y
Ġsal t
Ġ199 0
V C
Ġangi oplasty
amil ton
e es
cal es
AR CH
lo ro
Ġlarge ly
ĠY ork
ococc us
Ġolog ical
Ġattemp ts
ate let
read mill
di al
ist ent
ath ic
Ġbacter ia
b le
Ġb ic
Ġoper ations
Ġinstruc tions
form ance
Ġi i
Ġro b
as tro
Ġf ore
Ġf ecal
ĠA SA
Ġexper iment
ĠH amilton
ig ibility
Ġoff ers
l otinib
Ġhydroch loride
ĠV E
ify ing
Ġadjunc tive
Ġsc oring
Ġw arm
Ġv ill
Ġcharacter ized
Ġexperi ences
ĠMan agement
Ġagg ressive
Ġcollabor ative
Ġad ding
ĠF act
Ġp oll
Ġsubs tit
ach ment
Ġtest osterone
Ġpa rox
Ġass isted
ĠEffec t
d welling
l owering
Ġd own
Ġvari ety
ĠPlace bo
Ġd imens
Ġser ot
Ġt ension
ĠAd minis
h ion
te gr
F U
Ġin duc
ĠN a
Ġfas hion
Ġpredominant ly
ĠH el
ron utri
apl an
Ġan throp
ip l
Ġspecial ist
ogram s
Ġaud it
an oma
Ġprost atectomy
ul ator
Ġtren ds
Ġcurric ulum
Ġdef icits
Ġpres chool
az ep
am b
ĠS erv
Ġmarked ly
Ġgu ide
spec ified
ĠEl igible
as ter
Ġrel ie
Ġ10 2
ĠK aplan
Ġpoor ly
Ġstep s
L C
Ġhyper ch
otr ans
U N
ab an
or ial
A meric
Ġpsych otherapy
unt ary
Ġlat ter
pp ed
rom uscular
Ġbel ie
ital opram
ĠInv estig
Ġin struction
Ġe g
Ġper c
u its
Ġs pl
Ġd entif
ĠC ro
Ġpub lication
Ġcycl ospor
ing er
Ġob jectives
Ġaccept ance
ĠH ER
Ġalgorith m
Ġcontro vers
unc ed
oc king
end ronate
Ġj u
Ġmultiv ariable
ĠMulti ple
Ġs um
ĠB C
Ġcomple ting
ro t
ill ing
Ġmedi ated
Ġmind fulness
i ans
Ġsequ ence
Ġsimilar ly
Ġnet work
A g
Ġrec or
Ġguid ance
Ġ201 3
Ġun stable
Ġhouse hold
ĠP M
as tric
Ġcombin ing
o or
ef iciency
Ġmeth otrexate
Imp ro
Ġus age
Ġa ff
Ġprocess ing
ĠC ent
ap ent
Ġtr ue
ĠGroup s
Ġparen teral
Ġenc oun
th ral
Ġindividual ly
Ġgly caemic
Ġpharm acy
Ġcon ges
T reatment
Ġp alliative
ĠCanad a
Ġintro duction
Ġinsuff iciency
Ġnear ly
cent ric
AS H
ĠRES E
aparos copic
Ġaw areness
Ġprog es
Ġ10 5
Ġclus ters
Ġp ap
en ef
ĠD ay
Ġb orn
ĠN A
Ġmon itor
Ġfactor ial
Ġcop ies
Ġproges terone
Ġsub scale
ĠÂ £
traum atic
ons ill
Ġan at
se mination
ĠRESE ARCH
Ġsecond s
ther l
ĠM CI
ans etron
UND ING
Ġisch aemic
Ġas cer
Ġne ural
Ġw all
Ġmut ations
ing e
Ġsubs cales
tur nal
Ġex ist
Ġconsider able
er t
Ġbup renorphine
Ġmiss ing
ĠF UNDING
th al
olog ist
E x
Ġper spective
ĠPro f
Ġinstr uments
Ġdet ail
ĠMedic ine
Ġinvestig ator
al bumin
dr ug
Ġventil ator
Ġs umm
con dition
velop ment
ĠL T
Ġautom ated
Ġamp l
ir y
Ġm olecular
Ġrespond ents
Ġappro ved
Ġat opic
Ġlin ked
Ġdoc tors
% ).
ĠR I
ĠP aren
Ġte a
Ġhe at
Ġprescri ptions
Ġpsych o
ĠCanad ian
ĠNe therl
Ġaz ithromycin
Ġmill ion
der mal
Ġtim ing
Ġval ve
Ġpool ed
A ss
Ġse ts
Ġmembran es
Ġfil tration
an ish
ad ine
ĠS ome
Ġed ema
ect or
Ġp ed
ĠV A
Ġembry o
ot oxic
Ġ10 1
O D
Ġimmun osupp
Ġbal anced
Ġran ging
Ġt DCS
er m
Ġbi ological
Ġrun ning
am ous
gener ation
Ġrec ogn
lu tide
Ġloc ation
Ġob stetric
re ach
Ġo uts
Ġd en
Ġprac tical
Ġirr adiation
z ole
od ine
Ġexperi encing
ĠW estern
Ġqu in
Ġun ex
Ġvi olence
Ġdescrib es
UC TION
ĠAB STRACT
diab etic
prednis olone
o adjuvant
Ġt readmill
Ġsevere ly
X A
ed ed
Ġwa ve
n es
ĠH T
ĠApp ro
Ġorgan ization
ĠCor onary
Ġc itrate
os ter
ĠP CO
Ġgener ated
Ġcontrovers ial
an ine
Ġconfound ing
Ġinclud es
Ġfour th
RO D
Ġsper m
Ġasth matic
Ġmat ching
opl atin
nai re
Ġinter quartile
en h
av ings
Ġaccur ate
Ġmod er
Ġextrem ity
Ġdec omp
ĠIdentif ier
Ġpost natal
Ġwors ening
ĠM ortality
Ġidi opathic
/ /
s ide
Ġf ast
Ġmod e
ch arge
Ġfin d
ling ual
Ġle an
Ġsupp orts
Ġche mor
ad es
ĠG FR
ĠA lso
oles ter
Ġremo ved
th ma
Ġpoly ps
ip rof
til ization
he re
Ġp aired
ĠS ingle
ĠCro hn
Ġn an
Ġsurge ons
Ġ q
ĠO P
s ided
Ġmul tim
Ġcriter ion
B M
Ġo titis
Ġcombin ations
A c
ĠP ositive
Ġben z
Ġsp ray
Ġprevent ed
Ġdefin itive
Ġret rie
ROD UCTION
op ress
month s
ĠS M
pro t
clud ing
ĠINT RODUCTION
at ch
Ġwill ing
Ġinf ectious
NS S
ke ts
Ġser traline
Ġtherap ist
Ġstret ching
o ter
ĠSever ity
: //
Ġcere b
Ġex tensive
Ġrhin itis
ren ces
ĠM o
ĠM ental
ispan ic
app ropriate
at ers
le ts
tim al
Ġsexual ly
amiv udine
k es
ĠS ince
doc rine
Ġtool s
Ġ erg
Ġhigh l
02 5
ĠSignificant ly
Ġph ases
phyl axis
Ġdom ain
Ġcoag ulation
is ition
Ġsulf ate
ĠV TE
Ġ199 3
am ycin
Ġadd ressed
Ġf loor
ĠAddition ally
Ġextr a
Ġprac tic
iprof loxacin
ĠD E
ĠL H
Ġsit ting
Ġent eral
tr ained
fer ase
is in
Ġprost agl
t oler
Ġmed ial
m erg
Ġf ifty
ĠF F
ĠD aily
ĠImp act
ur ation
ĠV er
Ġfollow s
Ġnon fatal
ro vascular
ĠSimilar ly
Ġsim vastatin
os en
ĠAI DS
Ġh tt
Ġpr ono
L S
Ġinterview ed
Ġc ode
Ġprono unced
Ġben ign
Ġagg reg
Ġanticoag ul
Ġendometri osis
01 4
Ġs ph
Ġscre w
Ġbehavi ours
Ġclo zapine
Ġcomplete ly
s ession
Ġpost ural
ili ary
Ġperiodon titis
Ġg ram
Ġpers isted
Ġir rit
Ġrelap sed
ĠImpro vement
om otor
im eth
Ġv ag
fe edback
Ġtoxic ities
Ġerythropo ietin
H I
ons et
Ġimmun od
atur ated
Ġfor ty
ĠL ung
Ġantib odies
un ting
01 2
Ġcor rected
aph y
Ġdifficult y
Ġro s
Ġsmo ked
w are
Ġal tered
ob acill
se vere
ul ties
ĠE X
ĠI tal
Ġclinical ly
ĠVis ual
01 5
Ġdet ailed
eti te
ĠP ers
ĠRec ent
Ġn ature
ur ally
Ġim ages
ti fied
orr hea
Ġmut ation
Ġatt achment
oc rit
ĠN O
Ġtr a
Ġfac ility
ĠAdminis tration
pe zil
Ġdop amine
ĠMater ial
Ġcle arly
abil ities
Ġl iqu
if teen
ĠHRQ OL
Ġsurge on
H T
Ġpost pr
ĠT S
Ġep ile
Ġes tradiol
Ġemph as
ĠVers us
Ġparen ting
Ġprog ress
Ġwash out
el ing
Ġinter im
atin ib
ĠSurv ival
jur y
Ġh oc
Ġinc om
Ġsus p
Ġbr ach
Ġ Â·
as ing
it abine
Ġth yroid
ĠMul tic
Ġinfer tility
ĠU r
Ġhormon al
ĠMultiv ariate
ĠN ine
Ġnons ignificant
P s
Ġhyp ers
ĠRegis try
teroid al
Ġembry os
Ġpath way
Ġrespec tive
Ġtac rolimus
Ġcon cept
ĠCo un
Ġde b
man ent
Ġexpl an
Ġparox etine
Ġcom fort
ĠIN R
Ġcon stant
ĠCon tinu
Ġpre ferences
d imensional
Ġpr agmatic
ĠPhys icians
ĠCardi ac
t rex
Ġve h
ĠInd ia
iv ol
Ġ10 6
ĠSymptom s
Ġpre test
D i
ĠR et
Ġsol id
Ġsk ill
Ġrepres ents
Ġcoup les
lo id
Ġsoc cer
c odone
ĠOn cology
Ġconcer n
en ous
ivol umab
Ġst ates
Ġdro pped
o ked
t rial
Ġv ibration
Ġunc on
Ġsatur ated
re w
ĠA ge
ĠFS H
ĠP ub
o tics
ĠP a
ĠA DL
un k
ĠE F
ph armac
ar ticular
Ġprednis olone
E s
Ġmes h
Ġh r
Ġman age
Ġmor ph
r hyth
Ġanim al
ation ale
ĠH ome
val ence
ĠF ailure
ic line
Ġcon ven
oc kers
Ġ10 3
Ġmetast ases
Ġperc enti
Ġs orafenib
Ġstr ain
ĠL atin
ĠP res
Ġco verage
Ġana emia
Ġconstr uc
ĠV L
Ġacqu isition
Ġcon tained
ĠR ates
Ġob struction
en em
aren icline
Ġ0 00
Ġcor rection
Ġsatisf actory
Ġperform ing
Ġag reed
tis one
ĠChan ge
thod ontic
Ġmus cul
Ġjournal s
S t
Ġaccompan ied
Ġimmunod eficiency
ent ed
ogr aft
Ġpsych osis
ast uzumab
Ġsupple mental
Ġinsuff icient
Ġro gen
Ġfr actions
ĠHRQ oL
Ġps ori
olester ole
ĠÃ ł
ric eps
ran dom
Ġblock s
ĠEduc ation
r ated
Americ an
Ġinverse ly
Ġs ter
Ġun e
ros copy
Ġnoc turnal
yp ical
Ġcatheter ization
Ġfall ing
Ġl asting
ag er
Ġper itoneal
Ġdep ri
Ġsuic ide
ver ting
Ġquit ting
ocy top
Ġcur ves
Ġs un
g ment
c ence
Ġex act
Ġter mination
Ġj us
Ġneurolog ic
v ate
Ġcateg ory
ĠEngl ish
Ġavail ability
Ġpharmac ological
Ġon d
Ġrestric ted
Ġmel anoma
Ġb il
Ġhouse holds
Ġda iry
mit riptyline
ĠC y
Ġ10 9
Ġind ication
Ġneu romuscular
Ġinfer ior
Ġal endronate
ĠInf ants
trex one
ĠH yp
Ġinstruc ted
Ġlet ter
ure a
ĠEx amination
on idine
ĠC Y
Ġimp lic
jec ted
Ġglomer ular
ĠCardi ovascular
f ast
Me ier
ĠMD D
ĠI MP
chan ge
Ġcoeff icient
he rent
et om
Ġdo ub
pati ents
Ġcorrel ations
Ġre n
Ġom eprazole
upp ort
Ġcovari ates
squ are
ell ar
Ġsafe ly
aro tene
Ġrespons iveness
j ured
Ġs he
or gan
ma king
Ġleuk emia
ocar cinoma
Ġp ump
ĠH E
Ġacc um
Ġl amivudine
OM AC
Ġintro duced
am str
ĠI GF
el ess
ĠAc cording
Ġtriglycer ide
Ġond ansetron
ome th
D s
a h
ĠImp ression
Ġim age
Ġapp etite
respon ders
Ġsug ar
ol i
Ġl ute
Ġveh icle
ĠLe vel
Ġmod ality
MS E
Ġad ren
ĠB I
ti pation
Ġr in
ri ol
ĠHealth y
Ġprob iotic
Ġer lotinib
Ġcomp ens
Ġinc id
Ġidentify ing
Ġv o
ĠB T
ĠF irst
Ġsupport ing
Ġdiffic ulties
Ġsec retion
Ġempir ical
Ġcomm erc
Ġneuropsych ological
Ġs keletal
Ġtraum atic
Ġsul ph
ep tide
Ġp ill
Ġd oll
Ġapp ra
ol um
Ġpar acetamol
Ġregis try
ĠCI N
Ġsepar ately
is al
lin ding
cor tisone
Ġax illary
na ive
ĠT K
ĠC op
ut ch
Ġstruct ure
ve olar
Ġblock ade
er obic
med etom
Ġsqu are
Ġpair s
w ing
par ative
ĠAs thma
ĠSur gical
medetom idine
se ud
Ġbe gan
âĢ Ķ
pl an
Ġind uce
Ġm ix
os ocom
ĠO ste
ac ute
Ġsim ulated
ord ance
Ġsocio economic
Ġc uff
or g
oph y
Ġhypot ension
Ġiss ue
t um
ĠB rief
Ġk ine
Ġaffec ting
ĠU l
ĠPro v
am er
M ES
ococ cal
Ġth ought
Ġvirolog ic
Ġb ul
Ġacqu ired
h am
O G
uls ion
osocom ial
% ),
ĠV eter
Ġmethyl prednisolone
ĠAd oles
Ġlaparos copy
Ġtyp ical
arg ine
Ġc iprofloxacin
Ġcomp rom
Ġprotein uria
Ġher ni
Ġj ump
Ġunderg one
01 3
ys ter
g ar
Ġhaem orrh
Ġfram ework
Ġres ul
ĠD C
Ġsol utions
gener ated
ĠMa jor
Ġconsist ency
Ġmess age
Ġthorac ic
W h
ung al
Ġbronch i
Ġt unnel
Ġint ended
Ġes ophag
Ġpharmacokine tics
C G
Ġhtt p
Ġd ors
ĠF l
Ġa u
Ġs n
Ġf ar
ĠE P
Ġmost ly
ĠAmeric ans
Ġhe re
Ġpoll en
2 00
oc ysteine
ine al
Ġcons tit
Ġs ut
res h
Ġdet r
Ġmax illary
D T
z e
Ġhyper gly
ĠPrac tice
B E
Ġdrin k
Ġliter acy
condition ing
uc cess
us ter
Ġcoll agen
Ġlim its
z en
Ġex clusion
Ġpo ore
hydro xy
Ġnod es
Ġseiz ures
Ġch osen
Ġkin ase
re lin
end ence
Ġform er
Ġminor ity
Ġbab ies
Ġt or
ig ation
Ġsp ir
Ġging iv
Ġpharmac otherapy
Ġplant ar
ox in
Ġover d
sel ected
Ġne oadjuvant
Ġvir tual
ĠEpid em
at onin
ĠS ocial
ĠB al
und le
Ġcor tical
Ġexpendit ure
ol ution
ĠK ing
ript an
Ġinter course
Ġel igibility
ĠMin i
os keletal
j u
Ġexper t
ĠPA NSS
o y
ter feron
lo on
Ġclass room
Ġs uture
Ġmob ilization
ef itinib
Ġtechn ical
Ġtend ency
T r
ĠD BP
end azole
Ġj ust
til es
air s
Ġdig ital
ĠL E
arge ts
Ã ¯
ĠW OMAC
ĠH z
Ã ¨
an ing
or ie
ig ure
Ġdis p
ĠAs ian
ap rox
enic illin
Ġattack s
Ġdentif rice
ĠA p
Ġsuc rose
e y
ĠA MI
Ġcharacteris tic
s aturated
ec an
ĠR enal
i able
Ġqu eti
Ġman aging
av astatin
Ġlocal ized
Ġenh ancing
Ġqueti apine
01 6
ĠOn t
Ġconges tive
im en
s p
Ã ³
om al
Ġfr uits
ĠCl ass
ĠPer formance
Ġanalyz e
ĠE Q
ĠG A
Ġrup ture
Ġliqu id
Ġs on
Ġlow ered
ĠL act
Ġeven ing
Ġc row
uc lear
Ġse e
Ġcont acts
ĠBe havi
Ġattrib uted
Ġ199 2
Ġenhance ment
Ġinflu ences
D E
der ived
Ġoper ated
ĠVeter ans
ĠIn formation
ĠN ID
Ġtrans dermal
Ġcarb oplatin
Ġst one
it ors
ĠC RT
igh teen
Ġhaem at
ĠD utch
Ġi e
ox ia
IC U
Ġmas ked
d ays
n ish
inc ter
og ens
Ġdef ine
ĠI G
ĠW il
Ġback ground
ag lutide
he alth
Ġdrin ks
Ġtransc ranial
Ġun ique
Ġneed le
Ġsoft ware
Ġinterpre tation
il imumab
Ġdi verse
Ġf ed
ĠP CA
Ġpsych otic
Ġcyto kines
Ġchan ging
ĠC GI
tig m
Ġaug mentation
ĠU p
fe m
we et
Ġme als
H e
ĠOnt ario
ĠIn tr
ch olesterol
io tics
ĠOrgan ization
ab s
Ġmus cular
Ġouts ide
Ġsc ans
Ġpos ts
Ġoccur s
Ġman if
Ġep inephrine
Ġfl av
Ġn in
Ġard s
i asis
ĠR em
aprox en
ĠG S
Ġdetermin ants
Ġdone pezil
mod erate
Ġov ulation
ĠM B
Ġquad riceps
ĠD IS
ĠF lu
rop r
ins ulin
Ġturn over
Ġa mitriptyline
01 1
Ġall ergy
Ġmodel ing
t able
ure us
ĠAd ults
Ġprol ifer
uc ose
pon in
Ġmarg in
Ġe lic
ĠP U
p m
ĠF O
Ġar rhyth
tim ulation
01 7
Ġvol untary
re mia
al ant
co h
ĠEx p
ol ine
ĠP redic
Ġab ut
R M
red uc
Ġhe aring
Ġne bul
Ġrecommend ation
os ity
aph yl
Ġd y
Ġl arg
Ġex ecutive
Ġsup r
Ġt argets
ĠE r
Ġvis c
Ġ201 4
Ġk il
art ments
Ġa ureus
Ġdraw n
Ġl um
Ġdon or
Ġre verse
ĠA A
Ġgran ul
ju ana
at tery
Ġcons tipation
Ġs avings
i k
ĠE G
Ġgl argine
Ġadequ ately
o vered
ĠGerman y
s ub
Ġpre f
Ġdis section
Ġun f
Ġintrac ranial
f ib
Ġc as
Ġantidepress ants
del ivered
Ġlarg est
s ignificant
Ġsyndrom es
Ġadv ance
Ġsynt hesis
ĠC PAP
Ġflex ibility
Ġmid azolam
h ist
Ġche mo
Ġwound s
Ġward s
Ġout reach
ofl av
ĠHyper tension
coh olic
p ost
tic asone
Ġins piratory
Ġreac tivity
Ġincom plete
ĠT G
Ġconclusion s
Ġcyclospor ine
n ec
Ġch rom
tin in
Ġcl ients
action ated
Ġhyperch olesterole
Ġin appropriate
Ġdemographic s
Ġextre me
Ġcaps ules
Ġp ay
Ġabs ent
ĠSup ple
ĠM V
Ġincreasing ly
Ġradiograph s
Ġb order
Ġle ave
Ġtr astuzumab
Ġattenu ated
Ġc amp
ĠI P
Ġpharm aceutical
il ities
TE D
Ġpot ent
Ġinterview ing
ĠZ eal
Ġexcess ive
o ts
Ġre perfusion
n ight
Ġhist ology
Ġa part
en atide
qu ired
Ġh amstr
Ġmiss ed
ĠPh armac
Ġdoc tor
as i
Ġdis tin
ps ia
fac es
Ġpe g
Ġsix ty
Ġflex ible
bl astom
Ġanthrop ometric
Ġe ti
Ġfal se
Ġretin opathy
m ark
p sy
Ġc od
Ġl ib
Ġtr imester
Ġ10 8
og litazone
Ġrecur rences
Ġbook let
b eta
athy roid
Ġaden ocarcinoma
toler ated
m ing
on yl
Ġf a
le g
pro tinin
Ġchallen ges
ex ercise
ĠCP R
Ġalle vi
Ġ Ï
T h
Ġl os
Ġabs orption
t re
ari juana
Ġab stract
Ġpsori asis
Ġst aging
ĠSy ndrom
ce ption
V I
IN E
Ġpre v
ĠB R
ĠHRQ L
fl ow
Ġac ne
Ġintra uterine
Ġdefin ition
Ġmolar s
Ġrev ised
Ġass istance
Ġmed iat
Ġposs ibility
Ġ10 7
Ġw oman
ĠO C
Ġallerg en
on ium
ic obacter
Ġcol lege
Ġis ometric
Ġrob ust
ĠB D
d ia
Ġeff ort
gin terferon
ĠL D
Ġanti em
Ġinfusion s
Ġcon version
ost omy
Ġrefl ect
ĠIg G
an gi
Ġ *
ĠS leep
ĠM et
ĠCal if
os p
Ġqu artile
Ġpost test
ĠSt ress
ob ia
ar ial
Ġch ance
F C
Ġacco unted
R NA
Ġat ypical
Ġch art
us tom
ur gery
ther ap
Ġcl om
al gia
Ġstatistic s
Ġdoll ars
ot ecan
Ġuseful ness
ogene ic
ic tion
ĠS MS
ll ine
Ġschizophren ic
Ġoxy codone
Ġemploy ees
Ġrelev ance
Ġsp lin
Ġg old
ĠS te
entif ic
ĠIn di
ĠF ish
Ġl ay
ĠL VE
Ġl acking
Ġtr ic
Ġdistric t
ĠPCO S
Ġf u
Ġnon inferiority
z ing
Ġg ast
ĠG E
ĠBM C
ic ine
Ġtrans mitted
Ġdis co
ĠPre gn
Ġlas ted
Ġl aryng
Ġsub lingual
C l
ĠL og
ific ations
Ġsaliv ary
Ġst ri
Ġprincip les
Ġinc ome
Ġlin k
ĠOl der
ĠM MSE
Ġpoore r
anc ial
ĠRes piratory
Ġro tation
Ġsit agliptin
Ġex h
ĠB one
ell a
ock et
ad y
Ġpl ans
Ġ24 0
ĠE d
ĠG iven
ocytop enia
Ġrec ognition
um an
Ġinhal er
Ġamin otrans
Ġteach ers
S S
Ġon c
ĠH P
ĠA K
Ġper manent
ĠPro t
p al
Ġnegative ly
restim ated
Ġn as
Ġn ucle
Ġstron ger
onsill ectomy
B W
Ġtrans f
ĠP ON
ear ing
Ġamo unts
Ġdifferen ti
E F
Î ²
Ġsim ulation
ĠFin ally
Ġju ice
ĠW OR
mo id
atin um
oc ortic
Ġder m
M M
n o
Ġneurop athic
Ġn ivolumab
Con trolled
le asing
Ġirre spective
E PO
ĠD A
Ġchlor ide
ĠRel ative
ĠBec k
Ġdocu ment
id ing
ĠRe view
ĠL aparoscopic
Ġthres holds
Ġsqu amous
ĠP art
Ġinvestig ations
Ġex ists
amic in
Ġful f
ĠHigh er
Ġhab it
blastom a
ĠI A
ĠH I
Ġclar ithromycin
ĠMod el
Ġatheroscler osis
Ġeas y
w or
Ġ199 1
Ġvitamin s
Ġcyto kine
ĠPro state
Ġroutine ly
it ary
Ġbo ard
Ġadap ted
Ġtoothbr ush
Ġgingiv itis
ĠNID DM
or us
Ġen al
Ġday time
Ġ11 2
Ġhelp ful
Ġun ivariate
d ed
ĠL im
Ġcare ful
ĠInter view
al in
ĠT reat
Ġindic ations
Ġf olic
Ġfac ial
Ġmuscul oskeletal
op ril
rol ac
Ġaden omas
Ġtib ial
H F
ĠK en
Ġseiz ure
Ġenal april
Ġgen eric
Ġvis ion
Ġan sw
Ġnormal ized
Ġexpl ain
Ġstimul i
ut ation
Ġv an
Ġk ne
Ġpri vate
Ġfibrin ogen
Ġdimens ions
Ġket o
ĠS VR
ens itive
Ġmucos al
Ġpharmacokine tic
Ġpercenti le
Ġelectro cardi
lam y
Ġgraf ts
ĠMT X
Ġechocardi ography
th ir
Ġcycl ing
ĠÎ ±
R es
Ġserot onin
Ġn osocomial
Ġcom orbidity
Ġat roph
Ġcovari ance
Ġcontrace ption
obacill us
Ġnon r
Ġinstit ution
Ġt ap
mo b
Ġdet ecting
ĠIT T
Ġrec overed
Ġket amine
ĠN RT
Ġread missions
Ġdistrib uted
5 00
Ġ( -
Ġmo vements
ĠK nee
Ġpoly p
en ergy
Ġv arenicline
Ġnat ri
id ime
Ġg rip
Ġch ain
ĠV ari
Ġens ure
oter icin
01 9
ir c
Ġinter rup
01 8
Ġminim ally
Ġhist ologic
ĠCol lege
Ġbreak fast
Ġip ilimumab
throm bin
Ġsph incter
Ġt y
Ġr aters
Ġalter ations
ly tic
) =
act am
Ġcl amp
Ġcl onidine
Ġm arijuana
Ġn itrate
Ġprot ect
Ġbal loon
Ġthromboemb olic
app a
Ġaver aged
ro cy
ĠDe velopment
Ġran k
Ġsusceptib ility
Ġis oflav
Ġorig in
Ġhemat ocrit
C US
c arotene
al c
lu e
Ġmen opausal
ĠH ispanic
Ġreg ulation
Ġc ot
ĠE MG
hydr ation
ĠDi et
S ION
t ured
Ġcr aving
Ġgyn ec
Ġe pit
ul ous
Ġv oid
ĠAc tive
mph otericin
oglo bulin
Ġopioid s
ec lam
EC T
eclam psia
Ġst ric
Ġrespons ible
Ġtrans ition
albumin uria
s A
Ġg efitinib
Ġdefin ite
ĠPre operative
athe ter
c ystic
ex isting
ĠIns ulin
ĠCompl iance
Ġfer tilization
Ġseem ed
ĠC ost
ĠHel icobacter
ĠA CS
a ud
ĠN ot
ĠSwed en
Ġint oler
Ġemploy ment
ĠMed ication
Ġstrati fication
Ġstabil ization
s urgical
ĠM ass
Ġpath ology
Ġcult urally
Ġinst ability
Ġr if
Ġstud ent
Ġro und
Ġb mi
Ġmic rom
ĠCl uster
Ġstent ing
ĠCollabor ation
Ġexplor atory
oper ation
ard ia
ĠH ep
Ġconfound ers
en o
Ġthe ore
ĠF ifteen
taz idime
af il
opath ology
Ġto o
Ġr hyth
Ġor thodontic
ad ren
Ġh ard
Ġsus tain
Ġgen ital
LE D
Ġn ore
ĠOb ser
Ã© r
a em
Ġt ape
er ol
ĠE le
otrop in
com ycin
Ġactiv ated
Ġjud ged
ĠIn tensive
ĠInc idence
Ġeas ily
ĠSyndrom e
r ater
Ġst atic
ĠR OM
meth yl
ĠL MW
Ġnal trexone
an z
ĠE B
Ġmid w
Ġperson nel
Ã ¤
Ġc et
ot ype
Ġsur faces
Ġpath ological
Ĥ ¬
ram ycin
Ġadminis tr
Ġpe ginterferon
ĠNe gative
Ġf o
Ġtro ponin
pl atelet
Ġcreat ine
Ġes cal
Ġpreced ing
Ġanticoagul ant
ĠSix teen
Ġnewborn s
c ognitive
Ġcarb onate
ĠS B
ĠM us
ĠWhe ther
Ġderm atitis
okine tic
us hes
ran olol
u ro
Ġf resh
pre ad
Ġele ments
s ol
ĠT echn
ĠLVE F
i ro
v oflurane
Ġdef icit
CA TED
Ġoste op
if th
Ġhydro xy
Ġaminotrans ferase
c i
Ġventil ated
ĠTR UN
ĠTRUN CATED
Ġg ent
Ġdi rec
ĠRep e
spec tively
Ġun able
is try
Ġfr ag
Ġp y
el ior
Ġdepend ing
O X
sc ore
Ġsy mp
hel ess
Pro spective
Ġin n
Ġb u
Ġall ogeneic
Ġepile psy
Ġtor que
ter min
Ġtemp oral
ig moid
u ation
Ġpl atinum
ĠN H
Ġdi rection
Ġantipsych otics
ass ess
ĠV AP
ĠHS V
Ġlife time
pre gn
ost atic
Ġdos ages
Ġaffec tive
ronutri ent
ĠB ur
Ġexamin ing
sh op
am ate
Ġexc ision
Ġtitr ated
Ġcur ative
orn ia
ĠReduc tion
Ã¯ ve
Ġbas es
Ġvas odil
CA TION
or ph
olip oprotein
an th
Ġsc aling
e tics
ous e
Ġsim ulator
Ġhist ological
ar act
G E
M RI
ic o
Ġprep ared
Ġop in
Ġsol uble
Ġbio feedback
ur ic
Ġapp ropri
Ġed ent
Ġcomplic ated
Ġdisturb ance
H u
aro us
Ġdisturb ances
ĠIncreas ed
ĠCalif ornia
ĠN utrition
ĠWor ld
app ing
at um
Ġdis app
es ity
as min
ĠWOR DS
ac hed
Ġcyt ology
Ġh and
ain t
ĠS ide
Ġhydro cortisone
i rom
Ġpre specified
ĠAim s
Ġnatri uretic
A l
at ology
ur inol
ĠN AC
Ġsh ared
ĠÎ Ķ
ĠAd v
cent re
ĠV itamin
Ġresid ent
Ġreinfor ce
Ġinjec ted
Ġreproduc tive
Ġn aproxen
Ġdetermin ing
id omide
Ġextr acted
om ponent
Ġrepresent ative
Ġexce ption
Ġinhal ation
Ġc av
Ġan ticip
Ġneut ral
Ġb ac
if entanil
IC AL
Ġvide ot
Ġ11 4
Ġcompr ising
Ġstat ins
i rolimus
od ipine
ur able
Ġinf l
Ġun like
I L
Ġhom ocysteine
Ġuncon trolled
troph y
Ġmethod ology
Ġrit uximab
Ġdepri vation
Ġsp orts
ĠKing dom
g u
Ġtr unk
Ġpan el
Ġm er
Ġcolon y
form ed
Ġmetab ol
ĠDiagn ostic
L Q
Ġst rept
Ġch ol
Ġind ometh
Ġappear ance
ides pread
Ġconj unction
Ġg iving
oc ation
atisf action
iph ene
ww w
ĠDIS CUS
ĠDISCUS SION
Ġo s
ĠL i
Ġexpect ations
trans plant
Ġth in
Ġrestor ations
Ġpi oglitazone
Ġindometh acin
dis charge
A M
otrop ic
Ġmicrob iological
Ġappoint ment
ĠC ar
Ġang le
Ġc ustom
ĠSwed ish
Ġcar cin
Ġdep artments
cept or
ĠH ES
Ġrad ial
Ġpack age
bur g
rom y
ĠS ex
Ġg ive
as ic
Ã© e
place bo
as tim
Ġinc ons
Ġtr acheal
ĠG uid
Ġheterogene ity
Ġh yster
ac quired
Ġrem ote
un ate
Ġco ol
Ġfavour able
ence phal
Ġse m
Ġdi rected
oph ys
Ġarth roscopic
h r
Ġimplement ing
Ġshif t
Ġequ ip
Ġi le
ĠCo hort
face ted
Ġcall ed
an k
Ġform al
Ġallow s
Ġeff usion
ĠD FS
ric hed
Ġdef ects
Ġ12 6
Ġb ot
Ġam elior
ĠFish er
R andomised
ĠD ASH
Ġloc ated
Ġa mphotericin
me tic
ĠMan n
lipid emia
ir al
Ġme at
Ġmyel oma
Ġb id
f icial
it ney
Ġfin ancial
Ġmel atonin
ĠB o
olum e
Ġb is
Ġep oetin
12 5
ĠTA U
Ġse eking
Ġhamstr ing
Ġa protinin
abl ing
Ġpath ogens
ĠEC G
ĠFund ed
Ġar tem
Ġ11 6
Ġver ified
Ġvul ner
fem oral
Ġp or
at ation
ĠS H
Ġ11 5
umb er
Ġvary ing
il iter
Ġint act
ep ir
Ġbiomar ker
ver ages
Ġeng agement
Ġseg ment
1 000
ag ers
ĠSe vere
ĠC ross
ĠS RP
tr action
vi x
Ġparame ter
im mun
Ġun ivers
Ġser ial
Ġvari ations
Ġdex medetomidine
ĠImpro vements
ĠRep ort
Ġst om
uc onazole
Ġtr am
ran ge
Ġpoly mer
Ġcontrib ution
g ens
Ġg reen
Ġadhes ion
feren tial
od iazep
rin t
Ġsuff ered
Ġw rist
ap agliflozin
ĠF igure
ox on
Ġvalu able
ĠProf ile
a ign
or ary
ĠMM F
pe ak
Ġincen tives
ol ds
ĠS O
Ġenro l
Ġabstin ent
b u
per idol
Ġst ones
Ġprev ents
ab is
Ġdesign ed
Ġrestor ation
ff ee
Ġver tical
ĠV i
Ġinten se
Ġun res
Ġcef tazidime
Ġsc en
ĠHe re
ĠMultic enter
s chool
ĠC sA
Ġ11 1
Ġconsider ably
Ġp enicillin
ĠThe ir
Ġpost al
ĠImp l
Ġcorrel ate
Ġchemor adiotherapy
ys tal
Ġinf iltration
ĠCo operative
ĠFam ily
v o
ĠA ff
ici ently
Ġâ Ĥ¬
opram ide
o tide
Ġp en
ot om
in yl
Ġt a
Ġre aching
ad s
Ġspec ies
ĠSt age
LI CATION
Ġves sel
D F
T rial
W T
Ġquestion naire
Ġresul ted
00 05
ĠT um
Ġ12 4
Ġpreser vation
d ef
at ran
Ġg ut
ĠR BC
AS I
Ġaneurys m
Ġin ner
co ated
Ġpref rontal
Ġf el
Ġex er
Ġ11 8
ider mal
Ġprol apse
n oea
BS R
x ia
Ġincid ences
ip razole
Ġbirth s
ĠF em
Ġlim itation
Ġnar row
Ġre tained
ĠParen ts
ĠE s
ocus ed
ĠCom mittee
Ġintern et
Ġvan comycin
ag ia
ĠG M
ĠP ulmonary
Ġbe verages
ab apent
00 02
Ġprom ise
be havi
Ġcomple mentary
Ġcontrib uted
ocl opramide
as tern
Ġsp ace
Ġweb site
Ġphys io
B NP
ĠA m
Ġpre menopausal
Ġflu orouracil
Ġflu ticasone
ĠÂ µ
Ġphosph orus
il ical
stim ulating
se gment
Ġsc ar
Ġpr avastatin
Ġother wise
io blastoma
u inal
Ġencour age
Ġm ast
ĠClin ic
es try
abapent in
D oes
ĠU N
Ġdist ant
Ġext ubation
Ġon cology
ĠIm mun
ad vant
ĠStud ents
Ġsci entific
op urinol
Ġfollow up
om ycin
Ġh s
er o
ed s
Ġdistin ct
f ir
Ġregular ly
Ġretro spectively
Ġr s
um ption
Ġas part
Ġthere by
Ġpredic ts
sw estry
est he
Ġcon c
Ġcr y
Ġcat aract
op ia
op ulation
Ġhyp n
Ġdispl ayed
ĠF ood
Ġmultic omponent
Ã ¶
Ġt in
Ġw r
Ġtransp ort
e re
ĠM ex
Ġcolon ic
ion e
Ġprop ranolol
Ġketo rolac
R educ
ab dominal
Ġper for
Ġ13 5
ĠKen y
C BT
Ġcel ecoxib
Ġconsider ing
ĠLact obacillus
ĠP rop
Ġro se
Ġsuperv ision
Ħ ¢
ren d
ĠAd ult
men orrhea
ĠDis orders
R s
Ġobser ver
Ġspl it
an asal
hes es
ĠEl derly
ĠTe le
is ure
ĠO swestry
Ġar tif
Ġ/ =
asm odium
x in
Ġw idespread
ĠP ri
gener ative
Ġtitr ation
v itamin
ĠF MD
acy cline
Ġbronch ial
Ġdetect able
s up
oc ular
at form
ri tion
Ġm ol
os us
ch ron
ĠE ighteen
aro x
Ġamin o
ĠIndividual s
ad ox
Ġexp ensive
ac ing
Ġtr ain
Ġpres ents
Ġincen tive
athe tic
Ġam y
uls ive
Ġ. <
Ġapp end
ĠG T
Ġinten tions
Ġher oin
if ed
ĠG H
Ġcirc ulation
ĠMedic are
He alth
ti ometry
ĠN et
Ġra ised
Ġvill ages
D o
Ġcer vix
at ase
Ġro ute
ORT C
mi as
opress in
ĠS uch
Ġc ep
Ġpred efined
Ġrefl ected
Ġstr ains
ros p
Ġaspir ation
Ġavoid ance
ĠPON V
Ġhe el
oly tic
Ġb le
Ġ12 3
Ġdevelopment al
Ġap olipoprotein
Ġestim ating
ĠCL IN
Ġirrit able
Ġb attery
ill a
av age
Ġcontr action
Ġquanti f
z ed
Ġf ifth
ir aglutide
Ġoccas ions
Ġnon invasive
Ġcol pos
Ġcontinuous ly
Ġinser ted
Ġhypogly caemia
pers onal
ĠFact ors
Ġn mol
Ġhe aled
ĠUn der
Ġp am
Ġrep lic
Ġless ons
Ġbarri er
Ġsimultaneous ly
ĠA ch
Ġedent ulous
Ġsup ine
Ġsp r
Ġrecor ding
B D
Ġ12 8
Ġref lex
orp tiometry
plan ned
Ġdis advant
Ġsw elling
ores piratory
r ant
Ġqu ick
Ġwork shop
ĠEle ven
ĠD ex
Ġdrin kers
ess ary
( +
Ġto l
Ġ12 2
av ail
Ġadv oc
Ġdisc rep
ĠUS A
ĠServ ice
os al
Ġr ationale
op rol
ĠContinu ous
anal yses
C RP
ow s
ren ch
ĠM id
Ġdys plasia
om on
t onic
Ġal ways
Ġnon specific
Ġproduc es
apa ro
w an
med ication
ĠPl asmodium
ĠEl ec
Ġtram adol
ĠT VT
Ġrep l
ĠPE D
Ġmanif est
im b
Ġcalc it
Ġseg ments
hel ium
Ġec centric
h igh
Ġso on
rip iprazole
ifed ipine
od g
Ġ12 1
Ġ11 9
Ġwithd rew
cy cline
R R
Ġf ist
op timal
tig r
Ġhel d
ĠCLIN ICAL
W s
Ġle af
ĠCom plete
Ġprincip al
M IT
Ġstruct ural
ĠHA M
id ge
d ine
ĠE th
A B
olog ies
Ġenh ances
N C
Ġb linding
Ġencour aging
Ġcomorbid ities
ĠIniti al
Ġdi aries
odg kin
ud den
ot ensive
Ġcal oric
Ġabs orptiometry
Ġpsycho educ
ec itabine
Ġe f
Ġfor ward
ac ial
Ġr ule
Ġgrow ing
Ġdemonstr ating
eps ia
Ġm ask
Ġs ickness
Ġspec trum
Ġapplic ations
M ed
os ine
ĠChe ck
ĠP ediatric
cent ered
B lind
z id
Ġform at
Ġincorpor ated
opro phylaxis
Ġeight y
Ġhaem odynamic
Ġfoll icular
Ġpercent ages
Ġsuic idal
Ġworld wide
R el
Ġk er
Ġle uc
ugh t
ĠV al
ĠEu ro
ep t
yl c
Ġc ured
Ġrecogn ized
L D
ĠCombin ed
pers on
yc ardia
ĠI OL
ac illin
ap ed
ĠN HS
Ġcontinu ation
ĠIg E
M ental
ab alin
ĠEx perimental
i otomy
Ġgener ation
ad en
ph ase
Ġborder line
Ġ13 1
02 3
Ġsubcutaneous ly
il s
Ġsuper ficial
ĠD ys
Ġresol ved
i tional
ic illin
ĠM BSR
ĠE merg
ag ic
Ġadj acent
ep endence
umat riptan
Ġclom iphene
m olecular
Ġcereb rovascular
ĠPG E
Ġthromb ocytopenia
Ġeryth rocy
Ġphys iologic
astic ity
Ġac t
Ġstimul us
Ġelimin ation
an ia
Ġdis rup
at t
ĠP ap
ĠD et
Ġprepar ations
ĠN E
Ġillness es
ili ated
Ġconflic t
% .
ĠG ER
Ġf olate
Ġend ogenous
Ġexper ts
Ġpa ediatric
Ġs ac
Ġdis s
Ġco ffee
Ġpath ologic
Ġepidem iological
Ġdis cl
Ġn ested
ad herence
Ġqu asi
Ġcontr al
Ġencour aged
Ġal veolar
ĠK ore
Ġu rod
Ġcaps ule
Ġv igorous
ĠM ic
ĠR o
Ġcompare s
Ġure a
Ġimmun o
loro quine
Ġw ord
Ġopportun ity
M O
ĠS al
ĠB A
Ġserving s
ain d
Ġsur rog
Ġwa ys
Ġbenz odiazep
I FN
Ġse voflurane
Ġcode ine
ro at
ce ived
affec ted
Ġantiem etic
Ġm om
ox azole
Ġfrequ encies
sel ves
Ġstric t
ĠSE M
ĠAff airs
es ophageal
Ġk appa
romy algia
lamy dia
ĠP AC
Ġconsider ation
ĠI ll
umb ilical
ĠIMP LICATION
Ġw id
ri end
Ġse venty
Ġtiss ues
ĠT O
Ġtrig ger
con verting
Ġmedical ly
ĠAL T
f il
re leasing
Ġr iv
Ġtum ours
Ġt i
ĠS upport
Ġcon ver
P R
c oxon
o a
Ġ11 3
Ġmeet ings
Ġweak ness
Ġpractic es
Ġunf av
ol imus
act in
ram idal
yp ro
Ġpharmac ologic
Ġoxygen ation
b ine
at en
ol id
Ġgl ioblastoma
ĠC aro
ĠPC R
ĠAr m
Ġt ach
Ġcar ry
Ġprost hesis
Ġacceler ated
Ġalb endazole
con s
ici ents
N O
Ġt ender
Ġfocus ing
ĠFour teen
Ġcontral ateral
g el
an ib
iel ds
Ġauth or
et een
T C
ting u
Ġidentif ier
Ġthem selves
Ġappra isal
Ġextr ac
Ġap nea
clus al
ĠÃ©t Ã©
Ġres orption
ĠO x
Ġnit ric
] ,
Ġex change
Ġim ipramine
Ġmalign ancy
assess ed
E n
avir us
Ġphysio therap
Ġoverd ent
Ġse mi
ĠSt rength
Ġen docrine
Ġtw elve
onyl urea
om ib
ĠEx per
Ġth reat
ul an
Ġcol or
Ġcorrel ates
Ġpneumonia e
Ġc ity
Ġfe el
f in
Ġl ith
Ġloss es
b ar
g abalin
Ġm s
ant el
Ġclose ly
Ġeg g
ĠLog istic
ren z
ĠME DL
ĠL F
ocl onal
p ub
Ġo ve
Ġpl atform
mo uth
Ġin jured
Ġ13 3
Ġche wing
Ġdetermin ation
oly sis
Ġin effective
Ġdeliver ing
Ġstron gest
Ġparas it
ĠF M
vel amer
epir ide
ĠD I
Ġdis tingu
Ġgen es
ĠNSAID s
ĠD HA
ĠTh rom
Ġindic ator
Ġdis semination
ĠE ven
ĠL R
Ġmal n
Ġmg r
Ġser ve
Ġmac ular
Ġanastom osis
t el
Ġfore arm
E arly
p tives
ĠH RT
our al
01 0
av ulan
child ren
ĠLMW H
on or
le y
un ch
od emographic
Ġresid ential
ĠOp en
Ġb inge
ĠW BV
Ġne gl
ĠCY P
sequ ently
Ġbrach ial
Ġf air
oro tic
ges ia
Ġincre ment
Ġcut off
in osa
am etric
Ġar ch
Ġpat ches
ĠF rench
ĠL L
Ġab dom
Ġtherap ists
eth nic
Ġbe verage
Ġo ri
Ġre hospital
Ġexce eded
od opa
ĠB DI
ress ings
Ġaut onomic
Ġleak age
ĠB NP
rol izumab
Ġnorm otensive
Ġeryth romycin
ĠA ut
Ġannual ly
Ġsitu ations
Ġuncertain ty
ĠUr inary
Ġmediat ors
Ġgent amicin
d iagn
l ong
Ġvis ited
Ġmet oclopramide
orac ic
ĠFP G
ĠPED ro
le b
L LED
Ġr igorous
Ġimmun ization
rit in
w ave
Ġsil ver
ĠD em
Ġ13 2
oid ectomy
ax ine
Ġfib re
l af
Ġal ive
ĠWil coxon
Ġ rop
Ġrelap ses
U se
Ġd ans
Ġe GFR
od enal
Ġren in
laf axine
f ocused
Ġwithdraw n
lo vir
vent een
ĠFr ance
ropr actic
in ergic
Ġh rs
ĠE PO
emb rolizumab
ĠMEDL INE
Ġcoeff icients
Ġo ocytes
Ġcoun try
ĠComp uter
Ġlet ters
Ġ uter
ĠS TI
Ġab ilities
ex perimental
Ġfl ap
ĠPer i
Ġc ys
Ġfl uconazole
ĠCA P
g o
r im
ĠU s
Ġsp irom
acter ial
Ġc os
Ġd ia
Ġmed itation
Ġdro peridol
Ġhaemorrh age
Ġanti platelet
Ġventil atory
Ġfoot ball
Ġunlike ly
ĠC AL
ĠS ensitivity
Ġ= .
Ġhar ms
ĠLI MIT
p es
ob ese
ĠRepe ated
a id
ĠB ay
unc il
ĠT ACE
Ġex cluding
ĠCh ar
Ġtob ramycin
reg ulation
Ġarter ies
Ġpancre atitis
Ġpolymorph isms
apy ramidal
Ġnutri ent
Ġdysp epsia
Ġcorrect ly
ar te
av es
Ġhy dr
Ġachie vement
Ġradi ological
Ġcell ular
Ġaer ug
S C
ph ys
Ġund e
Ġrecept ors
an ium
ar one
rec tile
of ovir
Ġ201 5
Ġexpect ant
Ġatroph y
or able
Ġpre conditioning
gr astim
Ġpop ular
Ġmat ter
Ġemerg ed
ĠP ilot
Ġgr ass
or te
ol omide
to ok
che mic
ĠHA ART
Ġaerug inosa
u ate
er ved
Ġdo xy
Ġ11 7
Ġhemat ologic
B A
Ġnons teroidal
Ġconduc ting
ĠP CT
Ġol ig
Ġrem ifentanil
ĠCM V
ĠT er
ĠD en
Ġvirolog ical
ĠIntra venous
Ġneopl asia
Wh itney
ĠLIMIT ATION
Ġn ail
Ġox al
Ġdimin ished
Ġkne es
Ġdoxy cycline
ect asis
ur g
Ġcr an
Ġappoint ments
uccess ful
ĠIndi an
ylc ysteine
z omib
Ġocc ult
Ġincorpor ating
k y
Ġth roat
PA R
Ġpreser ved
Pre vention
e Ag
im inary
ĠP opulation
operative ly
rel iminary
Ġun related
ĠR P
oph erol
Ġj ob
ĠPE G
tif ication
Ġartif icial
as c
Ġl ob
if estyle
Ġunder took
place ment
Ġnerv ous
l ig
Ġw ww
Ġsepar ated
w h
am ip
tes unate
Ġmalign ancies
Ġpar a
Ġpost traumatic
Ġinadequ ately
Ġgl im
g ression
it ated
throm botic
u thern
if orm
Ġcontrace ptives
ĠAl cohol
Ġmicro vascular
Ġd ressings
Ġcare rs
Ġfluid s
M R
Q OL
ĠS TE
Ġaddress ing
r ad
ĠP oly
Ġpl asmin
Ġcamp aign
nit ine
t ailored
Ġ iv
Ġrece iver
ĠVE GF
prot ected
Ġcol itis
Ġmulti faceted
Ġmicro albuminuria
Ġmon oclonal
ĠBe havioral
Ġurg ent
Ġprog ressed
ĠAn tib
Ġm ach
Ġadap tation
eg a
Ġcot inine
en er
Ġf iss
iti dine
ĠI PT
ĠL abor
avi renz
Ġbelie ved
ri ed
ĠN Y
ĠK R
Ġsm ear
N B
V B
Ġ12 7
FS H
Ġport al
a quine
o u
est ing
ĠE ORTC
Ġatt rition
Ġpat ency
c ost
ĠAD HD
ure thral
Ġne ur
ecu tively
Ġfel t
Ġinhibit ory
Ġattit ude
Ġnit rogen
a ec
Ġtrans cutaneous
02 1
Ġiniti ating
ĠL iving
Ġmod if
echan ical
Ġs igmoid
Ġ19 86
Ġcardi orespiratory
Ġinvestig ating
Ġneuro le
gly cer
om ical
Ġdil ation
Ġn ort
Ġr ats
Ġco aching
02 6
Ġprob able
l ass
Ġp ounds
ion ate
ĠU TI
ĠAr th
p inephrine
ĠA verage
02 7
Ġexpl icit
ĠSL IT
j unc
Ġs ib
al ls
Ġc T
Ġst ocking
ond on
Ġâ Ħ¢
Ġtyp ically
Ġapp li
Ġcalc ulate
ĠH ist
Ġstro kes
ĠST D
Ġblock er
ĠCo uncil
if ep
ĠP PI
Ġrepresent ing
Ġwork place
rist one
Ġestim ation
ifep ristone
Ġt em
Ġc utaneous
Ġp ut
Ġglim epiride
Ġch ron
opa edic
Ġinn ov
ot roph
Ġmod ify
In c
Ġaccur ately
bl ock
Ġle isure
ĠW ork
02 8
itiz ation
A G
p oc
Ġes c
Ġcategor ized
tro zole
Ġom ega
ys tolic
Ġmeas urable
Ġ14 4
Ġperson ality
Ã³ n
t heless
Ġo int
id el
ĠR adi
yp t
Ġaltern ate
Ġfer ritin
Ġethnic ity
Ġhypergly cemia
Ġn ifedipine
Ġinter ference
ans ion
ges terone
Ġminim ize
Ġmix ture
ĠH uman
Ġsaliv a
Ġcap ecitabine
Ġglyc ated
Ġs udden
Ġdys ph
Ġad di
ĠAppro ximately
c arb
on y
ic t
ĠPT H
Ġ13 4
ĠOb esity
ĠEffec tiveness
Ġreferral s
um atic
Ġqu arter
ĠSp anish
Ġglyc os
02 2
Ġana esthetic
Ġadop tion
Ġpur ch
M an
Ġstop ping
ĠFew er
Ġrhyth m
ĠA AA
Ġsim pl
Ġmast ectomy
poc amp
Ġper ineal
Ġcons ecutively
sel f
ĠAC R
Ġf ungal
ab olic
te em
ĠL OS
ĠIC C
Ġinstit utions
r ac
Ġne igh
Ġco ver
erv ised
ĠCombin ation
Ġpromp t
N s
R e
d yl
e ther
Ġen ough
Ġhist or
met ry
Ġcet uximab
Ġwe ights
Ġwas hing
ĠA G
Ġar ri
Ġload ed
Ġal coholic
Ġall opurinol
Ġcr ystal
Ġag itation
opro t
Ġurod ynamic
uc as
Ġur ge
Ġimmun oglobulin
Ġgluc ocortic
Ġgonad otropin
ĠS an
ĠL ip
ĠL ondon
Ġsymptom atology
upp orted
Ġpan ic
Ġcann abis
Ġac tions
Ġard ised
chan ter
ĠRegis ter
ĠStr ateg
Ġsinus itis
Ġvisc eral
z er
on itis
ĠW L
04 5
Ġpath ways
b or
Ġal k
Ġon t
Ġequ ation
Ġvi able
Ġswit ched
oprol ol
Ġd enti
up take
ĠB E
Ġmultim odal
Ġpoly cystic
Ġing uinal
ĠP ressure
ĠM ar
Ġprost heses
Ġcontr actions
Ġdeliver ies
cri ption
Ġunres ectable
arte rectomy
Ġele mentary
ĠMus cle
W L
m ide
Ġpersist ence
P redic
h ome
Ġequ ations
Ġcondition ing
Ġactiv ator
Ġampl itude
ath iop
ĠM el
ograph ically
Ġprost atic
onia zid
Ġfacilit ated
ĠPe ople
ĠNP H
os ol
ĠO per
feren t
ĠImp lication
Ġpro te
Ġsub jected
ĠCon tro
cop hen
ĠStud ent
Ġmucos a
oz olomide
Ġextreme ly
ĠCon tr
lind amycin
Ġprop ri
Ġhyp oxia
ipl atin
ĠD emographic
abl ed
Ġsched ules
athiop rine
z ema
kines ia
Ġmon oxide
ĠRe habilitation
ward s
tivi tis
ĠAnal og
yr id
ĠES RD
Ġpersonal ized
Ġreinforce ment
ĠH al
ĠG C
Ġâ ©
Ġdecomp ression
Ġres in
02 4
Ġbec om
ĠT AC
ot onic
Ġle trozole
Ġcont acted
03 5
ĠHR V
Ġattemp ted
l iter
F P
Ġs umatriptan
al k
id ents
Ġr ash
Ġall ograft
over n
ĠE stim
ol ization
Ġ14 5
ĠN umber
com p
Ġal ly
az ard
ic ted
Ġcontr aind
Ġstrength ening
pro tein
ĠB IS
ĠIn jury
Ġ12 9
Ġpolymorph ism
C ost
Ġs ole
ibr ill
orte zomib
Ġlev odopa
Ġpow der
l oss
inf ection
m as
ĠÂ ©
ĠNe on
ĠR an
Ġin tim
Ġde br
Ġschool children
clus ively
Ġseason al
enh anced
Ġ: <
Ġmod ifications
ĠSt atus
iqu et
Ġstim ulated
Ġutil ized
Ġfavor ing
ĠTK A
Ġim m
Ġexamin es
cri pt
Ġquin tile
Ġcom mittee
Ġconsum ing
Ġbin ding
Ġta ught
h yp
Ġrif amp
e mp
s mokers
ĠL ittle
ĠCent ral
Ġsumm ar
ĠÏ ĩ
an gl
Ġhyper tonic
Ġdrop out
Ġeti ology
Ġsel ect
Ġ14 8
Ġgl ass
Ġsoci odemographic
S P
op edic
Ġoint ment
tiv iral
PS S
Ġ19 89
Ġopin ion
ĠOUTCO MES
aparo tomy
ro zen
Ġlymph ocyte
Ġsurvey ed
ĠBr az
ĠThir teen
Ġp iper
ter ing
Ġl iraglutide
ore al
Ġprop ionate
Ġcreat ed
o uts
Ġsens ation
ĠMA P
opro fen
ĠSystem atic
ĠCr iter
t ri
ĠT V
Ġde generative
yl ate
Ġste ady
Ġd apagliflozin
Ġ13 6
Ġcol le
Ġquanti fied
Ġa ripiprazole
ĠD ef
xim e
Ġaid s
Ġg abapentin
ĠPri or
ĠI MT
Ġsub acute
op ause
Ġve ter
Ġ13 7
c iximab
on t
kin ase
Ġwilling ness
b earing
ar com
Ġintervention al
Ġep idermal
Ġhypercholesterole mia
ĠL ower
Ġapp ly
ĠMater nal
Ġdisp ens
tigm ine
an n
Ġl ing
Ġgl i
Ġcost ly
ĠStatistic ally
t ations
t osis
as hes
Ġsc al
Ġple ural
b erg
Ġt onsillectomy
id s
Ġread iness
Ġcoordin ation
Ġag ing
Ġsl ing
umm y
ĠC ity
Ġsub optimal
Ġure teral
Ġmouth rin
ĠNur ses
b undle
Ġn ation
Ġim mob
Ġpat ellar
Ġis oniazid
tim es
Ġform ulations
ĠHB eAg
weet ened
Ġnin ety
Ġt ted
all ow
med icine
osin ophil
fr actionated
v age
ĠMy ocardial
N I
ec k
ĠG reat
ĠUn it
f ed
ĠD P
iaz ide
Ġov ary
idel ity
Ġle p
Ġmul tis
respon s
ĠF ib
Ġse velamer
ĠCI s
eti tive
Ġrevers ible
Ġtit anium
ĠRec om
f oot
cur s
Ġmicrom ol
f lex
Ġl is
Ġemo tion
Ġisol ates
orp oreal
ĠNet work
Ġt ear
Ġ15 00
Ġt ic
phyl actic
Ġcaus ing
Ġhormon es
otoxic ity
ĠD R
ĠF A
st ream
ritis h
Ġcompet ence
omon as
Ġgroup e
Ġco vered
me terol
Impro ving
re ceptor
Ġp up
ĠD D
04 6
LA BE
Ġplasmin ogen
T H
t act
Ġmod ulation
yn in
Ġher bal
Ġantagon ists
eter min
Ġd an
Ġf rontal
Ġto urn
Ġun affected
ures is
ĠUN LABE
ĠUNLABE LLED
h at
Ġr Ã©
ĠR ef
Ġsc he
yr imeth
Ġrepeti tive
un saturated
but ynin
yrimeth amine
Ġ umbilical
tr uct
Ġoc clusal
Ġpath ogenesis
ĠI ts
ver tebral
Ġinter personal
Ġal anine
r acheal
aphyl ococcus
Ġef avirenz
B e
Ġp pm
04 8
Ġz ero
ĠItal y
act ure
Ġun adjusted
Ġk ept
Ġcal orie
ĠCa ucas
Ġec zema
Ġpow ered
ĠLIMITATION S
us ers
ĠR OC
arb onate
Ġhemodynamic s
ĠP B
ĠF ound
Ġcal ories
zin ess
es teem
iz ziness
ĠD ist
ĠW ell
Ġrev ision
Ġassum ed
Ġinfl iximab
M C
Ġexh aus
ol itis
Ġsub t
ĠK now
04 7
Ġfav ored
Ġhighl ight
Ġaggreg ation
op re
ĠO xy
ox one
Ġphysical ly
orb able
m ail
Ġbronch odil
Ġnore pinephrine
Ġosteop orotic
E E
week s
AI DS
Ġqu e
pl ained
ĠCom paring
Ġmulti f
isod e
In flu
Ġirr igation
Ġp ortion
03 6
Ġp ts
ĠP W
Ġscan ning
ĠKeny a
Ġp it
ch ar
Ġox idation
Ġglut amine
Ġen zy
Ġequival ence
ent ation
or onary
up uncture
ĠD ose
ĠPD T
toc opherol
en afil
th y
ĠA Z
Ġbr ushing
Ġbac te
= -
pro BNP
ĠCriter ia
Ġpar tic
Ġar tesunate
ma ximal
Ġsequ el
ĠTai wan
â ī
ĠBal ance
Hu EPO
ĠM em
ĠG astro
d efined
Ġac tively
Ph ase
Ġunivers al
ir ub
Ġdil atation
Ġdescri ptive
al a
Ġorgan isms
Com parative
Ġaug mented
Ġincons istent
os ition
ĠI PC
ĠM C
Ġ15 3
Ġpart ly
but amol
b id
b ow
Ġwe ighted
ri x
Ġsuc tion
02 9
Ġmarg inally
ĠCompl ications
M ul
Ġ #
Ġcho ices
os ures
Ġ12 00
Ġind ependence
ĠK ey
ob ser
Ġaut o
Ġdocu mentation
Ġunderst ood
Ġascer tain
f ord
on ol
Ġser ocon
Ġintr anasal
Ġprotein s
ĠTher apeutic
Ġtransfer red
Ġtr ack
Ġexp ansion
Ġemp ty
ĠRS V
Ġretrie ved
ĠAdv anced
D RS
L ow
it ations
ul ose
ip t
bo und
Ġ14 9
and in
Ġun protected
isin in
) %
ĠP rom
ĠA re
isc arri
Ã ¼
Ġaden oma
on uclear
us p
ĠFound ation
ĠV R
RA DE
Ġalle le
W e
I R
ĠBraz il
v olume
Ġrare ly
ide ment
ĠAdoles cents
Ġcool ing
af er
Ġlep tin
c lin
Ġp embrolizumab
Ġre uptake
le mentation
Ġ14 2
Ġca esarean
Ġrop ivacaine
p ressure
ĠB ar
Ġprost hetic
xi ous
Ġmob il
Ġcat ech
na Ã¯ve
ĠEmerg ency
ĠD O
tes ts
y tic
iazep am
Ġfa ecal
Ġch loroquine
ĠL ocal
Ġyouth s
Ġaz athioprine
an o
Ġm ir
ĠN NT
Ġcondom s
ĠR ed
Ġca ution
Ġfoll icle
affec tive
Ġsn ack
Ġquantif y
on tal
ic les
Ġadop ted
Ġe ase
ul lip
Ġun nec
Ġinflu encing
Ġascer tained
Ġaddi tive
H igh
ĠB ritish
row th
flu orouracil
ild agliptin
Ġquanti ty
Ġgranul ocyte
F D
Ġd ab
Ġb rom
Ġ14 1
ĠSc ot
Ġher pes
Ġend ovascular
Ġimpair ments
Ġpul p
Ġunex pected
ĠE mp
ĠSt aphylococcus
Ġr ich
00 03
Ġur ic
Ġrepresent ed
Ġcommerc ial
Ġp ent
ĠOste oarthritis
v aginal
Ġconf er
is etron
ĠDem entia
ES S
tin ent
Ġkil ogram
Ġt rough
ĠM ood
Ġther mal
Ġmetast asis
Ġsitu ation
en n
ĠLe vels
Ġgast rectomy
Ġd in
ĠPl us
Ġmicrob i
fact ant
S hort
Ġapp lying
Ġj oints
Ġmar ket
Ġtem ozolomide
it ol
Ġper it
ĠE valu
ĠEn h
oscop e
ol it
Ġ15 2
Ġeng aged
ig atran
ĠN G
enef it
Ġvo ice
Ġvoid ing
Ġis okinetic
Ġ22 0
Ġthrombo lysis
mas ked
Ġex enatide
ip ras
Ġpr one
ĠInd ependent
Ġcontrib utes
ĠGER D
Ġpre gabalin
Ġunex plained
Ġcav ity
Ġinf used
Ġcarri ers
ĠÂµ g
ipras idone
Ġe osinophil
ĠN C
ew hat
Ġrin se
Ġtransf used
ish ing
Ġfib romyalgia
arter ial
re tin
ac es
Ġ75 0
n itus
ĠEffec tive
s ensitive
ĠI r
ĠWh at
Ġcle an
Ġaccum ulation
cophen olate
Ġ il
Ġass ays
ĠE I
Ġob taining
Ġrot ator
ĠT ra
Ġ16 8
in ated
Ġre active
Ġth ous
ĠN ever
Ġout patients
Ġâ Ī
list at
Ġelectro my
ophy lline
Ġst ap
te ad
ĠV I
azep am
Ġhistor ical
Ġd izziness
Ġextr apyramidal
Ġmarg ins
Ġretin al
ĠQALY s
Ġpsych opathology
p rom
ĠL P
Ġulcer ative
Ġl ax
op razole
Ġcaus al
ĠCo hen
pre tation
Ġstep wise
Ġan tiviral
ign ment
ĠOut patient
VA NCE
random ized
p aste
Ġever olimus
Ġglycos ylated
Ġc yst
Ġm iscarri
ĠM ob
Ġch ose
Ġendot racheal
Ġerythrocy te
tiv ated
03 8
ĠM U
Ġres ten
ĠH aem
ĠG e
Ġwid th
Ġtourn iquet
re m
on ectin
ĠP ot
ĠR eli
ill es
Ġm ifepristone
as hing
ĠL a
Ġ14 3
Ġhypogly cemic
Ġsom ewhat
ed ge
ĠF ram
Ġnon pharmac
art hel
Ġder mat
ĠPR E
ococc i
Ġrelie ving
Ġins tead
Ġ17 5
Ġhaem odialysis
Ġke ep
Ġin active
oxic ity
Ġprolifer ation
t arget
Ġsp rint
Ġemph asis
om ia
Ġwe aring
b ed
ĠT ri
ĠB ID
car bohydrate
Ġpolymer ase
Ġappro val
Ġext end
rose mide
Ġlis pro
gest rel
arox aban
% /
Ġevalu ates
Ġrem od
cit onin
ron t
Ġc lindamycin
Ġmul tin
Ġ17 0
Ġphen omen
Ġdon ors
tegr ated
Ġm ent
Ġn a
ĠEE G
Ġintoler ance
G B
Ġst ents
ĠC osts
ĠMod erate
fact orial
H IV
ĠS V
ĠS mokers
requ ent
Ġvar nish
Ġb uc
Ġgr ading
ie tic
Ġchi ropractic
Ġsen se
Ġleuk ocyte
R N
l um
Ġl unch
Ġsequel ae
e ts
Ġth al
ĠR D
Ġanim als
Ġst aining
DS S
ori ented
Ġallow ing
Ġs ati
Ġg ame
em erg
Ġlimb s
Ġpar athyroid
Ġab ciximab
Ġwhe e
w orm
Ġl ect
ĠG ram
Ġpsych iat
we ighted
Ġend arterectomy
Ġrespon ding
Ġsurgical ly
Ġpoly unsaturated
ĠSe venteen
Ġaud i
Ġsynt hetic
Ġencoun tered
Ġepit helial
Ġ15 1
Ġhist ologically
ti se
Ġhip pocamp
zy g
Ġbronch itis
sol ving
Ġ13 9
Ġse alant
Influ ence
s ur
as vir
ur itus
Ġhem ostasis
Ġsal vage
Ġmedic ines
ocal oric
Ġsci atic
ĠNever theless
ĠB V
Ġintr ap
ced ural
Ġcluster ing
Ġneutrop enic
Ġsurrog ate
Ġwork er
ĠYo ung
Ġhypers ensitivity
ĠAK I
Ġstocking s
Ġint ub
Ġacute ly
Ġswit ching
Ġdescri ption
sul f
Ġexpect ancy
Ġnumer ical
cl avulan
Ġoxy butynin
Ġlos artan
Ġsche me
Ġless er
ov udine
fir med
Ġcep hal
Ġoxal iplatin
Ġha ir
less ness
br id
ĠB arthel
ĠIn tention
Ġ15 6
Ġop ening
Ġorgan izations
Ġcoll oid
Ġartem ether
ĠT AP
ĠO ff
Ġrespons ive
Ġide al
Ġbic arbonate
Ġy rs
R isk
il t
ĠL ifestyle
en se
Ġprob iotics
Ġprop ensity
aper itoneal
Ġ15 4
Ġo roph
av id
Ġsign al
Ġchallen ging
ĠPU FA
Ġresten osis
t rend
on avir
Ġp our
ĠL es
Ġhous ing
Ġunnec essary
Ġc italopram
Ġapp rec
Ġins urance
ĠHe ad
ĠD AT
ple mented
to red
Ġsymp athetic
Ġc ast
gen ase
ĠPregn ancy
u vastatin
ised ronate
Ġatt ain
th ood
Ġmor bid
Ġlute in
ĠT ask
Ġdiff use
Ġteach er
o zyg
ĠT XA
Ġcar pal
Ġcross ed
Ġinterpre ted
g ow
ĠU A
azep ine
ag netic
03 7
AR Y
OM A
Ġrevers al
Ġprec ision
Ġb ran
ĠP reliminary
15 0
Ġconven ience
thir d
ĠT anz
Ġsusp ension
ĠProt ocol
at ching
or iz
ĠJ o
Ġstep ped
ĠAC DF
ĠBehavi or
di b
Ġread ers
Ġtheore tical
3 00
re str
lin ked
Ġtop ics
adox ine
ter odine
us tr
gr ad
ĠCE A
ĠNeu rop
ig litazone
P ost
as gow
Ġex clusively
ple tion
Ġ13 8
Ġbr ush
os omal
ĠS CI
tid ine
Ġspec ified
Ġlat ency
ĠD L
end ers
ib en
Ġrel atives
hol inergic
Ġangi ographic
Ġadip osity
he t
Ġp ad
um ed
Ġbu ild
Ġb ortezomib
se ls
aryn x
Ġten ofovir
i as
ĠS W
ĠF T
cal citonin
flu x
Ġadhes ive
ĠP LA
Ġproced ural
Ġdefin itions
Ġhydr ation
T erm
re test
pos ition
ĠInf ection
ĠNin eteen
Ġd iazepam
ic an
Ġst yle
Ġfl are
ĠD T
nes ota
Ġcrystal loid
Ġran itidine
res ted
Ġcan al
ĠMan ual
Ġorth opedic
ĠA bo
Ġdi uretic
Ġdri ving
Ġad ver
Ġ35 0
ĠDi rect
ĠInstit utes
yc lovir
in otecan
Ġde le
Ġconfir ms
ĠMin nesota
Ġradio frequency
Ġn ullip
top ril
ĠReport ing
ĠImpl ant
Ġd ul
cl amide
Ġc rest
Ġsal butamol
Ġemp agliflozin
Ġax is
Ġpolic ies
Ġd uct
Ġlead ers
iben clamide
Ġp are
Ġfor med
Ġmechan ically
al ur
Ġconfirm ation
% âĢĵ
i acin
ĠP N
Ġclar ify
Ġunfav orable
Ġveter ans
im ents
Ġwork load
Ġaw are
im p
Ġnon responders
Ġwor st
Ġgenot ypes
Ġn ame
Ġequip ment
g ent
ure tics
ĠGl asgow
Ġver te
Ġprec ise
ĠUl tr
Ġp iv
Ġb iliary
ol s
Ġex clusive
ĠD er
ĠN ov
Ġro botic
Ġd up
am n
Ġres tored
Ġund et
04 9
os orb
ĠS atisfaction
Ġpneum ococcal
Ġpiper acillin
Ġadv ised
Ġbr ace
Ġapplic able
onor gestrel
d ri
ĠM G
Ġit self
ĠK T
as ibility
ĠN ep
Ġsur factant
Ġte lev
Ġor d
Ġtr ach
Ġse min
ĠG yn
Ġhyper trophy
Ġchar ges
ĠP V
Ġve ins
Ġpharmac odynamic
iod arone
ĠPe ak
Ġsplin t
Ġ16 5
Ġinduc es
op rim
Ġpr int
ĠPh arm
Ġorth opaedic
Ġansw er
ĠGreat er
act one
Ġrec re
cl ass
Ġretin ol
Ġd ram
op ical
Ġmon of
Ġinjec table
Ġfu rosemide
eno ic
v ised
or age
ĠD ie
Ġintra ocular
Ġth igh
ĠOR S
Ġbo oster
Ġisol ation
ogenic ity
os an
Ġaer osol
ĠCV C
Ġplan ing
Ġhour ly
Ġst arch
Ġhom eless
ĠSp ain
Ġalbumin uria
ĠKnow ledge
y t
Ġd ich
Ġt ears
Ġl aparotomy
ID E
Ġs irolimus
Ġam iodarone
ĠFD G
Ġimmunosupp ression
Ġ16 2
Ġmulti factorial
rolog ical
ier arch
ĠPATIE NT
Ġactual ly
B F
Ġnon diabetic
Ġ15 9
vir apine
bl ockers
Ġaudit ory
Ġrece ipt
ĠDec reas
Ph ys
dib ular
o rom
se min
am el
Ġconstr uct
ades h
a uc
Ġen able
Ġel uc
Ġstom ach
Ġdebr idement
ĠTh rough
Ġcons ists
03 4
Ġbl ockers
seud omonas
Ġf et
Ġtim ed
Ġ15 5
Ġexp osures
03 2
ĠOr th
Ġarrhyth mias
ĠGuid elines
Ġt etr
ĠI GT
Ġsom atic
Ġdetail s
Ġempty ing
os bu
Ġpro ve
Ġde generation
ĠF VC
ĠRec ently
osbu vir
par ametric
Ġd ust
Ġf illed
Ġsix th
ig r
ĠR V
Ġspec imen
u terol
Ġover come
Ġspe ech
Ġe mission
Ġcol i
Ġradi ography
ins ic
ĠRec ru
Ġmess aging
Ġepidem iologic
Ġdia gram
ĠC ervical
ep it
Ġun selected
Ġdeclin es
Ġ15 7
Ġce ment
ĠNY HA
ĠT F
Ġcon ting
ph thal
fl urane
Ġimmunosupp ressive
Ġh o
Ġus er
ĠF atigue
ep isode
de red
Ġpromot ed
Ġautom atic
aud ication
Ġvulner able
Y ear
Ġun planned
Ġconstruc ted
ĠB el
Ġne ts
Ġexc it
phosph ate
Ġpr uritus
ĠRESUL T
ame th
CA M
gl ut
ĠSS I
Ġadip onectin
sul osin
Ġf rozen
Ġrel ating
Ġchan nel
Ġ19 87
Ġswit ch
c r
ens es
ĠAt t
ĠDec ision
oxif ene
Ġalb uterol
Ġcrow ns
tigr aphy
Ġqu ar
Ġdes ire
Ġadverse ly
Ġinvol ves
Ġsl ope
ĠSupple mentation
P er
ur a
Ġcontrib uting
rex ed
Ġgam ma
Ġassess ments
Ġdys kinesia
ĠDis order
es ts
Ġl ines
Ġdel ta
Ġven lafaxine
Ġinnov ative
ip enem
03 3
Ġrefl ecting
ĠLatin o
Ġus es
Ġend oscop
Ġpep tic
irub in
is p
ĠP K
ĠR F
ĠE astern
ĠAn gi
ee ism
burg h
n em
ac ental
ĠE N
ĠG ly
opo ietic
Ġurg ency
tri ax
Ġr al
Ġsurv ived
Ġmen ing
Ġindex es
Ġsut ures
Ġenrol ment
ch y
fe til
Ġhum id
ver y
ĠAmeric a
Ġview ing
ĠAch illes
Ġmod es
Ġhyp oth
Ġ22 5
Ġfem ur
re fr
Ġn om
Ġrandom ization
Ġ19 88
Ġmo ist
Ġproduc ing
olit an
g am
Ġdef ect
B s
Ġan s
Ġinter s
ĠIn clusion
pp ing
ĠU F
yl ch
Ġir inotecan
iver y
Ġesc italopram
d es
Ġmin i
rop olitan
Ġprincip le
junc tivitis
a enoic
ĠD uration
gl ucose
ĠCheck list
l ome
n ity
Ġcomp ounds
qu it
ĠE A
Ġ16 1
reed om
Ġglo bulin
asc ial
iz er
ĠG L
Ġsugges tions
Ġbirth weight
Ġtri age
Ġpropri o
Ġcomp an
Ġat tained
AS T
03 1
ĠJ ournal
is iotomy
Ġexp ulsion
ĠDen mark
Ġm ite
ĠS k
Ġover night
03 9
ĠDe ath
A r
D R
it um
Ġcon tinence
ild enafil
Ġ14 6
b urn
Ġl avage
Ġv ildagliptin
ĠIncreas ing
triax one
ul opathy
Ġvis iting
Ġsen ior
Ġabut ments
Ġfulf illed
Ġanticip ated
Ġf inger
ĠB F
pro ven
Ġnit rous
Ġfund ing
ĠSTE MI
d imer
Ġp ocket
Ġfo am
behavi oural
Ġat ed
Ġpre eclampsia
Ġol ive
ĠIU I
oc he
Ġchild birth
rib ution
Ġnort riptyline
04 4
en zyme
Ġse ek
Ġpac ing
ĠSpec ific
Ġsubstit ution
reduc tion
emerg ent
refr actory
th rough
Ġder iv
ir able
ob l
Ġdu odenal
Ġarri val
l odipine
ar ach
ĠT BI
Ġr ing
ĠR ol
ĠR inger
ĠD HE
ĠRec overy
lome thasone
Ġ encephal
on a
Ġd ac
as er
ve c
id ovudine
ges ic
Ġchar ts
d et
Ġf ocal
Ġres erve
Ġ14 7
ĠF V
sel ing
Ġprevent able
Ġsal meterol
Ġeth inyl
Ġavoid ed
Ġoffer ing
ĠQ T
ager y
c ious
Ġo cular
ro st
Ġins ignificant
Ġbelie ve
er ost
al king
ĠD anish
Ġill ustr
Ġadap tive
Ġwors ened
Ġves sels
Ġdiscrimin ation
ro tic
ine l
ĠItal ian
amip ril
g d
Ġb us
co tic
Ġreason able
the ma
Tr ans
h undred
op oside
our ished
Ġintegr ation
itone um
Ġe rectile
ul as
Ġimp acts
Ġcy tom
ĠSS RI
Ġip s
O ut
Ġac yclovir
Ġph obia
ĠRE LE
ĠPsych iatric
es tradiol
Ġsub maximal
Ġhypothes es
ĠV C
Ġcont ain
ste p
inc rist
Ġperit onitis
o affective
Ġg all
Ġdram atic
Ġmen opause
Ġrequ ested
Ġ21 0
Ġem esis
HS S
Ġa rom
Ġben ch
Ġster ile
4 00
s upported
Ġsupplement ary
Ġanastom otic
incrist ine
Ġwe aning
ir ubicin
ore g
esthes i
ĠRELE VANCE
of r
Ġoptim ize
Ġdex tro
C ognitive
Ġre ality
ve in
Ġview ed
Ch an
ĠAbo ut
in k
Ġor ders
ĠG u
Ġemerg ence
Ġbronchi olitis
i i
og astric
Ġran ges
Ġgr adi
Ġul tim
Ġure thral
ĠStr uct
Ġep irubicin
ĠPl an
f ecoxib
am ed
em et
Ġro fecoxib
ĠIC SI
Ġantic holinergic
Ġbed time
ĠCons ider
ĠLong itudinal
in iti
if id
til age
Ġdab igatran
ĠA BC
od ia
Ġdi uretics
Ġopportun ities
Ġtelev ision
O ral
c ol
ar abine
out ine
Ġcere al
ĠPC a
ocon junctivitis
Ġcolle ag
P ET
Ġr ip
Ġ2 05
Ġdi hydro
Ġfl uct
Ġwarr ant
Ġrepl aced
emet rexed
ĠR andomised
con tact
or a
ĠT oler
Ġn av
ac char
Ġper t
tis m
Ġgl ibenclamide
Ġbacte remia
R L
b ic
reat inine
Ġana erobic
ĠE PA
mp an
ĠSt rept
Ġpsych ometric
yr ight
arb ose
ĠApp end
Ġtender ness
P ati
v a
th reat
Ġtr aine
Ġ19 80
Ġter tile
Ġflu o
Ġphosph atase
c ity
n orm
ĠI PV
we red
tom ies
cor rected
ecu le
Ġam lodipine
Ġap o
Ġacc ordance
overn ment
Ġmicrobi ota
ĠSc i
Ġmild ly
Ġadjust ments
Ġneuro cognitive
ĠPT CA
ovir us
c ending
ic tim
ĠCA M
Ġreve al
cur onium
Ġop iate
acet ylcysteine
ĠMon itoring
ĠUs ual
Ġal er
effec t
Ġrestric tive
Ġfiss ure
us tained
Ġmultiv itamin
Com bin
ĠCol orectal
Ġs ore
c ancer
ĠE M
Ġconsent ed
Ġbio avail
Ġappro ached
PO RT
Ġextens or
ĠL y
ĠCHO P
ĠCoun ty
Ġcareful ly
block er
ĠO M
ist os
Ġsp read
rol ide
ĠNeon atal
I m
Ġf riend
Ġres ected
Ġun fractionated
ĠICU s
ĠPsych ological
us ing
ĠI F
Ġor listat
duc ing
Ġradi us
Ġgyn aec
ĠTT P
Ġdent ures
aten ess
Ġprote ase
S afety
it ating
Ġh oriz
gen ital
as ts
ter ase
Ġg round
ig er
ĠA OR
12 0
ĠCal c
Ġspirom etry
Ġalk aline
ĠCaucas ian
D P
il st
Ġinv itation
CA B
aw s
ĠT CC
ĠO D
Ġschiz oaffective
Ġamp utation
Ġpap ers
y cl
Ġnebul ized
Ġn iacin
ĠW est
Ġtooth paste
ĠCop yright
threat ening
Ġo ocyte
ĠA MS
ĠM otor
D e
ĠA mb
ens ory
Ġal ert
Ġlev onorgestrel
6 00
ĠL iver
Ġmom ent
Ġinv as
me as
Ġz iprasidone
ĠProgram me
Ġinfer tile
Ġmorph ology
Ġbronchi ectasis
ĠObser v
Ġcolleag ues
Ġb ath
Ġde fer
RO M
Ġbl ast
Ġdom inant
Ġleg s
ot ing
pl ase
Ġretrie val
Ġp ig
ic ate
Ġh CG
ĠF C
Ġsingle ton
Ġadoles cence
Ġz idovudine
ĠSch iz
isin opril
Ġtin nitus
u fact
w ith
ĠH ip
Ġgreat ly
Ġhy alur
tit ude
ĠTanz ania
d ummy
Ġcomp osed
bo ok
Ġbi ochem
Ġconflic ting
y e
Ġob vious
uit ary
ĠCS F
Ġow ing
Ġcalcit riol
erost omia
Ġt ail
Ġw estern
Ġdis abling
ult y
Ġcomple ment
Ġ16 4
Ġhelp ing
Ġinges ted
Ġexplan ation
Ġc ues
valu e
Ġpass age
Ġapparent ly
Ġp mol
ar p
Ġh is
ograph s
ĠPer iod
agon ist
d own
ĠC ase
Ġpro thrombin
Ġstandard ized
Ġinstru mental
F E
c oll
Ġn ad
ad a
ĠUn ivers
ĠSub jective
Ġery thema
iclo vir
ac cept
Ġdec iliter
Ġsl ower
ĠTD F
A NCE
Ġf ig
ul thood
Ġv ast
Ġmultin ational
i us
ĠC AS
Ġpar ity
Ġhyper plasia
ĠImp ort
Ġcollabor ation
H DL
b leeding
ĠT ac
ol idation
Ġmy of
imeth oprim
ĠP seudomonas
ĠN eck
amiv ir
ĠFO BT
Ġt aste
Ġpsych omotor
Ġpharmac ies
tr onic
em ed
ĠS ample
Ġtr action
ĠG le
Ġspec tro
12 6
Ġer os
ĠG RADE
ĠRes istance
ĠCent ers
G roup
Ġhospital isation
Ġprob e
Ġbi ases
ĠMod ified
er cept
om at
Ġun trained
Ġte en
ĠDep ressive
ĠDiab etic
Ġorth oses
epit helial
ĠV ir
Ġsp ort
Ġmet oprolol
Ġrelap sing
ĠPhys ician
angl adesh
Ġth rice
ĠS mall
Ġex it
ĠH H
pec tomy
ĠWh ite
Ġhemorrh agic
onol actone
th r
yl es
ĠPro b
Ġ17 4
Ġmanip ulative
Ġbil irubin
Ġclamp ing
Ġriv aroxaban
Ġdich otom
auc oma
f ield
ĠB angladesh
Ġrec over
Ġdecision al
Ġfl at
Ġcap illary
Ġacco unting
Ġdel ays
co un
Ġvaccin es
Ġcharacter ize
Ġcap topril
ĠRI PC
oprot ective
ĠM O
tig ma
Ġcalc ul
Ġacc ident
te plase
Ġnons urgical
Do uble
ĠM others
ypro gesterone
Ġp ure
Ġb ile
Ġvag in
Ġbet amethasone
Ġgynec ologic
Ġpre hospital
Ġch air
ĠV T
C HO
r one
Ġd f
Ġper m
Ġch or
ĠO T
az iqu
ĠQ LQ
Ġdys menorrhea
Ġspecial ized
Ġunde restimated
he umatic
tr in
Ġprog est
Ġmo tility
ros ine
Ġtemp orary
Ġrecor dings
ĠHal f
ant rine
ĠSc ores
ĠT HE
Ġcircum st
c g
Ġat tr
ĠQ ue
04 2
cardi ac
Ġfist ula
I U
Ġs aph
ĠM PA
arr hyth
Ġamb ulation
Ġenzy mes
p in
ĠE US
Ġne virapine
Ġtele medicine
ĠGle ason
re vir
ĠP ath
Ġex isted
Ġz ol
ĠCH X
Ġdysp noea
Ġt ip
Ġb all
Ġconj ug
aziqu antel
Ġassess ors
04 3
Ġet oposide
ĠInvestig ators
Ġhyster oscopy
Ġdi oxide
Ġexper iments
Ġdet ox
Ġlim iting
ĠRecom m
Ġn ights
AC TI
ĠSp inal
Ġrepeti tions
Ġimp acted
ism us
In tra
Ġdistric ts
Ġheterogene ous
Ġg m
ur ning
Ġcal f
Ġpath ophys
Ġplate lets
Ġmax illa
Ġatheroscler otic
ĠR C
ĠF asting
Ġpar ts
Ġno vo
Ġsugges tive
Ġaltern ating
ĠAp gar
Ġelic ited
s pe
Ġan ore
ĠD oc
ĠF L
eti ti
Ġn m
Ġdi ver
Ġnumer ous
Ġson ography
termin al
Ġv in
op enia
lim iting
ĠIniti ative
Ass ess
random ised
Ġcl audication
ĠPro ble
Ġcef triaxone
Ġanat omic
Ġ âĢĲ
Ġv incristine
Ġtermin al
Ġros iglitazone
Ġleaf let
Ġr ig
Ġad ulthood
Ġtr acking
ath ione
Ġendot helium
ogly c
Ġprogressive ly
Ġtol terodine
Ġh op
Ġv ictim
ant adine
AC HE
Ġspecial ists
ĠSw it
Ġrip ening
ĠSchiz ophren
C an
h aps
n T
Ġcar tilage
Ġ17 7
Ġpublic ations
ut amide
Ġbe ats
Ġpower ful
iod ine
Ġescal ation
ibrill ator
ĠAppend ix
t os
Ġg ap
Ġdis semin
Ġlear ned
Ġped ometer
d osterone
Ġs afer
Ġhe avi
yn am
Ġgonad otroph
Ġintr ace
pro f
ĠCollabor ative
Ġerg ometer
Ġbuc cal
Ġinter disciplinary
Ġbec lomethasone
Ġmat rix
Ġging er
Ġadministr ative
Ġmouthrin se
Ġmiscarri age
p yrimethamine
ĠS a
ot ting
Ġ15 8
ĠServ ices
Ġcommerc ially
C o
Ġl umb
Ġcon temp
ch ain
Ġ19 85
mit ting
up us
00 04
val ent
Ġevery day
Ġantioxid ants
tum or
ĠFem ale
ĠMin im
Ġlat ent
Ġips ilateral
Ġr isedronate
L H
r d
ul itis
Ġme ter
ib an
gn ostic
Ġill icit
atur ity
Ġsoci etal
Ġnod al
Ġmultif ocal
Ġin put
ĠEv ents
op ositive
ĠD ue
ex per
Ġ23 0
Ġutil izing
ĠSex ual
o king
an ds
is tics
el igible
aw are
he res
ĠTo xic
ĠII b
Ġarter i
Ġret ard
Ġrefl ects
ĠCons ecutive
Ġopp os
adminis tration
Ġhabit ual
Ġcos metic
Ġre operation
ĠM ild
Ġneu ros
arcom a
Ġdi etiti
Ġcalc ulation
Ġseg mental
hydroxy vitamin
Ġoverdent ures
Ġchron ically
ĠC Q
ĠN RS
ili ac
Ġide ation
ĠPeri operative
% ]
o ice
ĠR adiation
ĠL arge
ef antrine
Ġpoly s
ĠAD T
bohydr ates
Ġanat omical
Ġtrans it
ord ant
Ġinduc ing
Ġtra ject
ĠâĪ ¼
restr icted
in jury
Ġr ules
ĠC SA
min th
Ġ16 7
ust ine
Ġvolunte er
ĠBl ack
dri ven
M aster
ĠI HD
Ġel bow
Ġgastro esophageal
Ġnorm s
A N
us or
Ġim agery
ĠIn t
Ġsw allow
Ġspontaneous ly
Ġabut ment
E p
Q oL
Ġres tr
ĠB PD
ĠCare g
Ġview s
ĠDAT A
V O
Ġpos itions
Ġelec tric
Ġspecial ty
Ġmol ecule
Ġeluc i
Ġfig ures
U s
Ġcon v
ad ian
Ġros uvastatin
Ġl am
ĠL ess
ĠCon ventional
ĠDif ferent
ĠAdj usted
Ġharm ful
P l
ĠP RI
ĠV ol
Ġprot on
compl iance
Ġii i
Ġlute al
Ġfet us
Ġl ac
Ġmod ule
Ġman ufact
vent h
Ġserocon version
Ġ }
ro tein
ĠP at
ĠB G
ĠCom mon
hol m
Ġeth anol
Ġtam sulosin
Ġc oc
ĠH LA
ice al
Ġsm art
ĠA ir
ll ation
form ing
Ġsupp ly
Ġmic ronutrient
an ding
ĠP o
Ġcontinu es
Ġso uth
Ġcirc uit
i uria
us ive
Ġpl ane
Ġshort ened
inf ant
ĠInvestig ation
Ġisoflav ones
g ressive
Ġl ists
ĠH OMA
Ġsc r
Ġhy d
Ġsupp ressed
Ġexcit ability
S c
se eking
Ġdis par
Ġsupp ress
Ġcont amination
Ġfeel ings
ĠC entre
cop ically
CO VA
Ġz one
ump tions
Ġmil itary
ĠI ran
tr an
con firmed
Ġmo fetil
Ġ16 3
et ro
ud y
Ġcreat e
ĠPl aque
ĠIntra operative
ĠFram ing
ĠP PD
tr imester
Ġ19 0
Ġhome ostasis
ĠAP ACHE
Ġm RNA
ĠT MD
ĠM IC
qu es
Ġmulti level
Ġsuff er
ti tial
Ġre hydration
Ġde form
ĠO SA
Ġ17 9
Ġdetermin ant
Ġappropri ately
Ġremod eling
sep tic
Ġmet ropolitan
ĠPre valence
ĠEx pl
Ġprol actin
ĠFin l
Ġgrad ually
ĠP CS
ore sc
ĠSub st
Ġgly cer
sup plemented
Ġabdom in
s pr
u ous
Ġl ign
aff iliated
n oid
Ġint ell
pl us
Ġmy cophenolate
Ġ201 6
ĠMin d
ĠChe motherapy
Ġb lue
el uting
Ġpr in
ĠL G
Ġvis ible
Ġnerv osa
b aseline
Ġcon genital
ĠC ES
Ġfas c
ĠImpro ved
Ġvideot ape
ĠTele phone
Ġcar d
Ġexerc ised
Ġel astic
Ġtermin ated
Ġprostagl andin
het amine
arach noid
ch er
ist an
Ġab norm
ak ening
ĠAn d
Ġwe igh
ĠA OM
Ġle aving
Ġno ise
ĠL os
ĠMe th
Ġwork site
Ġlymph ocytes
Ġpup ils
Ġb ar
Ġ9 00
ĠK ong
Ġsuff iciently
Ġfavor ably
Ġendomet rium
Ġmicrob ial
Ġjus tif
Ġove restimated
Ġscal p
Ġsubt ypes
Ġundet ectable
en g
um a
ĠIn hib
Ġev olution
Ġ17 2
ĠSub group
v s
ĠS AP
Ġbe am
cop e
Ġsp ati
Ġproduc tivity
Ġdysph agia
Ġcatech ol
Ġim ipenem
Ġ45 0
Ġfer tility
ĠACT RN
ĠRet ro
ĠStrept ococcus
ĠB io
Ġcar bohydrates
Ġstim ulating
Ġregis ter
ĠSU I
Ġsulf onylurea
Ġdisapp eared
Ġtach ycardia
Ġn uts
Ġimp ression
Ġnormal ization
Ġsubst ances
ĠImp lementation
Ġadequ acy
Ġintegr ity
Ġimplic ated
ĠIll ness
oresc ence
ti um
ther apeutic
Ġmon o
Ġtr ich
ĠQ I
oss ible
Ġgluc agon
Ġspr ains
Ġrehospital ization
Ġsciatic a
ĠA V
ĠR ad
con tinence
Ġde emed
Ġcons cious
Ġbro ch
Ġextrac orporeal
Ġphysiotherap ist
clavulan ate
n on
ĠF ACT
med ian
Ġadd iction
ĠBi om
Ġfrail ty
F orm
z ine
Ġb read
ĠL oss
Ġcons olidation
Ġi odine
Ġ16 9
Ġgeneral iz
ĠFact or
Ġv on
Ġass umptions
Ġdis placement
exp ensive
Ġsusceptib le
Ġdiscrep ancies
ol izumab
ĠF OL
Ġpul sed
Ġabsent eeism
c ap
x ual
Ġr amipril
Ġl isinopril
Ġdep ot
Ġsec re
Ġdig oxin
Ġcategor ical
Ġimmuno hist
r ide
ag ent
Ġtub es
ad ig
Ġun aware
Ġins ec
Ġlith ium
ce l
el ec
ren ess
Ġis oflurane
ost at
ĠTh ail
orrh oea
IDE NCE
Ġ ic
Ġo sc
Ġobser vers
Ġlig ation
ĠFraming ham
R ec
Ġad herent
Ġdiab etics
VE L
Ġeng age
ĠMB CT
obser ver
ion ic
ĠOn ce
ĠPR ACTI
ĠTum or
Ġcircumst ances
Ġm cg
am azepine
ne u
yn chron
Ġacup ressure
he ad
os amine
ĠS kin
Ġmod ifying
Ġtrans vaginal
uk ast
ĠEV IDENCE
Ġkine tics
tel ukast
Ġencephal opathy
T A
ĠF it
Ġ20 2
Ġins ight
Ġelectro ly
ine mia
Ġover l
Ġepisod ic
Ġparas ite
T o
ef t
Ġ36 0
Ġincon clusive
v able
ĠU g
Ġp ol
Ġcomp ound
Ġen velop
Ġyo u
ĠTrans plant
Ġo phthal
Ġf illing
Ġl ap
Ġper ip
Ġmat ch
Ġfund ed
um eric
Ġmaln utrition
u ed
Ġ17 1
Ġnullip arous
Ġt aper
ĠH ong
Ġeduc ated
eti tion
tro gens
Ġbecom ing
al imumab
ac litaxel
02 0
ĠAc tivities
Ġclass ic
Ġadap tations
Ġassist ants
H z
ĠR outine
ĠB leeding
lo quine
Ġun accept
Ġ16 6
Ġvi ol
ĠState ment
bor hood
usp ension
s ocial
Ġf en
ic tor
Ġon es
ren one
Ġper haps
Ġx erostomia
Ġste re
Ġviv ax
ĠIR R
ĠStrateg ies
ifid obacter
s paring
Ġtr imethoprim
Ġrep lication
Ġcoll ect
Ġsex es
Ġgradi ent
d am
es tive
ĠB W
ĠG LP
ĠKore an
Ġexhaus tion
ig ong
ĠD PP
one ph
Ġche c
l iving
ĠS ystolic
ĠDel ta
Ġcruc ial
Ġwait list
he p
ĠH er
Ġobser ve
Ġbacter iological
ĠNor way
Ġsigmoid oscopy
T NF
Ġp ills
ĠD N
fe p
Ġsw im
ĠMD I
Ġextrem ities
ar ate
Ġr acial
ĠC ap
ĠC ere
ore l
bo ur
Ġty mpan
ic y
Ġin expensive
at ric
im od
Ġyear ly
ĠL ine
Ġro les
Ġvari ants
ĠPre vent
Ġmedi ast
As p
Ġsil ic
Ġk J
Ġspon dyl
Ġconven ient
Ġpam ph
D C
Ġg o
us itis
Ġat e
Ġpre medication
Ġ20 6
oid es
Ġrequ est
ĠCP T
GT T
s al
t ress
tion ed
per idine
Ġbenef ited
ĠMc Master
Ġperfor ation
Ġmyof ascial
S el
ĠP PT
ĠS OC
Ġinvol ve
chanter ic
Ġh unger
ov idone
athe cal
omy opathy
Ġgenot yp
Ġrepeti tion
etermin ed
t ase
Ġintens ified
Ġrecru it
Ġaltern atives
Ġhom ogene
ĠCons umption
Ġconcurrent ly
Ġsulph ate
ĠBur ch
ig ine
ocy tic
Ġtemp orom
Ġthrombo tic
Ġechocardi ographic
u ated
se ts
TI C
ging ival
Ġoes ophageal
ĠGe or
Ġl or
ĠL o
Ġassess or
min ent
Ġcor rec
Ġhy brid
Ġker at
c lo
mit ment
mol ol
Ġdrop s
ĠMon th
ĠFam ilies
H P
V AS
n ot
Ġcons ul
Ġrespon der
Ġ18 2
Ġbo ost
Ġanore xia
c ision
l osan
as ant
il ing
Ġ5 000
Ġsc in
ĠW ales
Ġgastro enter
Ġamy gd
ĠPE F
Ġdent ure
Ġs we
ĠT im
Ġpro calcitonin
com ponent
Ġfl ushes
Ġmemb er
Ġeth ical
ĠNor thern
Ġaff ord
T R
ĠS m
Ġex am
Ġ19 2
Ġep isiotomy
Ġdetr usor
m is
ĠP RP
ep oetin
Ġnutri ents
Ġhydroxy ethyl
Ġgroup ed
Ġassess able
Ġcontinu ity
vers us
Ġaw akening
Ġcaro ten
Ġpal sy
Ġalgorith ms
s artan
en riched
Ġp emetrexed
al one
ag o
of loxacin
25 0
Ġso uthern
Ġdetr imental
ĠKR AS
ĠScot l
s ts
Ġreg ener
ĠMA DRS
RA F
oag ulation
Ġbenzodiazep ine
Ġans wered
Ġa ort
Ġd al
ĠR M
oci ations
ĠL p
ox amine
Ġalong side
ĠImpro ve
fact or
Ġm os
Ġtr ab
ĠChar acter
D ose
on ding
Ġan esthe
Ġpl ain
ke y
ger ies
Ġtrans urethral
pir in
Ġs le
ent h
ig hed
Ġst ated
ĠC ell
se w
ĠW M
ĠMD A
opath ological
Ġorig inally
olip id
ĠE MS
otr igine
ĠRecru itment
ĠH ar
Ġprob abilities
ĠBM T
ĠHR s
Ġmethyl ation
Ġgam es
Ġs ildenafil
Ġwe ar
if ier
ĠPro cess
ĠPA D
Ġdisc ectomy
ĠAr tery
Ġconsequ ence
Ġreading s
Di etary
Ġspir onolactone
D NA
t ures
Ġs way
Ġth ick
ose relin
Ġref used
Ġcho ose
R Q
m olar
Ã Ń
Ġmon onuclear
Ġun iform
ĠAr ter
MW D
vis it
L R
ĠR EC
Ġmater nity
Ġoptim um
Ġac arbose
ins tit
ĠMedic aid
Ġword s
l asting
Ġr ice
Ġimplant ed
Ġcompli ant
Ġket oprofen
Ġisch aemia
ĠRan kin
Ġdul oxetine
s moking
Ġs ections
oc yst
Ġpr aziquantel
04 1
Ã ¥
it re
id a
ĠA MD
Ġpost discharge
Ġso reness
Ġmes al
Ġf reedom
Ġpl acental
adi ated
Ġbi weekly
Ġbis phosph
ĠBay es
ĠSchizophren ia
Ġpl ays
bo x
Ġrhin oconjunctivitis
Ġintr ad
Ġtend in
Ġnas oph
ylch oline
a ight
Ġs ound
an ercept
Ġb ox
ac tivated
ph i
Ġcan agliflozin
ish op
Ġlipoprotein s
ĠNeurop sych
Pati ent
ll ular
Ġim atinib
di astolic
astro zole
H odgkin
ĠP PV
Ġsur geries
phal an
Ġesophag us
Ġprin ted
Ġcompar ator
Ġ17 6
ĠPE P
Ġintrav ascular
Ġlow ers
Ġstr aight
Ġtub al
Ġp uncture
us try
et ts
ear man
Ġprior i
Ġenter ing
exp osed
ĠMex ican
Ġinvas ion
m ar
ren al
Ġman agers
Ġbab y
ĠPub lic
ĠPRACTI CE
i enced
ĠP oor
il ol
ved ilol
Ġen l
Ġcardi over
Ġsurv iving
Ġinvestig ational
Ġimmun ologic
emb olization
sc ores
Ġvar ic
Ġp seud
ĠA uth
Ġamong st
cess ation
Ġpoly phen
Ġtop ic
Ġhep at
ĠTe am
Ġori entation
Ġphenomen on
Ġadj ud
Ġmouth w
ĠMR SA
ĠGl ucose
ly ometric
Ġinter ven
ĠH Y
ĠReg ular
lim ited
ronutri ents
ĠAdoles cent
ĠGyn ec
Ġam ni
Ġpremature ly
Ġge ometric
u an
it Ã©
Ġf idelity
ĠC NS
ĠS NP
ĠG eriatric
Ġrisk y
ĠOR R
LI SA
Ġextens ively
Ġconver ted
R ep
U p
ing ly
Ġh all
te parin
Ġgr aph
Ġfr uct
Ġpsychoeduc ational
Ġmodif iable
ashing ton
Ġ ible
Ġb uff
Ġdoub ling
ĠR FA
Ġ19 84
ĠK idney
igaret te
bar ic
D N
ĠI UD
Ġwh y
Ġse venth
Ġins ti
Ġepid emic
arb epoetin
Ġscar ce
Ġg ross
ĠC N
ĠF U
ĠG DM
ĠAl tern
Ġdepend ency
Ġath le
j oy
Ġw edge
ĠT arget
Ġpar adig
yp ass
Ġen amel
rec tal
Ġwor th
ik acin
Ġbioavail ability
Ġan thr
ĠCon f
ogen etic
Ġfraction al
Ġamp icillin
s ensitivity
Ġt one
om n
Ġbi ologic
hem at
Ġcyt otoxic
Ġstabil ized
Ġhypers timulation
ĠMV PA
chy mal
b es
or in
Ġst ain
Ġwh ipl
ĠCon t
Ġtrans lation
ax agliptin
Ġreview s
Ġdescrib ing
ull ary
Ġaneurys ms
Ġquar tiles
Ġwhipl ash
ur ity
Ġpro active
ĠN ormal
ari os
Ġspec ially
Ġfl ora
Ġregard ed
Ġbacter iuria
Ġcle aning
Ġglut athione
aster ide
Ġto w
Ġh ierarch
lin a
ĠN utri
ach us
Ġnon operative
Ġdes ired
Ġwarr ants
Ġrevers ed
Ġcolpos uspension
Ġper ox
ĠV enous
Ġinte rested
Ex ercise
Ġin semination
ĠS timulation
ĠB owel
art um
Ġep ic
Ġimmun ological
Ġuns up
ĠNeu ro
ĠMem ory
achus etts
ol ateral
ĠTo b
Ġ18 5
Ġmic roscopy
Ġlymph aden
Ġcult ural
un ior
ĠD ental
ĠSp earman
ĠAdj uvant
ul se
Ġun blinded
Ġprospec tively
ĠMass achusetts
Ġb ari
Ġdec ades
Ġend ed
Ġ19 8
Ġwal ked
Ġbreak through
Ã¨ s
ĠCaro lina
Ġsati ety
Ġs tigma
Ġun w
ĠMc G
Ġpen etr
other mic
Ġposition ing
ib izumab
ob actam
Ġfibrin olysis
taz apine
ophil us
nit ol
Ġoes ophag
s weetened
Î ¼
Ġw ant
el lo
Ġev oked
iti lig
Ġ20 4
ĠAN COVA
Ġexhib it
Ġattenu ate
Ġscler otherapy
orr is
ĠPH Q
b re
v ariate
Ġat en
ĠF IT
Ġcl ub
ĠAc tion
ĠB ut
Ġgen erate
Ġvit ality
Ġmat tress
eg al
f ate
ri tic
ĠB up
ĠN iger
Ġ18 1
Ġgl aucoma
Ġconc ordance
icy lic
Ġaten olol
Ġran ibizumab
Ġover t
bin ding
Ġ32 0
Ġhelp ed
ĠComparison s
Ġfoll icles
ĠSte p
ĠPharm aceutical
ĠW ashington
Ġsub arachnoid
ĠInter nal
ĠCor rel
Ġdeterior ated
Ġa ce
Ġintens ities
ĠEx t
Ġstrength s
Ġkine matic
ĠObserv ational
c ing
u um
Ġl upus
ear ning
ĠE ff
Ġdys lipidemia
ĠOver weight
Ġdepend s
Ġattenu ation
Ġral oxifene
Ġth i
Ġmod ules
AS E
Ġ17 8
ĠPer cent
e j
Ġsens or
de hy
Ġaud io
yroid ism
Ġdispl ay
Ġmanifest ations
F V
O n
n am
ur t
Ġcarcin omas
M s
U P
Ġinf ormal
Ġintrac lass
ĠAntib iotic
Ġcol ectomy
Ġthrom bin
ĠInf ant
Ġincre ments
Ġaspec t
Ġgran isetron
ĠCoun seling
Ġc re
Ġan xious
ec e
ĠB ishop
Ġman ager
Ġes artan
Ġsof osbuvir
OP P
MW T
Ġjud ge
Ġdistingu ish
Ġbi ased
Ġdoub led
ĠRecomm end
ec tivity
verse ly
Ġ18 6
Ġshort ening
ĠFor ce
Ġrecon struc
Ġaug ment
N e
on omy
ĠR heumat
Ġwh ilst
Ġphot otherapy
Ġdri ven
S F
i Ã³n
it ron
th idine
ĠS ES
Ġsur round
Ġqu i
Ġ17 3
ĠChild hood
Ġbul im
ac id
ĠD ig
term it
Ġfe eling
ĠBD NF
ĠAc ross
Ġfam il
ĠRec e
Ġnit ro
ĠIg A
Ġadip ose
Ġconn ection
Ġsaph enous
ec tively
ĠT ran
cur rence
tric t
Ġmig r
Ġbreath lessness
Ġadren al
p rop
Ġper f
iv udine
ĠN BI
ĠPA I
ĠDise ases
Ġreproduc ibility
Ġneigh borhood
8 00
Ġval sartan
Ġscen ario
ed ema
Ġf MRI
ap ies
ail s
Ġaddition ally
cor bic
ĠInter pretation
Ġlax ity
Ġdetox ification
s ec
Ġis o
ĠAn terior
ĠIC P
Ġprem aturity
p eptide
Ġl aryngeal
Ġdur able
Ġnew s
Ġfl up
Ġtechn ologies
Ġimmun ity
ĠIs chemic
Ġneural gia
termit tent
et an
Ġfl ashes
Ġsleep iness
Ġlo op
otrop ium
dehy de
S ub
th iazide
qu in
ari an
cep tive
Ġagg ression
Ġpreced ed
a ult
Ġwe t
Ġde hydro
Ġprefer able
Ġdy ads
Ġho ok
Ġa rous
Ġp CR
ĠS AS
jec tively
cl age
cop rotein
Ġwor ked
Inc reas
Ġsimpl ified
s copy
Ġth iop
ir m
Ġel ders
ĠPot ential
in hib
Ġthe ophylline
ĠT UR
Ġor dered
Ġis otonic
arg inine
O A
P a
P r
ĠT RA
ur ban
ĠL arger
Ġconf usion
ĠAd ding
Ġintraoperative ly
Ġintrac oronary
bur ide
Ġneurole ptic
spe aking
g ian
ed ia
ĠP an
Ġmon telukast
ĠMain tenance
ĠCL BP
osin usitis
Ġherni ation
orel bine
ĠIn continence
ĠSh oulder
ĠPe g
Ġoppos ite
fep ime
Ġcomprom ised
ĠRetro spective
f iltration
Ġp ovidone
op lication
Ġse al
ili ar
ĠMet formin
Ġappropri ateness
p ly
Ġpre intervention
ub ic
Ġnons mokers
Ġdecomp ens
as mic
Ġconsum ers
Ġreli ably
Ġapplic ability
Ġmit ral
oneph ritis
Ġa vec
ĠT ur
Ġph leb
ĠL umbar
Ġ18 7
mic rog
Ġamygd ala
V HD
are r
ne al
Ġfacilit ating
Ġsqu at
Ġmodest ly
ĠAM L
Ġdiscl osure
Ġgonadotroph in
F e
P L
W I
Ġg overnment
Ġme peridine
ĠD ays
ĠReg arding
Man agement
B R
i res
Ġpost p
Ġ18 9
gr ain
Ġverte b
m ass
Ġw atch
Ġto xin
Ass ociation
ĠLE VEL
e valu
it in
it ory
il tr
Ġk it
Ġ18 4
Ġmic tur
ĠDel phi
S M
ĠM ale
Ġsub type
Ġcarb amazepine
Ġap op
itilig o
ĠN icotine
ĠPro gression
Ġclass ical
Ġabs orb
ĠY ear
ĠYo uth
Ġscen arios
ĠLL LT
en tion
Ġo u
is ers
Ġn ull
ut ramine
op Ã©r
Ġpost ure
Ġread ily
Ġrecre ational
Ġac tin
Ġob st
Ġhem ostatic
Ġanaly se
Ġulcer ation
eli rium
ĠNur sing
Ġdeb ate
Ġt ax
Ġther m
Ġopp osed
loro thiazide
Ġlib itum
Ġisoflav one
g ree
Ġtr ait
Ġmin us
Ġcl ient
Ġ18 3
ĠMS M
Ġremain der
Ġlaryng oscopy
ĠThrom bo
Ġname ly
in ation
en docrine
ar an
op enem
Ġimp ed
Ġco variate
Ġdec ade
Ġ19 7
Ġval pro
ĠReg ression
Ġty rosine
d ex
Ġb ound
Ġcreat ing
i ers
ar n
se ment
Ġper mitted
Ġim bal
ĠB enef
Ġsetting s
pr ide
Ġvas opress
Ġpeg ylated
ĠA BP
Ġme ters
ĠE LISA
ĠCom ple
ĠAss ociated
Ġqu ite
Ġcr ying
Ġprof ound
Ġfacilit ates
Ġhemat opoietic
Ġquick ly
Ġg oserelin
af ine
ĠNur se
E q
ĠT H
ĠU I
Ġpap ill
Ġappli ance
up iro
Ġhydro x
ĠSpec ial
Ġmidw ives
Ġspati al
ĠP ear
ĠS CD
Ġdif fusion
r ate
Ġr HuEPO
Ġrel ations
Ġ19 4
Ġma kes
Ġradi ologic
Ġdiffer ing
ĠSer ious
Ġsom at
inge ment
Ġd ynam
ĠC ri
con omic
lev ation
Ġpromot es
Ġbed side
Ġvo uch
R F
Ġ19 6
velop mental
Ġwell being
Ġmar ital
ower ment
In tr
ameth oxazole
upiro cin
U G
o ti
Ġin ability
ĠD B
Ġcol ic
crib ed
ĠCM F
ĠTP N
iv ision
ag it
ĠG o
Ġrec tum
ĠCon text
Ġnetwork s
alant amine
d ents
ant ine
ast ine
ser ving
Ġprior ity
Ġmotiv ated
Ġchemor adiation
Ġabnorm ality
sew here
Ġf ields
Ġto pir
th ing
ac avir
Ġl ens
Ġcomp etitive
Ġsub c
ep tid
ex y
Ġvers ions
tens ives
Ġstruct ures
ĠClin icians
ĠExp osure
Ġtopir amate
ar tem
ĠR ot
Ġover active
ĠV ascular
Ġcomple ters
Ġpe thidine
Ġload s
Ġrun ners
Ġaudi ot
Ġan astrozole
ĠS MT
ot he
Ġch lamydia
ass ay
amin es
Ġcalc ification
ĠAc id
Ġsyn erg
och ond
respons ive
tic k
ĠO K
Ġover view
spec trum
Ġver ify
ĠTest ing
Ġelimin ated
ĠJo hn
ĠM ac
ĠN ICU
ĠSub sequently
Ġam ikacin
Ġatten tional
c illin
d if
ĠC umulative
ĠA LA
am cin
ĠB RAF
Ġdemonstr ation
ĠBP RS
gl uc
Ġure ter
ĠGastro intestinal
T B
u er
ĠA ST
ap ol
Ġ19 5
Ġel sewhere
man aged
Ġcaro tene
aryng itis
Ġoccas ion
Ġn itr
id ase
ĠP ak
ap es
Ġtr ache
lo ading
Ġblood stream
olec ules
ĠIM RT
ĠPers ons
Ġtraine es
Ġun p
Ġhyp o
Ġhyp ofr
Ġcult ured
Ġdial ys
Ġra ise
Ġchem ical
ozyg ous
y ph
Ġh ol
Ġth y
un it
Ġac compl
erc utaneous
ĠPro tein
ĠEx clusion
hep atic
Ġs aving
Ġst orage
am ber
ĠM F
ĠE CT
Ġfe ature
Ġmic ros
car nitine
Ġfamil ial
Ġan emic
Ġl amin
Ġcon cep
ĠM AC
ĠO GTT
ulin um
Ġtransl ate
ĠBl ock
ej un
ĠPak istan
Ġan ger
ul pride
ĠF G
Ġnod ules
aparin ux
ethyl ene
Ġcomprom ise
ĠLabor atory
Ġsmart phone
ĠRes idents
Ġd Ã©
ĠC essation
ĠP arent
Ġper me
ĠD XA
ĠL eft
ĠRespon ses
Ġasthmatic s
ĠContro ls
esthesi ologists
G y
d a
ĠR ate
Ġen riched
Ġro curonium
Ġhist amine
mod ified
Ġcirrh otic
Ġvagin osis
Ġc red
ss ue
um ps
ĠN K
Ġ20 9
reg ular
Ġeas ier
Ġfluct u
p res
p ired
Ġon to
ap revir
Ġmen isc
ardi ve
ĠQuestion naire
Ġsampl es
ĠAnalog ue
om od
ĠV F
ĠPatient en
ibr ate
Ġcoup led
Ġnal oxone
Ġadvoc ated
em ir
Ġloc oreg
ĠAL L
* .
ati le
Ġman us
ĠX R
Ġv ig
Ġv oc
Ġparticip atory
Ġpat ent
ĠSG RQ
Ġdimens ion
A b
Ġ32 5
ĠAD AS
Ġhead aches
por ter
Ġnor thern
Ġvar iceal
N M
V D
w est
es th
our ce
Ġaccess ible
ĠFin nish
Ġround s
I g
ot yp
Ġdes flurane
Ġ19 1
Ġso ap
stim ulated
initi ated
amcin olone
ĠP OP
ip s
Ġsign ed
ĠInf lu
Ġgli oma
ĠBayes ian
c ase
ur s
k al
Ġd iph
ĠNH L
V H
ad mission
ĠR h
Ġweigh ing
ĠF alls
Ġit rac
Ġlev ofloxacin
it ted
iv ity
Ġperiod ic
af ts
Ġel ite
Ġregim e
Ġtoler able
ĠAs ia
Ġlect ure
Ġitrac onazole
p ort
s ess
ol ved
uc osal
Ġj unior
Ġgly buride
ched uled
Ġquin tiles
b it
om atis
Ġg ro
Ġl b
ĠM ixed
Ġres ections
ĠF at
ust ment
Ġnonpharmac ologic
ed ronic
ic ep
Ġad alimumab
Ġrifamp in
H b
Ġpro minent
lo bulin
iti g
ai re
Ġiniti ate
Ġhist ories
Ġinstru mentation
spr ing
ĠS yn
ĠI rel
Ġle up
az odone
ĠOb ese
bal anced
ĠAD Es
Ġcarri age
Ġsign als
Ġnorm ative
ĠMon t
ocon str
Ġmening itis
ello femoral
e ve
f entanil
m opressin
om ically
Ġg a
um inal
Ġ19 3
Ġlear n
ĠEpidem iologic
Ġappend ic
Ġsecre tions
Ġdal teparin
Ġad ds
Ġac ts
ĠAn other
ĠOb stetric
Ġmyel oid
Ġapprec i
Ġinters titial
Ġ {
al arial
is cal
ĠS ed
Ġimp ingement
ĠN ausea
Ġ20 8
par ts
ĠPer ceived
Ġgam et
exper ienced
v oid
Ġun in
Ġhem ip
Ġagon ists
nai res
Ġflav on
Ġlib eral
e v
Â ł
ost on
Ġinf requent
Ġloc ations
Ġemerg ing
Ġdrop outs
H y
l av
u arial
Ġl ives
Ġu ro
xy cillin
Ġantim alarial
Ġres idence
Ġexce eding
Ġh ost
Ġj unction
ĠIC S
Ġthromb oprophylaxis
Ġadren aline
- .
b os
c ult
Ġm olecules
ĠO d
ĠG AD
Ġanti inflammatory
aph r
xim um
ĠHealth care
ĠMeasure ment
Ġtetr acycline
y therapy
is is
ĠV o
Ġsome times
Ġemphas ized
Ġcoc oa
Ġw anted
ad o
Ġse aled
sel ectin
Ġcounter parts
Ġrelie ve
Ġo t
le m
Ġse men
Ġreg ain
ard s
Ġaim ed
ĠEx tr
Ġet anercept
Ġgynaec ological
b iotic
im pregn
if t
ĠP neum
ad ex
Ġac ting
ĠB oston
Ġprolong ation
Ġlact ose
C ON
F O
ĠM ACE
az ide
ĠK et
lex us
Ġbronch opulmonary
Ġcer clage
rox yprogesterone
enal idomide
III a
Ġwhee zing
R CT
ĠR O
ĠG astric
Ġen doc
Ġcap able
Ġregard s
Ġair ways
Ġsom n
Ġfund oplication
Ġintrav aginal
Ġdisadvant aged
ĠP RT
Ġpl acent
ĠIM PORT
ĠOP CAB
ĠTechn ology
Ġexer tion
og est
tiv ational
Ġrem ark
ocol ate
CO G
Ġdistrib utions
Ġenviron ments
PC R
Ġwar ning
Ġsent inel
Ġge ographic
p ine
ĠM g
rom al
ici encies
abl ished
Ġcognitive ly
rep orts
ĠHA DS
ĠSymptom atic
Ġtric losan
ĠVi et
Ġtrab ec
agit tal
ĠIMPORT ANCE
M on
ĠClass ification
ĠToxic ity
ss e
ĠF N
Ġoptim ization
ĠCol on
F OX
ed ded
Ġc ue
Ġres ur
Ġdis abilities
ĠF OR
Ġhyp oxic
Ġantib acterial
c il
ati o
Ġd og
os tr
ĠO N
Ġinf ancy
Ġsup pl
Ġ22 8
ĠBr ain
Ġinterrup ted
Ġwr iting
rom ial
Ġas corbic
ĠQ D
Ġproblem atic
Ġmail ing
Ġconce al
f loxacin
Ġb undle
Ġex ogenous
Ġ20 7
Ġintr athecal
ĠPro phylactic
ced ure
ĠQu it
Ġvas opressin
Ġpep tid
oscler osis
ĠAM H
Ġosc ill
ĠCharacter istics
impregn ated
is ulpride
adi tion
Ġform ats
ah aran
target ed
s teroidal
v ular
Ġw ind
Ġen joy
Ġhazard ous
Ġlymphaden ectomy
Ġcom mitment
ĠIn tegrated
Ġ19 82
Ġpneum atic
Ġplay ing
ĠBr Ã¥
Ġcover ing
Ġoroph aryngeal
in jection
ti tion
ĠT HA
id ronate
ĠA H
ĠM ark
ĠF oot
ug rel
000 6
Ġsa ved
Ġcrow n
Ġlam otrigine
U n
c irc
Ġv itiligo
ay er
Ġman eu
Ġstr ata
Ġstr atum
AS S
ardi al
Ġintra epithelial
Ġref ined
Ġtrach omatis
ĠUF H
Ġhoriz ontal
ĠArter ial
. ,
om avirus
Ġde pletion
Ġvari ant
Ġtemper atures
in dependent
ĠB lind
Ġhyper baric
Ġrhin osinusitis
o tion
os im
Ġad here
ip rofen
Ġqu inine
Ġcl imb
Ġ20 3
Ġven ography
zer l
Ġlign ocaine
Ġch ur
ĠO DI
Ġreg urg
Ġanti thrombotic
urb iprofen
ĠSwit zerl
Ġb out
hed rine
Ġhyper lipidemia
ĠParticip ation
Ġcle arer
Ġfil ter
S aharan
Ġcardi omyopathy
Ġthal idomide
ent ing
Ġto co
ĠH CT
pl astic
Ġwhe at
ici ous
hy d
vers ible
Ġmat uration
Ġelev ations
Ġaddress es
Ġirr itation
Ġintim ate
Ġpamph let
Ġt ight
ell ed
Ġfib roid
ĠTA VR
lev ated
ĠUn ivariate
Ġcirc adian
Ġlact ation
ampl es
ro ll
lin ide
ĠF requency
ov orin
med ia
uz e
Ġelectrocardi ogram
Rel ated
s urgery
ves sel
ĠAb s
Ġacc r
rot oxicity
Ġmultis ite
Ġunsup ervised
in ic
Ġwe ighed
os tigmine
ĠA RI
il ine
Ġcar ing
res ts
Ġro ugh
Ġaden osine
Ġconce ption
g un
ĠA U
ĠM il
ĠD elirium
Ġpa id
PD RS
Ġair flow
Ġsubstit ute
ĠMind fulness
ĠMcG ill
ĠT MS
Ġy og
Ġal dosterone
ral fate
Ġsequ entially
Ġencoun ters
Ġglucocortic oid
ĠLine ar
Ġw ore
ĠE ating
Ġcar vedilol
Ġend emic
Ġnon adherence
Ġlength s
Ġvac uum
ĠRec ur
ĠHy dro
ĠSchool s
ector is
Ġarrhyth mia
Ġvasodil ation
wh ile
nem ark
c reatinine
in ous
Ġm Eq
ac r
Ġpre treated
Ġpr ison
Ġal titude
ph arm
Ġend od
Ġnor th
cit es
ĠPa O
Ġlink age
igr avid
Ġsub gingival
con tinu
AC S
Ġ28 0
struc tured
ĠViet nam
Ġd ying
Ġst ores
ap t
Ġal ignment
Ġk m
Ġinhib ited
Ġcle ans
Ġburn out
Ġdup lex
L DL
Ġs d
ĠT opical
se ason
ĠS Q
ĠE L
Ġve ct
Ġins pired
az em
Ġ21 2
ker t
Ġprim ing
ret t
glycer in
ĠPW V
Ġultim ately
Ġsomn olence
ill er
ĠCh lamydia
ĠAn g
in avir
re ment
ĠG G
Ġdet emir
ME NT
Ġthrombo lytic
ĠSystem ic
adren ergic
Ġnation wide
Ġd arbepoetin
Ġre ward
ĠV ac
Ġcoun ty
Ġwar ts
oxic am
Ġdispl aced
ti azem
ap ro
Ġpos itivity
Ġ18 8
Ġintr aperitoneal
Ġcr ude
Ġpresent ations
03 0
li oma
athe red
Ġtri amcinolone
; -
Ġw ild
Ġind ustry
Ġcor neal
ĠQ ual
ĠPh il
Ġmel phalan
ĠImpression s
Ġhippocamp al
ph il
ĠCom parative
ĠAn esthesia
Ġ22 1
ĠAss ociations
Ġspon s
trial s
re te
Ġt ardive
is er
ter dam
Ġg athered
ac romial
un ic
ĠO H
ĠL eu
Ġab st
ĠCon versely
lum efantrine
ĠStruct ured
Ġs hed
is platin
Ġre habil
ĠS IT
Ġun less
Ġdes ens
Ġcy clo
test ing
ĠST A
U I
ed ical
es tic
im etry
ine a
Ġinter group
Ġsh unt
Ġanti tumor
Ġintr insic
ĠY ears
Ġneuro de
Ġexplor ation
immun e
ver sy
Ġdis l
tid ronate
Ġgel atin
ĠLi kert
is ations
Ġv entric
ot hesis
oper itoneum
Ġanti f
Ġpres umed
rop ium
yl itol
ran dial
ĠCO X
ĠComp reh
Ġunders erved
troph ic
sub ject
ĠImport ant
C are
ti p
Ġp lyometric
Ġfor ces
ag n
Ġpost transplant
Ġ22 3
Ġconsum e
Ġavoid ing
Ph armac
uro xime
ĠArth ritis
Ġin activity
ĠP ort
ĠSc ales
Ġconj unc
Ġdan azol
Ġunaccept able
at tle
il iximab
act ors
all ed
ix aban
pir ation
Ġsens itization
Ġmetabol ites
in duction
Ġdis pos
Ġoff set
opl asmic
Ġsequ ences
Ġmis use
ĠLy mph
Ġvin orelbine
re bral
Ġp ectoris
ear ly
ĠL NG
ath ers
pr Ã¨s
den se
Ġconsent ing
Ġhar v
Ġbrach ytherapy
Ġinsec tic
o rough
as ugrel
Ġass istant
ĠH odgkin
ĠN MES
Ġshort ly
Ġrecru iting
Ġwork s
ĠCS II
ĠBrÃ¥ nemark
i ant
an um
el s
iss on
Ġcomputer ised
Ac ute
Ġbiochem ically
Ġattr active
Ġscin tigraphy
Ġre tain
Ġh ype
ĠCon sequently
Ġman nitol
iqu es
cri p
Ġcompreh ension
Ġincision al
ĠLim itations
b enefit
Ġc ow
Ġre medi
Ġto uch
ĠS pon
ĠH ence
ĠH MO
ep ile
Ġtrans itional
ĠAt rial
Ġprot ected
Ġacid osis
Ġâ© ¾
ont amination
Ġmir tazapine
os f
ĠA O
Ġdis ag
ĠK i
ĠPre term
ime tidine
Ġirr adiated
ĠReduc ed
fac ing
Ġmoder n
Ġdichotom ous
unic ip
Ġan n
Ġe in
ig ence
Ġor g
ĠB L
ĠIn str
ome ters
Ġ21 1
Ġamo xycillin
Ġamb ul
Ġsepar ation
fl av
ĠWor king
act or
ĠL ength
Ġreduc tase
ĠJ oint
Ġelectr on
Ġra ising
Ġempir ic
O ne
y cle
Ġbr ight
Ġpart ur
arr ative
Ġthromb us
ĠPl atelet
Ġcomplex ity
Ġnar cotic
Ġcompens ation
Ġarous al
Ġregurg itation
c up
od en
Ġex clude
ĠR L
Ġinv ent
Ġam antadine
Ġmut ans
gar is
Ġdors al
wor ld
Ġimmob ilization
il on
ad herent
Ġch ocolate
Ġes molol
ĠCT X
Ġamb ly
ĠPO D
ĠTreat ed
P sych
ond ed
cop ene
Ġappro xim
Ġarth roscopy
but aline
Ġherni as
Ġmach ine
o terol
Ġj aw
ĠCA T
Ġread y
Ġip r
Ġquarter ly
ĠBar rett
ĠPear son
Ġwh ites
ĠL M
Ġs ector
Ġth orough
ĠM ST
ĠL ate
res hold
Ġepidem iology
Ġhypercholesterole mic
ĠSk ills
Ġvast us
v oxamine
Ġs axagliptin
Ġcon vention
Ġcon centric
Ġbe gun
ĠE qu
Ġsub sets
ĠSt andard
month ly
de gree
Ġprocess ed
atur ation
Ġpal pation
ĠEnd oscopic
Ġexpendit ures
Ġsut uring
h relin
ri a
ĠI OP
Ġen uresis
xic am
Ġimplant able
Ġstool s
Ġexplan ations
Ġjus tified
Phys ical
) )
Ġp lexus
ĠS MA
Ġde hydration
end ance
ong ue
Ġhyp ox
group s
Ġvalpro ate
Ġperme ability
ĠM MP
l op
m ain
Ġan ch
if ost
ers t
ĠE mb
ĠIC ER
ĠWith out
ĠRec urrent
cript ase
FD G
Ġmouthw ash
i ol
Ġoper able
ĠPre ventive
Ġgrad ual
Ġvill age
osp ice
thir ds
s econd
Ġhe mo
bin afine
ĠU PDRS
Ġtrans amin
ĠReduc tions
ĠMex ico
ĠDex amethasone
Ġswallow ing
ĠTob acco
Ġm upirocin
Ġst air
ĠL ig
Ġfac ulty
Ġti otropium
Ġcontraind ications
Ġbroch ure
Ġre bleeding
ines terase
ra ys
Ġhydro ly
Ġchor ionic
N U
s ion
Ġp oc
Ġs pite
Ġc ities
Ã© es
PO E
ĠWh ole
Ġorgan ized
Ġsoci ety
Ġmamm ogram
Ġdetail ing
fil grastim
Ġlocoreg ional
M od
at rol
ĠB rist
ĠF E
ls al
Ġplace bos
Ġmicro organ
ĠSP ECT
Ġphen otype
Ġp in
ĠC irc
ĠM is
iz ide
Ġpat ellofemoral
Ġce mented
ĠPer ipheral
Ġconcer ned
lim b
Ġnight time
Ġchrom at
athyroid ism
Ġinterrup tion
O p
i O
ĠP al
od ex
ĠW C
Ġ21 9
hy se
rod esis
ĠLi ke
egal ovirus
V al
m ut
Ġf ront
im oxazole
Ġtime ly
Ġpos tex
Ġdef ec
Ġ27 0
Com p
ĠTrans c
Ġhomogene ous
C M
Q ol
a icin
er tal
ic ol
us al
ond aparinux
hel d
cal orie
iel ding
pharmac ological
Ġhaemat ological
Ġposts urgical
Ġdextro se
ĠUnivers ities
ĠBrist ol
Ġfor mo
ĠM L
Ġex ert
ĠH G
Ġas cites
ph y
ME D
Ġultrason ic
oes ophageal
Ġformo terol
W S
ver atrol
ĠG oal
Ġheart burn
Ġmill iliter
Ġorganization al
Ġmultim edia
Ġsurround ing
Ġin eligible
Ġg ives
Ġr idge
ĠB OP
Ġmon etary
Ġexerc ising
ĠTo ol
Ġprop ose
Ġcompl aint
ĠIncreas es
Ġrob ot
Ġmoder ated
ĠReli ability
N o
Ġw ider
Ġan odal
ĠS N
ap ride
Ġinter face
Ġdis traction
ĠPhys iology
ĠNa Cl
Ġstrept ococci
Ġconcep ts
E l
ec es
medi ately
Ġpromp ted
Ġmer openem
ĠBiom ar
h ormon
com mon
Ġsh oes
ES T
ĠV e
Ġbl ocking
Ġburn s
ĠFF P
anth anum
ti ssue
Ġper ic
ĠG ood
Ġpe an
Ġsa id
que ous
ĠY oga
ode ine
ochem istry
Ġparadig m
Ġb onding
Ġre ass
sy mptom
Ġeduc ators
rit onavir
re tained
Ġn ic
ten ess
Ġsp an
ĠImpro ving
Ġspir it
DN ase
ĠA Q
ĠS ustained
Ġpe ers
Ġcalc ulations
Ġoper ator
Ġsol ving
ĠPD A
ibr illation
rox ine
ĠÎ¼ mol
Ġsulf adoxine
Ġstret ch
ĠMultiv ariable
Ġn s
ĠD LP
ide o
Ġret urning
Ġce fepime
Ġtub ular
Ġeng aging
ĠFund ing
ĠAre a
Ġattain ment
Chan ges
O RS
Ġc ance
or tions
Ġl ose
ĠA ud
Ġpro inflammatory
ĠD F
ĠN N
Ġ21 5
ato ire
Ġcod ed
es cal
Ġre le
ĠB ypass
Ġperform ances
Ġ21 3
Ġvul garis
T e
Ã ¡
Ġr FSH
Ġassign ments
AL E
Ġsuccess ive
ĠRR s
Ġoptim ized
Ġlin agliptin
taz obactam
Ġimplic ations
Ġpsychoeduc ation
Ġpapill omavirus
op y
âĢ Ŀ
avi an
Ġtele monitoring
omer y
Ġchec ked
or ax
Ġg out
ĠA erobic
Ġind oor
Ġcardi ople
Ġsm ears
Ġpoc kets
Ġs an
as ms
ge red
Ġ21 6
Ġ21 8
UR E
Ġbr id
ĠTr aditional
âī ¤
Ġfriend s
ifost ine
p at
in ium
Ġe u
ĠD H
Ġover use
Ġinhib its
ĠEd itors
m orbid
Ġdis abled
ges trol
Ġsuc ralfate
Ġins oles
Ġgr ains
Ġquestion naires
Ġprim aquine
Ġvas omotor
Ġmobil isation
Ġc ada
Ġ, <
ĠS DS
Ġk yph
kin s
ĠOR s
Ġuns uccessful
wor th
Ġintub ated
1 05
L s
Ġc ystectomy
ĠV aginal
Ġtrans verse
ru it
Ġdex tran
Ġhydroch lorothiazide
Ġsun itinib
4 50
Ġn umeric
im bur
ĠC ur
Ġter butaline
ĠAc ademic
ALY S
Ġirre versible
Ġintrap artum
ĠAuth ors
g omery
Ġ ice
ĠP it
ric es
Ġdes irable
Ġgly coprotein
Ġmamm ographic
ĠPregn ant
Ġbronchodil ator
Ġanthr acycline
Q uality
ĠH azard
Ġpos itron
to oth
ĠAl most
Ġemo tions
health y
sess ive
H L
ter ious
Ġcoordin ated
ĠGE M
ĠRecommend ations
C ardi
ic idal
ĠS ol
Ġev ac
ĠPro st
of t
ĠCH A
Ġsed ative
gam ma
acchar ide
Ġmediast inal
C r
Ġcon d
if lex
Ġpro of
ĠL earning
Ġoff spring
ĠLim ited
Ġlob e
A nal
H cy
Ġp urp
Ġpro s
ĠE ast
Ġmod ulate
ov astatin
Ġsp ot
fib er
ĠUltr asound
d o
i ors
Ġre assessed
Ġe at
Ġn uclear
ĠS CO
ip ot
ĠF er
ĠN ET
per iod
ĠG DT
Ġdo but
Ġop tical
Ġdig estive
Ġassum ption
Ġâ© ½
ĠDHE A
Ġdispar ities
X a
b i
Â ®
ĠC ME
ĠS tro
ich ia
ĠSD D
Ġdisc us
Ġdele terious
Ġmonof ocal
ĠMont gomery
ĠCompreh ensive
Ġs agittal
Ġdec ided
Ġlo zen
Ġoff ices
Ġestablish ing
rof iban
artem isinin
Ġdobut amine
ac kets
ĠH ow
ĠH II
ov ine
erv ation
Ġfacil itation
ĠAR F
ĠMa ximal
Ġvar ices
Ġpartners hip
ĠConsider ing
cher ichia
s troke
Ġm ice
ly mph
ant rone
Ġag encies
Ġ21 7
Ġflu vastatin
Ġresid ing
Ġdial y
Ġstimul ate
Ġga uze
at ched
Ġl ived
mun ity
Ġ21 4
Ġmar k
Ġsleep ing
ĠOA B
Ġvirtual ly
Ġworkshop s
ĠEuro Qol
Ġbenzodiazep ines
ĠOper ative
Ġvaric ose
c ore
Ġw ur
ĠB irth
Ġ22 2
Ġextr acts
Ġpath ogen
Ġansw ers
prom azine
obl astic
S er
h oc
Ġp el
us cit
ip izide
Ġdec ontamination
Ġphen yl
ĠDM PA
ĠTreat ments
Ġimm ers
Ġnitro glycerin
l ight
ar tery
ĠC X
Ġ7 00
Ġprogram med
Ġsuc cin
ĠCh olesterol
ime ter
Ġfil grastim
Ġconn ected
Ġsole ly
h azard
Ġt ongue
Ġc ame
one gative
ox ify
Ġnew er
Ġprotocol s
amp hetamine
Ġsimple x
ĠDE X
Ġsynerg istic
ĠT or
ans oprazole
ov ing
Ġenro lling
04 0
Ġ37 5
Ġcef uroxime
Ġreplic ated
p tics
as p
Ġn ose
ĠIn te
ĠN PI
Ġun common
Ġmod elling
Ġpred is
Ġadminis tering
Ġhyper al
Ġthough ts
Ġsib utramine
ĠCalc ium
I ST
ig an
per itoneal
Ġal teplase
ograph ical
cy cl
Ġcann ulation
Ġtail oring
Ġdietiti an
Ġjustif y
. )
Ġt ai
Ġc ited
ĠV S
Ġur tic
vers ity
Ġinfluenza e
Ġaggreg ate
tre otide
ĠMic ro
Ġg et
anc re
Ġdiagn osing
Ġimmun ogenicity
In f
ĠFl aws
Ġapop tosis
ĠH MG
ĠF R
anc iclovir
Ġtop otecan
Ġrh DNase
int ended
oxy genase
ĠPredic tors
ĠPAC U
Ġremedi ation
ĠN VP
Ġbl unt
Ġexpec tation
ipar atide
adition ally
s odium
t ailed
z ation
ĠR DS
Ġme f
ĠEn ergy
ĠRT OG
Ġvag inally
Ġcompens ated
Ġtap ing
Ġaccr ual
oxify lline
o kinase
us ual
Ġsub acromial
Ġdef iciencies
Ġir regular
pre vention
educ ation
Ġmedi ating
Ġreinfor ced
ĠDist ress
yt oin
Ġpolys omn
ed er
Ġtoler ate
ĠAN ALYS
ĠAS D
oxif loxacin
Ġau tism
fib rin
Ġzol edronic
p ain
s in
Ġm ec
ic os
Ġe tidronate
ug ular
ĠG rowth
Ġdiscon tinue
epile ptic
P H
g al
Ġr ater
ĠA z
oc in
Ġcar ds
ting ham
ĠX a
Ġfil m
Ġprolifer ative
Ġallevi ate
Ġgeneraliz ability
C PAP
n I
Ġa queous
ati fied
ĠH DM
Ġgl ipizide
ator ies
hal er
Ġbic ycle
Ġf athers
ĠSt op
Ġconf ined
Ġhyper par
Ġbl oc
Ġdysfunction al
Ã©s ie
fin ding
diagn osed
ĠRecur rence
Ġmef loquine
Ġb ill
im pl
ne x
ĠPC P
Ġeth ics
Ġpack ed
Ġquad rant
Ġtap ered
L L
Ġm ature
end an
Ġpred etermined
Ġtw in
Ġcirc ulatory
Ġder ive
ĠAL S
ĠAT G
ĠExpl or
osf amide
Ġm itig
Ġe ct
Ġr ab
ear ance
atisf actory
ĠPC C
Ġvaccin ated
ĠIm mediately
Ġexh aled
ĠNot tingham
Reduc tion
Ġchromat ography
t ub
Ġ ions
Ġw inter
ĠP elvic
ĠS uccess
Ġex curs
Ġper oxide
Ġph y
Ġfocus es
ather my
Ġelimin ate
Ġencoun ter
crip ts
op am
ĠM orbidity
Ġex ec
Ġpre existing
ĠG BM
Ġsel ecting
con cept
Ġcontrib ut
br ain
CHO P
â Ĥ
it ting
Ġre ver
ab etes
ll er
Ġfe et
Ġexamin er
Ġmulti dimensional
Ġ23 5
ĠAc cept
ĠAR DS
Ġput ative
) (
Ġdis infection
ĠN B
ist ries
Ġlocal ization
Ġhel minth
Ġbroad er
iper idone
ĠEs cherichia
Ġsnack s
h an
p i
p aclitaxel
at ropium
ĠA ther
ut ter
ĠS uccessful
Ġpr asugrel
Ġab acavir
Ġsupp os
ile y
Ġly copene
tes ted
Ġpneum operitoneum
cep tions
Ġpul s
Ġhemat oma
Ġphot odynamic
Ġdent in
Ġdirec tions
Ġdissemin ated
ĠExt ended
ĠTUR P
Ġconceal ment
er in
ĠI b
Ġmic ronutrients
Ġmem antine
PT H
ĠImpro ves
ĠHB s
Predic tors
Ġmanufact ure
ĠPo isson
l un
ec tomies
ĠC atheter
op eptide
Ġcomp artment
Ġat ory
ĠW ound
Ġrel ate
cent red
Ġdes mopressin
ival ent
Ġoc treotide
ĠSc hed
ĠAc cur
In ter
Ġincorpor ate
Ġchemo embolization
ĠUnder going
D ep
Ġt Hcy
am ily
Ġsh ape
Ġbr ackets
rolog y
Ġnorm othermia
dial ysis
ĠB B
ĠB acter
ĠF inal
Ġsp ous
ĠK arn
Ġalf entanil
Ġdynamic s
oun saturated
Ġtit ers
Impro vement
Ġexplan atory
Ġesophag itis
Ġadver tise
ĠGeor ge
g ers
Ġa eti
Ġc imetidine
Ġre imbur
Ġst ored
Ġpr ick
Ġwhe y
Ġneed ling
ĠFe asibility
sur face
Ġhook worm
on ad
Ġg ar
ĠM agnetic
ot ypes
ch en
ronch ial
Ġalter ation
ĠWeek ly
Assess ment
Ġb ib
Ġ( >
ub lic
Ġy ields
ai ent
Ġhyper cal
Ġcont ains
Ġam isulpride
Res ults
ĠP red
ot helial
ĠG re
ĠU nd
ĠAn y
Ġabs cess
lear ning
y g
is ter
ĠPre v
Ġbo uts
Reduc ing
Ġpathophys iology
Ġbulim ia
Ġv aries
ĠI B
Ġpl astic
Ġ22 4
Ġmicro f
Ġ26 0
ocy cline
ĠSpec ifically
Ġshe et
omat ous
ĠOd ds
ogest rel
x p
Ġm unicip
iver ing
Ġcont ents
16 0
ind ex
Ġleup rolide
E N
Q I
p etic
Ġg hrelin
os er
Ġh ence
tr ical
Ġel abor
Ġmet al
Ġpanc reas
Ġpit uitary
Ġna ive
Ġnews let
Ġconvention ally
Ġre ferences
ĠE very
Ġ19 83
Ġinterpre t
Ġqual ified
ĠRed uce
ĠC CT
lo b
Ġfam iliar
Ġdisc retion
ocal cin
Ġphot ographs
Ġpromo ter
ĠTI MI
Ġconstit ute
Ġhyperpar athyroidism
t d
Ġn ut
ul ators
um ing
ĠN F
Ġ65 0
Ġhypn osis
Ġsilic one
Ġimbal ance
M y
s upport
Ġ ~
ĠR ole
ĠH ME
ĠN umer
ose xual
ĠCon centr
ater ally
ĠQ U
Ġconduc tion
ĠAn gel
Ġfl urbiprofen
inc ision
Ġbiom echanical
Ġconstruc ts
icep tive
a mental
o vi
os terior
ĠF PD
jec tions
lic e
Ġadminis ter
ĠInf ections
Ġacceler ometer
Ġintramuscular ly
Ġnas ogastric
Ġile us
ul ates
Ġres ectable
Ġpr ice
Ġinvestig ates
Ġ25 2
II a
Ġrot avirus
osim endan
hyse ma
I tem
d raw
Ġl acer
ĠH V
ĠE ry
Ġcl im
Ġsmo oth
Ġrestric tions
An ti
ĠRel apse
ĠCaro tid
E nd
K I
Ġa prÃ¨s
Ġg lue
Ġn ative
ad ap
ad em
Ġtr ust
Ġwor ry
ropion ate
arrhyth mic
Ġperox idation
l ists
ĠL onger
ox antrone
other apies
Ġconsider ations
Ġnorm ally
itiz ed
ĠVari ous
ĠP ossible
st ay
Ġter binafine
Ġflu orescence
row s
Ġintegr ating
Ġpi ro
Ġgram s
Ġrestr aint
Ġsub str
Ġdef icient
ob tur
Ġemploy ing
Ġmac rovascular
ĠWeek s
Ġconn ectivity
Ġneutrophil s
pub ic
Ġnegl ect
ĠLip id
D if
Ġc ing
ĠL ys
Ġnon inferior
Ġ23 2
Ġhel ps
Pre valence
Ġtra vel
ĠEP IC
ĠAmb ulatory
Ġantif ungal
1 01
A F
es ides
ĠT rich
ĠW iley
Ġsp ar
ĠPre m
ibr ary
Ġbur st
ĠEduc ational
ĠNI HSS
ĠDiagn osis
Ġappli ances
Ġlap atinib
pharm acy
Ġst ays
od ily
Ġadd ic
ĠSe qu
ĠCombin ing
Ġsoon er
Ġs ides
ĠS odium
dom et
acy l
form oterol
ili ation
ĠSU MM
ĠHem odynamic
ĠTer tiary
ifidobacter ium
ĠDLP FC
ĠHBs Ag
Ġl enalidomide
tr ig
est ablished
lev ant
Ġlip osomal
loy ment
ĠSA H
Ġrefr active
ĠReduc ing
ĠTS H
Ġbrom ide
Ġs weet
Ġas king
ĠIn take
Ġy ielding
Ġdi athermy
ast in
Ġanti diabetic
Ġsim ply
Ġtrans rectal
Ġprem olar
Ġconce aled
Ġseal ants
Ġinvent ory
b lood
o ke
Ġr t
ĠI BD
ĠPro long
Ġdefin ing
Ġemp owerment
Ġbel ong
ĠDis trict
hal f
Ġblast ocyst
1 03
ment ing
Ġinter fe
ĠE FS
to gether
ĠIII B
amb ia
merg ed
Ġg alantamine
ap pro
ĠIn fusion
ĠU VB
Ġadv ances
sel t
ĠSer ial
Ġbed s
ĠMR C
Ġcompet ing
Ġact uarial
Ġspectro scopy
e levation
s ky
Ġ UL
Ġre treatment
ĠE vent
Ġal arm
Ġfl ud
Ġbr ing
Ġcycl ic
pro v
ĠY et
Ġdors iflex
Ġtrain er
Ġord inary
Ġc roup
an ch
ĠD AS
ag ue
ord ered
Ġmar ried
tric itabine
13 3
Ġcaps aicin
Ġpack s
Ġuns cheduled
rogen ital
ĠOxy gen
Ġconjug ated
Ġpiro xicam
I CS
S O
am a
Ġche z
sequ ent
Ġmaxim ize
Ġutil isation
Ġsign aling
Ġsle eve
ĠNutri tional
Ġplacent a
at adine
os ive
Ġst ance
ab ismus
ir con
ach oline
crib ing
ĠCA F
Ġhypogly caemic
OT PAR
Ġproprio ceptive
ĠL td
ici le
me al
ism uth
Ġprovision al
Ġwarm ing
Ġurtic aria
ĠC AC
ĠR apid
Ġbe i
Ġmed roxyprogesterone
Ġag ility
rel ative
Ġdys thy
Ġcounsel or
rolog ic
Ġincor rect
Ġolog ic
osp asm
Ġdifferenti ated
pub lished
selt amivir
ut tle
Ġres erved
ure th
per ceived
acy clin
Ġflu ency
ĠCO M
Ġsugges tion
Ġele mental
hen azine
ch icine
ult ation
Ġpot ency
Ġtheore tically
D es
Ã §
Ġt idal
Ġr ising
ĠE levated
ĠW S
Ġinf iltr
gr ade
ĠSur ge
ĠMal aria
ots tr
ĠSUMM ARY
Ġdec l
Ġtotal ly
Ġdelay ing
Ġneuro endocrine
Ġsoc kets
Ġextens ors
emp tive
Ġwatch ful
d em
Ġcon form
if en
ĠW BC
Ã© t
ĠWhe reas
Ġh ospice
st yle
Ġhyper tensives
ĠUn ique
Ġretro pubic
Ġfram e
ĠEF V
roll ment
Ġcada ver
H ome
Ã ´
as tigmine
ĠI ron
act ures
Ġne ovascular
Ġdr ains
Ġ22 6
Ġrad ic
Ġrecip ient
for ce
Ġrin sing
Ġcarry ing
Ġcrest al
osorb ent
Ġbari atric
r ating
ic ating
Ġb inary
ĠM W
ĠIn tent
Ġcare r
ĠCON T
ox aban
Ġmid line
Ġdil tiazem
dial dehyde
instit utional
an ge
Ġh app
ĠH O
Ġ25 6
TE NS
Ġfin asteride
Ġcontr ac
Ġmass es
Ġplate au
Ġscrew s
Ġlutein izing
odia quine
Ġ3 01
ĠF ree
atis m
Ġdig it
amb uc
Ġanticoagul ants
ĠBo ard
Ġspr ain
rem ity
Ġconting ency
Ġaler ts
as ted
Ġf um
ec ia
le es
oci ties
Ġmedi ate
ret ory
iaz ine
O b
ĠC ST
un ar
op ioid
iz ers
Ġid a
Ġsk illed
ĠPhys iotherapy
ibr ated
ĠMal aw
Ġemphas ize
Ġcleans ing
B O
l ate
p y
an in
Ġr ub
Ġphys iology
Ġsel ectively
Ġman dibular
Ġiniti ative
Ġpo uch
ĠSe attle
Ġchlor promazine
Ġsustain able
Ġcing ulate
a iting
al anine
Ġgroup es
ĠS PSS
ĠInc ident
fr action
Ġvoc ational
b endazole
Ġf ill
uter y
ĠAc upuncture
ĠSub sequent
ĠRet ention
Ġlum en
Ġcod es
Ġnasoph aryngeal
Ġo xim
ĠF ace
Ġx ylitol
opath ologic
azol amide
Ġcomfort able
Th er
ĠHep atitis
rosp inal
Ġpam idronate
Ġdac l
e til
Ġm um
et ra
op ecia
Ġdi aphr
Ġadv is
Ġax ial
Ġpreser ve
Ġvel ocities
Ġpy el
Ġhypn otic
ĠAngel es
Ġt ut
Ġo sse
Ġd omic
Ġb re
Ġg ases
ĠP ercutaneous
ĠAn throp
pre valence
Ġdry ness
Ġrestor ative
Ġa men
Ġo edema
ace pt
ĠG W
ĠTh ai
Ġhospital ised
Ġcho osing
Ġallerg ens
Ġmetabol ite
ĠNiger ia
he al
Ġf ondaparinux
Ġ< .
Ġab duction
Ġ23 4
Ġgly cemia
gly cemic
Ġprim igravid
Ġcyclospor in
Ġappendic itis
d ney
ĠB AL
ĠG ST
Ġdes cending
of sky
Ġmic ron
ĠCA R
Ġoste ocalcin
ĠCons istent
ĠDo es
ux ostat
OG Y
Ġcry otherapy
Ġhall uc
P N
Ġw ent
Ġb ovine
Ġl isted
ot opic
Ġse p
Ġassess es
Ġed itors
ĠCO P
ĠQu antitative
ĠAb dominal
Ġthin king
ĠUA E
othe lioma
T ra
o ic
on ym
on dialdehyde
ot actic
Ġde ad
Ġ25 00
ĠK r
Ġflex or
Ġcircum cision
r ight
Ġc up
th ickness
ab ric
Ġad he
Ġflu voxamine
Ġfibrin olytic
ĠDet ection
Ġcaroten oids
Ġfluctu ations
acyl glycer
ve get
ĠP f
Ġex chan
ĠIn duction
acy t
Ġgluc osamine
000 7
ĠEpid ural
âī ¥
Ġnitr ite
L e
d u
w ater
re flex
ent esis
Ġnot es
ĠL BW
Ġindex ed
ĠAb normal
Ġtransfer rin
Ġcheck lists
Ġaw ake
Ġcomm enced
Ġtransf ers
Ġevac uation
c tion
Ġl on
ĠC amp
Ġcar ious
Ġanti septic
pos ite
Ġess entially
ĠDel ayed
ĠCurrent ly
Ġchem oprophylaxis
Ġpromp ts
ocom pati
Ġdisrup tion
Ġnav igation
Ġgro in
ĠInstr u
t ac
on i
ati zation
ig mentation
Ġdifferen tially
Ġanti epileptic
ty lsal
ran ging
ĠNor we
ĠIm aging
Ġthorac otomy
Ġprotect ors
Ġmaln ourished
Ġneurole ptics
Ġpean ut
Ġ iliac
Ġand rogen
od rine
Ġsh arp
Ġsub jectively
ĠRep ublic
ĠEpidem iological
Ġphysiotherap ists
ĠA UD
Ġreg ulatory
ĠPro phylaxis
Ġfe ed
ĠIC Cs
ĠY AG
ĠSy dney
Ġleuc ovorin
Ġrifamp icin
Ġinsti llation
i omy
er ally
Ġd ens
der g
rop yl
ĠPro gnostic
Ġdetermin ations
Ġpotential s
OL D
ĠAD A
Ġaut ograft
ind ividual
Ġca u
ota xime
ĠVer bal
Ġmer its
Ġble omycin
Ġb pm
ĠE BM
ĠCon stant
Ġcounsel ors
Ġgam b
Ġempir ically
Ġtransc atheter
Ġti rofiban
S pec
Ġc ath
Ġl ic
Ġv ent
ad ic
Ġanalyz ing
gin ine
Ġorth osis
fr acture
ĠACT H
ĠMob ile
ambuc il
1 10
L V
Ġin spec
Ġan te
ĠU V
Ġbenef ici
Ġbr ad
Ġultrason ographic
HC V
angi otensin
12 3
Ġimmun osorbent
ĠMod ification
Ġcomm ence
Ġassay ed
Ġneuropsych iatric
Ġdip ropionate
tegr ation
ĠThrom b
Ġmictur ition
Ġrele ased
ĠKarn ofsky
c odeine
g ic
Ġw ake
Ġc ogn
ĠC max
ĠS n
ĠH L
ĠH om
ĠAn kle
Ġ22 7
Ġ23 1
Ġ23 3
Ġem ail
ĠCR F
ĠTI A
ĠOx ford
Ġbran ch
ycl ic
ircon ia
Ġbe h
ĠMin or
ĠSA D
iop sy
ĠOp ioid
Ġcough ing
Ġimped ance
g ium
Ġc erv
os per
ĠS qu
ĠR AS
ĠW alking
Ġse ated
Ġno tic
ĠG CS
rel ix
pati al
Ġ23 8
cri ptive
Ġhemat ological
ind opril
ifer ol
ĠPP H
omp et
Ġlor azepam
Ġaort a
ĠAltern ative
I M
] )
iv ocal
Ġqu er
ĠPost menopausal
Ġemb edded
ĠIm mediate
Ġcolpos copy
= âĪĴ
Ġp as
Ġan c
Ġf ine
ist in
Ġneph rotoxicity
ĠKore a
Ġintrace rebral
Ġhierarch ical
ĠStro op
ur ium
Ġl ag
igh th
ĠAnal gesia
Ġrepeated ly
osa hex
ĠTM Z
Ġdors olateral
Ġdispens ed
sulf amethoxazole
in amide
Ġm M
ant oprazole
Ġanti hist
Ġcomple teness
ext remity
au ge
Ġelic it
bes artan
- (
T wo
i j
ow ered
ĠS CL
ore tical
ĠIn termittent
ĠF low
ĠE mo
ix is
Ġoc clusive
ĠÎ º
Ġopportun istic
mis artan
Ġdefec ation
ifen acin
ĠNorwe gian
v ity
oper able
ex amin
Ġdiff icile
Ġcat as
ĠCy cl
in burgh
Ġan ter
ac tivation
Ġno tification
ack et
Ġidentif ies
Ġter iparatide
aw a
Ġaspart ate
Ġdiscrep ancy
ĠToler ability
Ġipr atropium
Ġd im
un ately
Ġpre load
ĠPl ay
Ġsu fentanil
ĠTM J
Ġposts troke
Ġp od
Ġan ov
Ġn arrative
ĠIn jection
Ġcal end
ĠAd d
Ġcalc ipot
rup le
Ġdramatic ally
Ġresur facing
Ġ !
in o
ĠP Y
Ġde ux
ĠR RT
Ġbas iliximab
de oxy
ĠAs pirin
ins ul
Ġvolunte ered
Ġeth n
ocon azole
ĠElec tronic
Ġcalcit onin
ĠEstim ated
ĠRheumat ology
ĠQual itative
S ingle
o ured
t ains
Ġm oxifloxacin
ĠC ef
ven ile
Ġexp ired
Ġ22 9
lace ment
Ġlymph ocytic
ĠTim ed
ĠLike wise
re a
Ġf acet
Ġcon verting
ut y
od ds
Ġse asons
mp hed
Ġco ated
cl amp
ĠCon dition
Ġneed ing
tomy cin
athe matic
Ġcondition al
stin ence
cy cle
ĠTE A
Ġmamm ograms
ĠPub Med
ĠEnh anced
ĠBiomar kers
ĠExplor atory
1 02
v igorous
om atic
Ġr i
ĠA ging
Ġcom e
el le
ign ant
ĠE PC
Ġ23 7
Ġreplic ate
Ġstap led
h arm
Ġm i
ĠM es
ĠN PV
min eral
Ġsmo ker
rib avirin
Ġgr ain
Ġpul ses
lip tin
trans ferase
Ġvulner ability
ĠNep al
+ /
H ispanic
T T
Ġf oster
ĠO s
TI S
Ġsp asticity
Ġ25 1
Ġcompl ained
Ġtoothbr ushing
Ġdifferenti ation
Ġelectromy ographic
Ġcontemp orary
G l
at acept
ĠC er
ĠA ffec
uc tal
ĠU rine
Ġinhib iting
ĠIV R
Ġbin ders
meas ured
U sing
an esthesia
ar ic
Ġcom bine
ĠH op
ĠB S
ĠB ifidobacterium
ĠV entil
ĠSD M
ĠMul tid
Ġincon tinent
app ed
Ġacc ru
Ġinstitutional ized
Ġsphincter otomy
Ġelectroly te
mphed ema
ĠC ases
Ġex amples
Ġas phy
Ġmon ounsaturated
ĠG em
ĠU gan
ten tional
Ġmeth acholine
cy tial
mod el
ĠDel ivery
ĠAnti retroviral
ĠLS G
acyt oplasmic
g ren
he tical
Ġc ows
ĠCon cer
Ġgluc onate
tives sel
Ġam ifostine
Ġmit oxantrone
ĠAdj ustment
Ġcardiover ter
Ġvasopress or
ĠLeu k
ĠT ex
oc oagulation
ys m
Ġde al
lin ed
Ġhyp ocaloric
Ġregim es
13 0
ĠZ n
Ġchem opre
Ġwind ow
ancre atic
Ġd ed
Ġpre curs
com ple
Ġal opecia
ite al
Ġcareg iving
phen azine
Ġhighl ights
ĠBR CA
Ġgast ritis
ci itis
ĠTran examic
I A
Ġl ansoprazole
ĠW B
Ġcap ture
ĠIL I
asal azine
Ġtom ographic
Ġonc ologists
Ġoverdent ure
ĠDer mat
Ġendod ontic
l actam
Ġp ace
ot es
ĠR Ã©s
ĠN DI
ogr afts
ĠTe mp
Ġproper ly
ĠVer y
Ġof loxacin
Ġl ovastatin
ug l
Ġweek end
ĠL in
TI VE
ob arb
PD T
respon ding
ĠCP M
igaret tes
Ġwithdraw als
Ġsyn chron
Ġshif ts
Ġpractic ing
Ġlaryng oscope
ĠEd inburgh
ĠTra uma
Ġswim ming
osahex aenoic
P ugh
c umin
n et
ĠO varian
AC R
Ġcl ot
med icated
ĠLe v
ĠTE P
ĠCL L
d ec
Ġme gestrol
Ġtr aditionally
Ġdes ipramine
Ġgr ay
Ġlact ulose
Ġsec ure
Ġentire ly
ĠGS H
Ġintim a
Ġenvelop es
Ġregener ation
us hed
Ġl anthanum
oth y
Ġ24 4
ĠImp air
IS H
Ġsper mat
ĠMo tivational
ĠIGF BP
Ġjump ing
Ġdefer red
ĠCere bral
Ġt re
it ro
Ġcom a
tr ast
ĠE st
Ġun a
tis ing
line ar
14 0
Ġaut onomy
ĠEn ter
Ġneph rotic
Ġphen ytoin
Impro ved
Ġglucocortic oids
Ġinsectic ide
derg art
F EV
Ġb odily
am yl
ĠM ich
ĠN ord
Ġk Pa
iss ue
Ġup d
cept ual
Ġstill birth
ĠAr ch
ĠCol or
ĠPe er
Ġblack s
Ġcytom egalovirus
Ġw ine
Ġc ul
Ġe ine
ĠD own
our ces
az osin
ĠCons oli
Ġattenu ates
ĠTD R
ĠFlu id
ĠFOL FOX
Ġimmunohist ochemistry
Ġflup henazine
Ġ( <
ig enous
Ġneed les
Ġ26 5
Ġimmun omod
ĠSo uthern
ĠFunction ing
Ġduct us
Ġdihydro artemisinin
Ġvect or
C F
ar med
ĠS teroid
Ġmon itors
ob ium
RI S
Ġhypot ensive
Ġtele ph
Ġnecess arily
Ġmaterial s
iment ation
Ġnerv es
Ġampl ification
pregn ancy
ĠEth ics
Ġweakness es
Ġnegl igible
Sel f
u tility
Ġto ld
ĠR OS
amin ergic
Ġel ast
man n
RP s
CE D
Ġnecess ity
Ġlact ated
Ġgrad uated
ĠEB RT
Ġpartic les
S R
m id
t ask
w estern
ĠD oses
Ġinf r
Ġmen iscal
Ġ25 3
Ġunderg rad
Ġ26 7
ĠPre treatment
ĠAC P
ĠNa F
ĠProble m
b one
n ar
as ure
is hes
th ysm
Ġsh aring
Ġover load
str a
Ġpsych ologic
Ġing red
Ġthir ds
Ġap ixaban
psych otic
Ġparas ites
l isted
Ġp ic
ĠS Y
og l
Ġmod ulated
Ġcr isis
Ġstress ful
Ġanaly tic
Ġcolon oscop
Ġdiscontinu ations
Ġconcept ual
Ġmum ol
ixis enatide
Ġp ound
th ase
ĠT i
Ġh os
mon itored
Ġpr Ã©
Ġpa uc
ĠBM S
11 8
Ġorder ing
Ġenter ic
ĠBlind ed
Ġphy to
rows iness
P DS
Ġd ark
ĠC RS
Ġif osfamide
ĠCT C
Ġnad ir
w ell
Ġm U
00 001
ĠW T
Ġdi versity
ov aginal
hes ter
Ġconcentr ated
Ġmal ondialdehyde
Ġpredict able
Ġemp hysema
Ġfruct ose
Ġhypofr actionated
in ations
ec avir
ĠM AS
Ġde grad
ost atin
ex amine
Ġ24 1
ond yl
vent ing
Ġhypot hetical
ĠBet ter
ĠSurve illance
Di et
ĠProv iding
ĠProp ofol
evalu ated
RCT N
Ġambly opia
p oly
Ġm enstr
Ġe ighth
ary l
Ġnot e
Ġ24 8
Ġcycl ists
ĠMa ximum
Ġradiograph ically
ĠGT N
Ġhypoth al
Ġethinyl estradiol
ĠQT c
g ral
ĠO ct
Ġpar kinson
ple asant
Ġmet ered
Ġindividual ised
Ġblind ly
ĠSU V
Ġoes tradiol
Ġuter us
Ġsummar ized
Ġpostex ercise
Ġdomic iliary
s k
ĠT L
ign ed
iqu imod
Ġ29 9
rin k
ĠFr anc
Ġallevi ating
t otal
Ġpl aster
ib e
ater nal
Ġpop ulations
Ġpot enti
10 6
ĠElec tro
Ġt ables
ĠR PE
Ġhealth ier
Ġes trogens
Ġflu ores
Ġoste otomy
Ġacet ylcholine
Ġcop per
Ġap ical
mod ifying
iper aquine
Ġamelior ate
Ġtraject ories
ĠPit ts
Ġhyperal gesia
ĠLys holm
Ġc c
ĠS IS
ap ular
ĠR adiotherapy
Ġch amber
ĠE ch
Ġstr abismus
ĠDes criptive
ĠSp O
Ġmes othelioma
Ġdevi ations
ĠVL BW
Ġnucle oside
ĠCareg ivers
etro ot
bre vi
1 04
is co
oc entesis
ĠS TS
Ġis ocaloric
Ġun intended
Ġreg istries
Ġnon cardiac
ĠSt atin
Ġref usal
ĠCV P
Ġana esthe
ystem ic
ĠIdentif ication
Ġmicroorgan isms
p ot
et te
ĠS u
ĠIn tensity
Ġqu oti
ĠSt art
Ġtrans criptase
Ġma kers
roph age
ĠES WT
Ġaccompan ying
ĠSci ences
De velopment
Ġdialys ate
Ġin operable
ĠC DSS
ĠE COG
Ġpar i
ph asic
ĠV alu
pro gram
ĠEn domet
Ġport able
def icient
Ġspous es
D D
at ally
ap sed
Ġper spec
pec tral
ag r
Ġmulti drug
Ġemp athy
Ġalter ing
Ġele ment
Ġinst ances
Ġtoothbr ushes
apent aenoic
Ġelectrocardi ographic
odex trin
k m
ĠT ests
ul f
id ers
Ġpl aus
ĠL AR
Ġind welling
Ġsch istos
Ġfat s
ĠPE FR
Ġcop y
b ec
s kin
Ġp ict
es trogen
im al
Ġl it
ens ed
Ġmin ocycline
oxid ant
ĠSup er
Ġmit ochond
Ġaff iliated
Ġster ling
Ġperspec tives
D ec
E X
ĠN asal
Ġdef ibrillator
Ġhyp ov
Ġevent ually
Ġan k
ĠI TI
Ġres uscit
ĠR est
Ġar g
ĠAc cess
ĠEx cept
Ġref ine
Ġnons moking
Ġpiv otal
Ġdorsiflex ion
Ġs ocket
ĠP ST
Ġpro c
ĠS CC
Ġinc is
Ġpar am
Ġdid actic
med ical
Ġfl oss
Ġexpl oring
reg ulated
ĠApp lication
Ġincorpor ates
ĠPsych osocial
Ġdon ation
Ġdirec tives
Ġfasc ia
ĠCont ribution
etan us
ĠM CT
Ġbas ket
CA BG
OL OGY
orrh agia
Ġbiom edical
Ġcef otaxime
Ġreason ing
ĠPers onal
Ġkinematic s
ĠInte rest
at ent
ic um
ĠM ID
com es
Ġun pleasant
ĠCh ic
Ġconcentr ate
ang le
Ġtaper ing
b reak
d emographic
Ġw aves
Ġin patients
om eprazole
th reshold
ut ations
ĠCom a
Ġneuro t
Ġsoci ally
Ġmac ro
Ġrig id
tos h
ĠREC IST
Ġm Ã©
ri zine
ĠS CT
ĠR ATION
Ġch ond
ĠH IT
Ġun healthy
ax ation
mic ro
Ġ23 6
row n
Ġtri acylglycer
ĠInf a
Ġadvantage ous
Ġamin oglyc
Ġdri vers
ĠOl anzapine
ĠSurge ons
ur ine
ri amycin
ĠS OD
Ġcomp ati
Ġun met
Ġen abled
Ġdo ing
erv es
ĠCA U
Ġserious ly
Ġsw abs
Ġstom atitis
Ġbuild ing
Ġmos quit
ĠBenef its
Ġded icated
6 25
Ġf irm
ul ocyte
ab it
ap ical
Ġinc ur
ĠN early
ĠTh en
Ġ30 8
Ġvis u
Ġlabel s
ĠVari ables
Ġpor tions
Ġaccompl ished
ĠRATION ALE
) <
Ġa OR
Ġp im
os entan
Ġle iomy
Ġend ors
Ġ24 5
Ġfl atus
Ġread er
enh ancing
ĠProlong ed
Ġcom b
Ġen abling
Ġcan d
tit ution
ĠOb structive
ather apy
Ġhemorrh oidectomy
oxid ase
affe inated
Ġconcomitant ly
odil ution
aps ular
Ġtransl ated
ĠSM BG
ano ate
Ġpent oxifylline
Ġres umption
ĠR ome
Ġsh oe
Ġgen u
ĠAn esthesiologists
ĠSc ience
ĠRep orted
bl adder
ĠHD RS
Ġriv astigmine
ĠVol unte
Ġfum arate
c og
or phone
ĠP AS
uc tion
rom orphone
Ġdis k
ult ural
Ġprescrib e
RTI s
Ġendomet ritis
Ġuns atisfactory
Ġpsychiat rist
ic ity
Ġ3 12
ple mentation
Ġbody weight
10 8
Ġ23 9
Ġvisual ization
roph ys
Ġhep atectomy
essional s
Ġrecon c
Ġleuk ocytes
Ġmas tery
Ġbot ulinum
Ġrecover ing
Ġprogest in
Ġadjud icated
Ġradic ulopathy
ĠPitts burgh
Y GB
z o
Ġp il
is tive
ĠA HI
tro chanteric
Ġro utes
ĠSD F
ĠPRO CED
Ġrup tured
h ours
Ġb ismuth
ĠT RE
ĠTh at
Ġest hetic
Ġplay ed
Ġcop e
ĠRT W
Ġprem enstrual
azol in
Ġfund amental
osupp ression
ĠEP DS
Ġlay er
Ġcran ial
Ġdenti sts
Ġdispens ing
respons iveness
Ġconsul ting
draw al
F lu
H PV
x io
Ġb ad
ul us
ĠB org
Ġanti gens
Ġ24 2
Ġ24 9
Ġsyn cytial
troph izing
ĠMG MT
oche motherapy
Ġbenefici aries
M V
f ol
f rom
Ġb gr
ĠM orphine
Ġde v
tim icrobial
vere xp
ĠAn tic
Ġtele health
Ġion omer
ape z
Ġbrad ycardia
G en
ĠC ore
od ys
Ġmon ey
Ġpost ulated
Ġins ights
Ġpredic tions
Ġfin ally
aff ic
Ġslow ly
ĠFD A
Ġpartic le
ynchron ization
Ġophthal m
I nd
h er
h aled
l azide
ĠM erc
Ġ3 000
Ġres veratrol
ĠD MS
end in
lic lazide
Ġcol chicine
Ġmy c
Ġmy ocardi
ĠTr ained
umin ation
MD A
Ġpal iperidone
Con tinu
Ġreproduc ible
Ġbisphosph onate
ĠCri tical
ar cer
Ġcon vers
od ing
Ġsub m
Ġal umin
Ġrec ons
Ġhem i
Ġdom estic
Ġcircum ferential
ĠReduc es
Ġdepri ved
Ġmidw ife
G A
e ed
e vent
ĠT NS
am ole
Ġcontro versy
AS A
Ġindic ative
ĠK a
ĠRep lacement
Ġreal istic
ĠCF U
Ġcoup le
ospor in
oxy ch
Ġhighl ighted
ze tim
ĠNG AL
Ġnotic ed
M in
e ast
Ġo seltamivir
Ġm athematic
im azole
Ġde h
Ġexerc isers
ĠEn viron
Ġheavi ly
ĠMalaw i
Ġpyel onephritis
zetim ibe
s ilon
ac iÃ³n
Ġmon ocyte
Ġsh uttle
ĠU RL
ry o
CI S
Ġclus tered
ĠPT A
Ġchlor ambucil
Ġtib ia
Ġtransl uminal
ĠAppro ach
ĠHead ache
ĠChic ago
2 000
B L
N CT
a j
Ġp yr
ic l
ĠB erg
tiv al
Ġk ind
Ġmethod ological
Ġbo otstr
Ġskin fold
Ġmel asma
Ġdimin ish
Ġmoist ure
Ġpostp randial
ul ent
ĠCom ponent
amm adex
Ġposs ess
Ġrepair s
Ġlist ening
ĠIs ra
Ġstri pping
ĠDef in
ec on
ĠF ull
ĠL aser
ĠTh ough
Ġes tr
ĠPr agmatic
Ġhel met
Ġrest ore
ĠCP C
oz oa
FT C
Ġcustom ized
s u
at ab
Ġm apping
Ġf ifteen
Ġ( +/-
Ġe uro
Ġr ational
ĠA stra
ĠI E
ĠM acin
Ġco il
05 4
ole ic
Ġoper ational
Ġrespond ent
Ġacet azolamide
ca utery
ĠHA MD
Ġrevascular isation
Ġrecall ed
Ġpeg filgrastim
phys ician
Ġkeep ing
icos apentaenoic
g us
ch i
Ġ24 7
Ġpsych otropic
Ġdifferent ly
Ġep silon
Ġrecru its
pro cedural
pro cedure
Ġlymph oblastic
Ġsyn ovi
Ġconfirm ing
acet yl
Ġquanti fication
ĠGeneral ized
ĠUp per
Ġflav anol
Ġenrol lees
yrid amole
N E
in tensive
Ġre bound
Ġwe l
ĠT ub
ur in
ĠA v
oc cur
op inavir
Ġsh are
Ġun ion
Ġen ables
av entricular
Ġte ens
Ġcol p
Ġly mphedema
Ġsus taining
ĠNe ut
ĠInf arction
Ġequival ents
eli ef
Ġele ven
ĠImpair ment
it our
am en
05 0
Ġ25 5
Ġmulti pl
Ġsyn thase
stim ulation
Ġcereb rospinal
Ġsquare s
ĠTransplant ation
Ġpartur ients
itour inary
Ġin otropic
ĠC el
ĠIn patient
Ġhe ated
Ġne ostigmine
lo ating
ĠL MA
amin al
Ġexper tise
ĠAd equ
Ġju venile
Ġdisrup tive
ethnic ity
osorb ide
ĠAther osclerosis
1 15
] ).
Ġs arcoma
ĠP enn
ap ing
Ġrad icular
Ġ33 0
Ġadop t
Ġglo ves
Ġanthrop ometry
thal idone
ĠOff ice
Ġpauc ity
Ġdegrad ation
d ig
m el
os etron
ur is
ĠM IS
ot rip
ĠB er
Ġrec anal
Ġpos tr
rec ogn
Ġdiagn ose
Ġcoun ties
Ġfit ted
Ġfraction ation
ĠCL D
Ġquad ruple
Ġcommence ment
I P
Ġo z
Ġo at
om b
ĠM H
ĠW ar
Ġnec ro
Ġfas ciitis
Ġcorrespon ded
Ġvas oconstr
Ġsick le
Ġanat omy
Ġstri king
Trial s
phosphate mia
ĠObstetric s
ĠMacin tosh
m ef
Ġc ups
Ġan tral
Ġst ation
ĠA th
est yles
Ġcl ip
Ġ24 6
Ġmen tioned
ĠQ igong
ob a
Ġinte gral
lor a
Ġcorrespon d
Ġfrag mentation
1 12
D V
il le
Ġpro xy
uc k
Ġper indopril
Ġinf ra
con f
Ġintra articular
18 0
Ġtend ons
exp osure
oli osis
Ġartem isinin
Ġgli omas
ĠFit ness
Ġanesthe tics
itre al
obtur ator
r if
ĠP ASI
Ġpro jected
tr acted
em ents
ĠL O
Ġdur ability
Ġ19 76
Ġcoun ting
Ġshort en
ĠIC H
Ġext ending
itud es
Ġlateral is
ĠSR L
Ġsen iors
obacill i
S up
g ments
i ren
om iasis
Ġh old
ac o
ĠE ye
Ġab er
05 6
itor ies
000 9
Ġdiscontinu ing
Ġendot oxin
arri ers
Ġcurric ula
Ġmediat or
Ġamy loid
Mul tic
Ġretard ation
tylsal icylic
Ġgenu ine
ic a
ic ion
ĠR ural
est ane
com pass
Ġ8 50
Ġrec t
Ġdes aturation
ĠRE M
ĠAT P
Ġmac ronutrient
Ġkil ograms
Ġcogn itions
E L
os tim
Ġimp er
Ġpar ap
ix ol
ĠThere after
Ġ28 6
Ġform ulas
ĠReg ional
Ġneurop rot
ĠAppro aches
Ġhaemat obium
Ġdehydro genase
Ġobst ac
Ġmanus cript
ĠSched ule
or ation
ĠR atio
Ġ30 3
ĠCom posite
aging ival
Ġrespons ibility
Ġca ud
ĠIncreas e
ĠClin ician
Ġresul ting
Ġdisadvant ages
Ġdeform ity
Ġaccru ed
b uxostat
Ġpost c
Ġnon compliance
Ġed oxaban
lamm ation
Ġem ulsion
ĠAb stinence
iph asic
Ġbur ning
Ġdil ated
Pre venting
Ġintrav entricular
Ġbil aterally
ĠEpidem iology
abs orbable
Ġonc ologic
Ġbot tle
ĠOK T
ĠMark ov
Ġimmers ion
ICS I
p iperaquine
Ġp antoprazole
Ġm A
Ġr ights
Ġat opy
ĠN iss
ĠE MB
ĠG ene
tern s
Ġmy opia
10 9
Ġjud gment
ĠBel gium
] ;
Ġt rop
al coholic
os te
ur ant
Ġev ol
Ġtr affic
ial ytic
Ġbreast fed
Ġ27 3
pro st
Ġleuk openia
Ġneopl asms
Ġconscious ness
Ġg liclazide
ĠF lex
ist hesis
ĠG h
Ġnon c
Ġ25 9
Ġhyper activity
ĠAn a
ocy tosis
Ġ38 0
Ġlo ok
Ġpersist ing
Ġpersist ently
Ġarteri osus
enth ixol
Ġworth while
Ġethn ically
ĠS il
Ġbe aring
ag in
05 2
Ġ48 0
opl astic
Ġvas cul
ĠMM R
Ġstabil izing
ĠOrgan isation
Ġaccum ulated
Ġparasit aemia
Ġexplicit ly
Ġspermat ozoa
en chymal
Ġe ug
ur nal
id em
Ġnot ably
Ġ28 8
Ġam odiaquine
Ġstate ments
Ġremo ve
Ġleuk aemia
Ġneph ritis
Ġconserv ation
Ġtransp arent
Ġtrack ed
Ġdeh isc
in us
Ġin herent
Ġper phenazine
sel ective
Ġexpl aining
ĠEl igibility
Ġcle ared
Ġresol ve
We ek
G S
K A
Ġa menorrhea
he ast
Ġc ared
Ġn af
ĠP s
Ġass er
mo vement
gen ic
TE R
Ġfib ers
Ġsuper oxide
Ġdoc osahexaenoic
opl astin
Ġacceler ate
Ġdentif rices
Ġhyd romorphone
Ġdog s
Ġbasket ball
D el
T c
ĠM aking
ĠD ialysis
Ġun ipolar
Ġmul tivessel
rel or
Ġmicro circ
Ġ26 4
ĠRec tal
MP LE
fort unately
Ġinstruc tional
Ġsulph onylurea
Ġoxim etry
c igarettes
ro r
il ution
tr imoxazole
Ġpar amed
ile t
Ġsens ations
Ġz irconia
ĠTA VI
apl astic
ĠBI Asp
Ġdisp rop
Ġpor cine
Ġdin ner
ĠHII T
ĠAnthrop ometric
Ġpari etal
ig raine
um Ã©
Ġ4 20
ĠO LT
Ġmen orrhagia
Ġhyper uric
Ġvi ability
ĠPostoperative ly
Ġacceler ation
Ġvideot aped
Ġect opic
o venous
Ġph aryngitis
In tern
ortic osteroid
Ġemphas izing
Ġconstit uted
Ġathle tic
Fe asibility
Ġinterfe re
p owered
Ġn icot
ĠC BS
Ġsp ouse
ĠQ L
arm ing
uss is
ĠPC V
Ġcer amic
oxy gen
post test
ĠNeuropsych iatric
Ġdecompens ated
L aparoscopic
Ġm ans
ven til
ĠO CD
Ġsc ope
ĠV it
oph obia
del ivery
Ġcomprom ising
Ġdisco unting
Ġrigorous ly
Î ³
ĠT W
ac ral
Ġdec anoate
Ġj ugular
amp ros
Ġundert aking
Ġhyperch olesterol
Ġneur onal
Ġfibroid s
Ġreimbur sement
ĠTex as
] =
r ical
Ġd ance
ot ri
ĠF K
all is
Ġ24 3
Ġfe buxostat
ĠCH W
Ġacc idents
BV D
Ġdy e
Ġdifferenti ate
Ġsustain ability
ĠHaem ophilus
Ġorg ans
Ġre w
om ial
ĠI K
el iness
ap amil
Ġbe etroot
Ġac ted
ĠH ol
tim ore
ne ys
co hort
Ġhyper insul
Ġmy om
Ġfib ro
anti tis
Ġorgan ism
Ġelectro encephal
Ġaden oidectomy
Ġlev osimendan
tt awa
Ġoes trogen
Ġtransamin ase
he lin
Ġan xio
is chemic
ĠT issue
ine mic
ies is
Ġar ginine
10 7
Ġpreval ences
Ġanalog ues
ĠRec on
Ġplay er
Ġinstitutional ization
ĠÃ©t ait
Ġshe ath
Ġove restim
Ġspar se
Ġg etting
im on
we b
ĠAD P
dep ressed
Ġadhes ions
ĠSch istos
ĠBal timore
Ġpharmacodynamic s
impl antitis
B MD
ti rizine
en ess
Ġh ope
im inal
ach ial
Ġanti hyper
Ġman ic
ĠHC G
Ġhydro gen
ĠSim ple
Ġquad r
ĠSL N
Ġkin dergart
ĠDys function
Ġabdom en
Ġmans oni
S e
Ġc ram
Ġh atching
ĠA x
Ġpro ce
Ġsub fer
Ġal ters
Ġind ust
Ġsy ring
ric ular
Ġsp aring
Ġ27 4
Ġminim izing
Ġnumer ically
ĠVL DL
Ġnore th
pregn ant
Combin ed
cil astatin
ĠSequ ential
V itamin
d y
y er
ol amine
Ġex on
di et
Ġcar nitine
Ġund es
res olution
Ġep hedrine
ĠAI T
ĠThir d
ĠCM J
ĠTri ple
ĠSm art
Ġflud arabine
Ġdisprop ortion
ampros ate
T O
e per
il ance
duc t
ace llular
Ġ- .
one y
Ġdi ode
Ġob sessive
Ġrec ession
Ġsy rup
Ġ27 8
Ġalcohol ism
cal c
ĠAb use
Ġsupr agingival
retin oin
prof essional
Ġreconstruc tions
n ucle
Â ²
in kg
or is
og liptin
Ġintern s
oric oxib
Ġarom atase
Ġvictim s
ĠSubst ance
Ġs pp
Ġm oving
ĠC DS
ĠA cet
ĠH aw
ĠL ack
UR ES
Ġtri ed
ĠBet a
Ġreinf a
ĠNeu rological
reduc ing
ĠGuid eline
l ated
Ġc ens
ĠE c
lo fen
Ġser opositive
ĠV ideo
ĠAn nual
Ġ26 8
ĠPrevious ly
Ġfrag ment
Ġb and
ĠP ower
ĠS earch
ress ant
em estane
Ġdo ule
Ġhyper lipid
Ġfail ing
iqu antitative
ĠAc c
Ġendot helin
ĠMultic entre
Ġpay ment
Ġcalcipot riol
S moking
Ġform ulated
Ġmechan ics
Ġcolon ized
Ġthromb oplastin
Ġket oconazole
Ġconfer red
Ġcalcul i
N a
w ed
Ġg anciclovir
ĠC arb
ĠW is
ĠG am
gn osis
Ġit ching
tit udes
Ġprof iciency
Ġdiff ers
Ġcere als
vascular ization
Ġelectro de
Ġnone x
Ġglo b
ci Ã³n
bour ne
ĠConf idence
c oxib
m us
ĠR ationale
iv entricular
Ġanti thrombin
Ġeduc ator
Ġet oricoxib
flu oro
Ġge ographical
Ġdiscrimin ate
ĠFranc isco
inkg o
T M
o ve
on to
Ġp aste
Ġc in
ĠS CLC
ĠM VC
tr ack
ĠF il
st he
ĠG O
Ġag ree
Ġpoly ethylene
ĠDis continu
ĠInter feron
Ġchlor thalidone
ĠFr actures
Ġpur ified
ĠAg ency
Ġdiss atisfaction
go ti
re y
Ġt ex
Ġre training
Ġg aps
ĠC RI
ĠS em
Ġinter rater
Ġmon ocytes
oll en
ĠCon d
Ġcal ibrated
Ġ27 2
Ġpoly pharmacy
ĠDe ep
Ġra ises
Ġple thysm
Ġimplic it
Ġenl arge
g a
l ings
v asive
in itrate
Ġt onsill
ĠD OT
Ġne f
13 1
che motherapy
arr ing
Ġrot ational
ĠRadi ographic
Ġhypoth yroidism
escal ation
Spec ific
v ative
om orph
ul ing
Ġr heumatic
ol isthesis
am oxic
tr act
ĠO V
ĠD ynamic
gr aft
Ġent re
other apeutic
Ġunc or
Ġpal mit
ĠEV AR
Ġdynam ometer
onym ous
ĠUgan da
Ġinc isions
ĠB as
Ġtr apez
ef ovir
Ġcalc ulating
Ġneu rophys
Ġradi ologists
Ġthromb ectomy
Ġelectro cautery
otal ol
ĠRep ro
ĠSystem s
traum a
Ġproprio ception
ĠDoc u
Ġendors ed
R ole
ĠT ext
ig inal
ĠM ellitus
Ġco enzyme
ich t
Ġmodel ed
ĠEx erc
atur ally
Ġremo ving
ĠImpl ants
Ġegg s
Ġd eline
om ed
ĠT ailored
ac al
Ġl ot
el o
Ġgen itourinary
Ġur inal
ĠST Ds
Ġmuc us
Ġdeclin ing
ĠTK R
Ġmesal amine
Ġhalluc inations
a ortic
ĠR AP
ne eded
Ġcombin es
Ġiniti atives
Ġ28 5
Ġ27 5
Ġoxid ized
Ġincorpor ation
load ed
Ġprec ip
ĠLA M
cons in
Inc idence
Ġmarket ing
Ġtendin opathy
Ġepic ondyl
P rom
P CI
c ast
h om
u ge
in ity
id en
ĠM DS
ad iazine
ĠD ual
Ġ5 50
ast arch
Ġdr illing
Ġangi ogenesis
Ġphosph ory
ĠSA MPLE
Ġdil ution
Pre operative
Ġna Ã¯ve
Ġadvertise ments
Ġnewslet ters
Ġschistos omiasis
O s
d oor
on ates
ĠL N
amin ated
Ġ30 2
Ġid enti
Ġatt ached
Ġure th
ĠCommun ication
ĠHem oglobin
Ġnucle otide
Ġcompan y
ĠSNP s
Tra it
G s
he astern
ĠM emb
ag relor
Ġk iller
Ġdep os
Ġlat est
En h
Ġneuros urgical
a ut
id neys
am ents
ĠR H
Ġis ot
Ġprog en
Ġins ole
Ġhom ologous
ĠDys p
Ġmyocardi um
otrip sy
Ġm ism
Ġl opinavir
ad el
ĠH um
ĠE U
ĠE DSS
Ġcardi oprotective
Ġvide os
Ġhypergly caemia
Ġtric eps
Ġgynec ological
worm ing
k eless
Ġr ap
Ġst romal
ignific ance
ĠE conomic
ĠW ater
Ġman ia
ĠCB F
ĠAccording ly
Ġtric yclic
Ġfulf illing
Ġmigr ation
Ġmitochond rial
Ġh MG
Ġch oler
ĠL ibrary
form e
Ġshould ers
pro ximal
ĠAN C
ĠOp timal
enh agen
ĠMel bourne
Post operative
Intra venous
Ġpolyphen ols
Ġcyclo oxygenase
ro cedural
od ronate
Ġinf lation
ĠG R
ĠG el
con serving
Ġtrans m
Ġorgan ic
Ġcyt arabine
OC F
ĠCa esarean
Ġdip yridamole
MM F
Ġdysthy mia
Ġcand id
l oc
p o
s ystolic
ĠS LE
ĠO ttawa
ĠF MS
Ġprov ince
Ġelectro phys
oprost one
ĠRel ationship
CP B
ĠSurv ivors
ĠFF M
ĠCop enhagen
brevi ated
Ġt ilt
Ġb ag
ĠT a
ĠH ormon
Ġsub d
Ġdr ank
ĠDis charge
Ġfall ers
Ġanastom oses
Ġlabel ing
ĠOste oporosis
ĠIntr ac
ĠTum ors
ĠExper iment
Ġabsorb ed
ĠWis consin
us ceptib
ĠT am
ĠS cler
ĠN CI
Ġsy m
pl ants
Ġ19 81
Ġ30 4
Ġsp rin
Ġcr iminal
Ġbi ocompati
ĠAD R
Ġconsult ant
Ġexce ed
Ġnoc iceptive
heres is
ĠANALYS IS
D ex
N eu
m ectin
Ġe icosapentaenoic
os urgery
ac upuncture
ĠM CS
ĠM icrob
ĠR oy
Ġhem isp
Ġir besartan
Ġ31 5
MP S
Ġfacilit ators
ĠCM L
ners hip
ĠTrans fusion
rogen ic
ĠNep h
Ġmaneu ver
Ġadhe red
ĠNiss en
t aking
ĠC u
Ġ3 05
ĠH PA
ub ated
ĠF H
Ġy es
Ġprogram ming
Ġdes ogestrel
Ġsp ring
par ticip
ite ment
ispan ics
Ġirrit ability
ĠEB US
AB STRACT
Out comes
re perfusion
ĠT GF
ĠC ER
un tain
ĠM PS
Ġas ym
ĠG ing
Ġfunction ally
Ġanti arrhythmic
Ġ26 1
osph ate
Ġbecom es
ĠRot terdam
sthe oretical
h i
l ab
re gn
re fer
id ural
il ed
ap one
end ant
Ġsh op
Ġco operative
lu oro
Ġ30 6
Ġj oin
ĠCA PD
ĠRec ord
Ġhom ozygous
Ġflex ors
Ġspon ge
Ġdiarr heal
kine tic
Ġlum pectomy
Ġori ented
Ġhydrox ide
ĠMich igan
ĠSchistos oma
t uzumab
us ting
ĠT MP
Ġr FV
Ġper ine
ĠN R
ĠAl together
cer amic
Ġdist ances
Ġ27 9
Ġintegr ate
agon ists
ĠCor responding
Ġconges tion
B enef
re ened
om ated
Ġe ighteen
Ġwas ting
ĠM N
ĠR FS
bo flav
Ġconsum er
Ġ26 9
Ġregression s
Ġsw ab
Ġmedi ation
ĠContr ast
Ġling ual
Ġsemin al
Ġabdomin is
M et
j ejun
u ters
it ch
ar a
Ġ27 6
000 8
dep th
Ġprolong s
Ġmes orectal
for ward
ĠcT nT
Ġcalend ar
c isplatin
f are
at osis
Ġb aro
Ġb loating
ĠThe ory
ĠM or
ep in
ĠV P
Ġpat ella
ĠCP P
yr one
Ġcer tified
ĠSel ective
Ġfil ters
Ġdil uted
Ġcure tt
ĠGH Q
Ġpenetr ation
opÃ©r atoire
ĠTor onto
Ġcompati ble
z olizumab
ti r
ch lor
Ġsc hem
cl osure
ĠUn fortunately
Ġstrength en
ĠFr acture
D isc
ĠA ortic
ĠTh oracic
ĠU D
Ġhyper phosphatemia
Ġmic roscopic
13 5
mol ality
Ġbroad ly
itiz er
Ġepile ptic
ĠSH BG
Ġspirit ual
Ġbill ion
adem y
ĠIK DC
Ġs ke
it ening
Ġd uctal
ĠD u
Ã© n
acet am
ampl ing
Ġbolus es
ĠIniti ally
Ġtel misartan
Ġden ervation
Ġmanage able
Ġson ographic
Ġnonpharmac ological
Ġgamb ling
S U
Ġto d
ĠC TS
Ġis osorbide
Ġar rests
iti vi
ĠPh ot
Ġstrati f
Ġattrib utes
Ġreason ably
my ocardial
Ġsem iquantitative
Ġhippocamp us
Ġclimb ing
Ġambul ance
Ġaeti ology
Ġcatas trophizing
or tium
Ġd rowsiness
Ġh olds
Ġim iquimod
Ġinter observer
ĠB CS
ĠO X
ip e
Ġtr y
ib ilities
Ġab rup
Ġlif ting
Ġdos ed
Ġsa w
Ġcell ulose
Ġz ona
Ġam n
Ġbreak s
ĠÃ©t ude
Ġsusp icion
Be havioral
Ġbath ing
Ġdesens itization
Ġelabor ation
C RT
S h
a ven
Ġt inea
ĠH ispanics
ĠN ative
co ag
Ġwork st
Ġent ecavir
label ed
BS I
ĠInf lammatory
Ġurg ently
Ġrit onavir
ĠCop ing
ĠC aries
Ġinc ompet
Ġch arge
st ress
ES IS
Ġab ortions
Ġpress or
Ġspec tral
ĠII EF
Ġloc king
ĠHS CT
Ġconsequ ently
ĠcT nI
Im mediate
oxych olic
itivi ties
re mitting
Ġp T
ce le
ĠP MT
ud in
ĠG irls
Ġly s
ĠME MS
odyn ia
lam ivudine
ĠDrug s
Ġelectromy ography
m mol
Ġw ire
Ġb ru
Ġb acill
Ġr aw
ĠH ouse
ag linide
Ġk idneys
Ġop tional
ĠToler ance
Ġlozen ge
P B
Ġt ree
Ġc il
Ġb are
Ġre ti
om inant
ĠT el
ĠP i
am ustine
st rength
ĠG VHD
Ġcor rob
Ġdep osition
Ġ28 7
Ġ27 1
ĠInter val
Ġcis apride
Ġoxid ase
Ġrit odrine
ĠNA F
ĠPharmac ists
Ġfist ulas
Ġabst ain
Ġuncor rected
Ġre tic
Ġse ed
Ġpost anesthesia
Ġun published
ĠRes id
ĠV en
Ġwor n
ĠAT V
ĠIT Ns
ĠEnd othelial
ĠHem at
Ġneopl astic
Ġopin ions
Ġnation ally
Ġmorbid ities
ĠHop kins
M ET
ur v
iv izumab
ĠB ry
ĠD BT
Ġsh ivering
ult ats
emb olic
sc reen
atur ia
compl iant
Ġinterest ing
eff icient
Ġhs CRP
Ġquick er
ĠPB O
b s
lin es
ĠG DS
ser opositive
ĠAt orvastatin
mb ol
Ġ28 2
Ġcontr ary
Ġlung s
Ġrecur red
RA D
Ġquit ters
yr us
Ġconstit u
Ġintell ect
dif ference
P ain
l og
t te
al is
Ġh in
Ġintens ification
Ġter tiles
Ġ26 2
Ġfem oris
ĠST AI
orrh aphy
Ġacco unts
Ġcef azolin
Ġroom s
Ġkine tic
Ġepit helium
Ġconting ent
Ġintell igence
ĠMis oprostol
Ġsubstr ate
Ġmyom ectomy
ĠT HC
Ġn aturally
Ġcon g
Ġcon ference
se x
ap or
ĠR oche
ĠN L
ance ment
ĠL AD
Ġprog ressing
Ġtrans plants
Ġ26 6
Ġu rogenital
ĠRem ission
Ġleaf lets
ĠSTI s
Ġperf ect
etra hydro
abric ated
boflav in
- ,
B B
M orris
p uts
s aving
it ate
ve y
ser vice
Ġmo untain
Ġexp ense
Ġ27 7
Ġ29 0
Ġlaparos copically
Ġmeth icillin
tile vel
ĠRegis tered
ĠInstit utional
ĠMay o
ĠID DM
Ġrelie ved
Ġincons ist
Ġappend ectomy
Ġlith otripsy
Ġinspec tion
Ġf ol
ĠT in
ĠT HR
ot tic
ĠR DT
Ġom is
ĠN d
05 7
Ġ26 3
Ġcur cumin
Ġfer mented
Pro phylactic
ĠIs l
Ġalle les
ĠPO MS
Ġdop examine
Ġexist ence
ĠUr ban
Ġfair ly
TIC AL
Ġindust rial
b el
Ġa way
im aging
ab we
ĠR BV
ĠF ecal
ag atran
ĠG ender
Ġar ising
Ġboth ers
iagn osed
Ġhyp othermic
odyn am
ĠZ inc
Ġquantitative ly
Ġassum ing
ĠPub lished
Ġenjoy ment
ĠSTA TIS
Ġdisl ocation
in qu
ol enic
ĠB ro
Ġdi urnal
Ġdec iding
Ġflu oro
Ġpediatric ians
Ġlact obacilli
Ġoil s
Ġtro chanter
ocar pine
Ġsumm aries
ĠPU VA
imb abwe
Ġoroph arynx
ĠPharmaceutical s
H ow
W P
in ate
ĠT UG
ĠL PS
Ġcardi ology
Ġ25 4
ĠProgram s
incip al
ĠAR B
Ġsil ent
Ġmail ings
ĠADL s
Ġnarrow ing
Ġcatechol amine
ĠRoy al
c itation
m otor
â ģ
ul cer
ĠR CC
Ġ4 000
ĠB acterial
Ġpl asticity
Ġafter care
ĠL U
Ġtwo fold
sy l
oles cent
Ġcontrib utions
loy ed
Ġfavour ably
Ġnatural istic
Ġbin der
ĠRem ote
Ġonc ological
ĠComputer ized
ĠKr us
Ġreconc iliation
F M
b ility
m ac
Ġb iphasic
ĠR os
05 9
ect ure
ĠZ imbabwe
Ġcounse ll
sh aped
Ġthyroid ectomy
Ġmanif ested
nec k
ĠMU FA
Ġgall bladder
ĠMinim al
Ġcardiople gia
Ġpel vis
Ġosse oin
Ġquoti ent
Q ALY
i en
ation ally
ul ence
ver mectin
ip arous
Ġno vice
ph ia
Ġcor p
Ġlif estyles
Ġwell ness
rough t
Ġprot ects
Ġ36 5
Ġer a
Ġ31 1
Ġfav oured
ĠPC Ps
upp e
acet aminophen
ĠCol umb
Ġactin ic
Ġsuppl ied
ĠEMB ASE
adel phia
Ġch ir
Ġne goti
Ġpred i
Ġ28 9
Ġref ill
Ġoff ic
gin ate
ode oxycholic
ĠProv ince
Ġcalcul us
Ġperm uted
N on
Q u
z olid
Ġre med
ĠP olic
ĠW A
per formance
12 9
Ġfract ured
ĠIV IG
Ġap noea
okine tics
ĠTe ach
Ġinterpre ting
ĠWor kers
Ġped icle
ĠEth iop
ĠBry an
Ġe zetimibe
Ġnot able
Ġser oma
rop yr
to b
ĠFI M
ĠMS Cs
ĠMETHOD OLOGY
Ġfeeding s
Ġgu ar
Ġspondyl olisthesis
ĠPhil adelphia
Ġdehisc ence
b ach
or tical
an avir
ĠP ID
Ġse pt
Ġdec ide
rop ine
Ġ19 79
ĠAt tention
ĠPar ame
Ġbacter iologic
Ġeas tern
Ġidi asis
ĠPrac tition
m enstrual
ĠT ro
ĠP ool
oc ys
Ġpro jects
op exy
um e
rom e
ĠN D
ĠW LC
Ġran ked
Ġcar dia
Ġpred isp
Ġmulti forme
Ġcontr ad
Ġultr a
be an
Ġtop ically
ĠTher ap
cy tom
ĠAC C
ĠAL K
ĠRep orts
Ġautomatic ally
ĠQue bec
Ġneurode velopmental
Ġcurett age
F actors
t uria
ti que
Ġp uff
Ġan omal
ĠP IC
ow ard
ĠB attery
ĠD EC
Ġdis pers
CL E
ron ectin
jur ies
ĠInd ones
ĠPost partum
Ġsum med
acr ylate
examin ed
Ġpalmit ate
ur y
ĠB SC
ĠE g
our able
ag m
Ġcal ibration
Ġ29 8
Ġreplace ments
ĠDL B
ĠPercent age
Ġc f
os se
id ium
ress in
05 1
ex ole
Ġdiet ing
Ġfin ished
Ġfl ash
gr aphy
ĠMul tilevel
Ġread mitted
ĠAr ab
ĠSw iss
Ġpass ed
Ġdisturb ed
diagn ostic
Ġtraject ory
Ġdoule ur
m esis
ed le
Ġb rought
ĠA PC
ge tic
00 00
Ġper ceptual
ĠV ictor
ĠK E
ĠMA N
Ġefficac ies
hydro x
Ġmit omycin
Ġpromp ting
ĠIA DL
Ġdisapp earance
Ġsib lings
Ġamni ocentesis
Ġthiop ental
Ġhemo filtration
Ġenlarge ment
Ġcorrob or
Ġthe ories
le ural
os ome
ĠF as
ĠE dition
ĠW H
ib b
Ġconf ers
Ġlong est
Ġpers ists
ĠOn line
Ġvisit ors
arri ed
ĠIg M
Ġpolysomn ography
Ġtrapez ius
L Y
Ġc rom
Ġm u
ĠP aired
oc ript
ĠS it
ir udin
ĠH U
Ġtes ticular
Ġattend ants
Ġconstr aints
ĠFF Q
Ġsusp icious
Ġcompens atory
ĠSSRI s
Ġarom atherapy
molar ity
occur ring
ĠGh ana
ocript ine
B rief
Ġto en
ĠC ET
Ġv om
ĠS ug
ĠS ignificance
ĠM it
ĠM RA
Ġ30 9
Com munity
ĠRespon dents
Ġau f
Ġmach ined
Ġsemin ar
ĠUnd erst
E valu
in jured
ĠC lo
ĠS ing
ĠI H
ĠI tem
ĠN al
Ġun infected
ĠCon comitant
Ġanti social
gr av
Ġexpression s
ĠFe edback
Ġdent ine
Ġcann ula
Ġbic eps
p oor
ti zed
ĠC hest
ĠH M
az anavir
Ġmet ric
Ġfour teen
Ã© ri
Ġ31 4
Ġantic ancer
Ġphen obarb
Ġdri ve
Ġantimicrobial s
Ġdop aminergic
ĠExper ience
Ġpert urb
Ġace tylsalicylic
ce phal
ĠL AP
ĠPar tial
row ing
Ġregis ters
Ġ201 7
ĠGl uc
Ġsci ence
Ġaccom mod
ĠBD P
/ =
S im
V s
h us
Ġan aplastic
Ġl ixisenatide
we ed
ĠG U
pon s
05 3
Ġsmo keless
Ġintr acytoplasmic
rec ord
ĠCH Ws
Ġpercenti les
Ġunde restim
ĠRef er
Ġdin oprostone
terol ateral
Ġcap ability
CO M
Ġent r
arb azine
Ġphot ocoagulation
ĠAg ain
Ġpolyp osis
ĠGC F
ĠGly cemic
Ġcytom etry
Ġalert ness
ĠEmo tional
C ar
r heumatic
Ġs ar
ĠS CA
Ġad efovir
ĠB on
bo xy
Ġsupp ressive
Ġgeneral ised
Ġ29 2
ĠNew born
Ġminor ities
ĠSE L
Ġfacilit ator
Ġpreser ving
Ġintram ed
ĠPF M
Ġreinfor cing
Ġster ilization
Ġbu ilt
Ġauto immune
ĠSTATIS TICAL
u ates
v O
en ol
Ġm RS
ĠA PT
ab inol
Ġpre emptive
duc tive
ĠF AC
Ġsc arring
Ġph ones
Ġcardi o
Ġexamin ers
Ġachie ves
12 2
Ġloc k
ĠRe v
oal veolar
Ġrecip ro
Ġpac ifier
Ġexhib iting
Ġcomm encing
ifer ative
ĠIMP ACT
Ġlum inal
Ġmicrobiological ly
ĠRo ux
Ġauthor ities
truct ure
Ġord inal
Ġnav ig
Ġpert ussis
Ġgenotyp ing
ĠGynec ology
Ġintramed ullary
Ġt on
Ġs weetened
al izumab
Ġd ar
Ġm ug
Ġg ym
Ġg enders
im pro
Ġeff iciently
Ġinc arcer
pec t
ĠSt ock
Ġprov ocation
ie ving
ĠUn til
Ġpart um
Ġsten oses
Ġdiame ters
Ġintrav itreal
ĠBC VA
Ġspir al
coun ter
apt an
Ġventric le
ĠVolunte ers
Ġes omeprazole
ĠUn ified
ĠLe g
ĠMS C
ĠNT R
Ġlect ures
Ġscr ub
P ar
y mp
il ate
Ġas cending
Ġtr initrate
isk iren
ari ans
cin ation
Ġsix teen
Ġ35 6
ĠAc ademy
Ġdisc rete
ĠUS P
ber ry
ĠDe vice
cit ol
Ġpreschool ers
Combin ation
Ġri boflavin
N ew
S p
U VB
l ant
Ġg ol
ĠT N
Ġr onate
ical utamide
Ġex emestane
iv or
Ġas k
Ġro ll
Ġsuc king
Ġ34 0
Ġpath ogenic
Ġaccess ed
Ġintro ducing
ifer y
Ġlabel ed
Ġnucle us
Ġexer ts
Mon th
Ġcaud al
2 01
D O
P ositive
Ġp p
an ed
Ġb osentan
up ivacaine
am es
op es
Ġar ticular
ĠV as
11 4
Ġest riol
ĠInv ol
Ġescal ating
esth Ã©sie
v ania
v itro
Ġa f
Ġg ir
Ġst ake
ĠC ult
Ġimp utation
Ġal ogliptin
af iltration
ival pro
Ġfail s
over ty
ĠAc t
inf a
inf usion
rin one
Ġemb olization
ĠHA Q
Ġappra ise
ĠHep arin
Ġwhee ze
Ġdiscus sing
Ġbloc ked
Ġante partum
ivalpro ex
Ġ ized
Ġo verexp
ig en
ĠC lear
ĠC FS
ĠB ab
ĠW G
Ġpa ro
ogen ol
Ġcap ac
Ġlo oked
use relin
ient o
Ġreinf ection
ĠPa CO
Ġantiem etics
W eight
Ġ ual
Ġa qu
ti a
ĠM iss
Ġres ynchronization
ure as
Ġimp regn
ple renone
ser ved
Ġ30 7
Ġins ide
ĠPro l
ĠCh o
Ġhist opathological
ish man
Ġcap tured
Ġcarri er
Ġconfirm atory
ĠTe aching
Ġglo ve
Ġvasodil ator
Ġstrept okinase
Ser um
Dep ression
Ġurinal ysis
T OR
k nee
in ance
os ens
ĠS un
Ġsc oliosis
ole t
Ġinjec ting
ĠReg ard
ores is
Ġlin king
dl ers
Ġcat ch
Ġactiv ating
Ġtro ub
Ġdiscl osed
ĠPenn syl
Ġprogen itor
Ġo le
Ġy our
Ġ29 1
Ġbo ther
Ġdip yrone
ĠEstim ates
Ġglycer yl
ĠPennsyl vania
re mental
Ġt etanus
Ġc our
Ġst oma
op tic
Ġde worming
ag ger
Ġnon parametric
Ġi vermectin
Ġcl oser
Ġsp acer
ĠCh lor
Ġam nes
Ġerad icated
Ġgon orrhoea
adren aline
Ġchol angi
det ected
Ġundergrad uate
m agnetic
at ural
Ġm astic
Ġm Health
ap ore
ys to
ĠF ried
ĠV CT
Ġ25 7
Ġrequ ests
Ġcri tic
ĠZ ambia
Ġfer rous
met ast
Ġdepth s
Ġbil oba
ĠUl cer
Ġchol est
Ġhumid ification
ĠVir tual
ĠProble ms
Ġflavon oid
Hy per
Ġhypothal amic
a und
p able
ĠM J
ĠH BI
az inamide
Ġmet all
Ġver ification
Ġsal es
Ġcolon ography
Ġglomer ul
Ġerg onomic
Ġcas tration
behavi or
Ġcau tious
Continu ous
n utri
ĠA w
ĠE CC
ĠW alk
avi olet
Ġfib ronectin
aro o
Ġaut op
ang aroo
ĠCE E
Ġsumm er
alc iferol
Ġstrept ococcal
Ġneighborhood s
CON SORT
endin osus
W B
Ġ ign
re habilitation
ĠC li
Ġus ability
Ġ9 10
ĠF ES
av oid
Ġmass ive
Ġmultic entric
14 5
ĠTr ust
valu es
leu rodesis
Ġrepro duction
Rel ationship
ĠContr ary
Ġbronchodil ators
Ġverteb ra
Ġschem es
Q L
Ġst yles
ĠA POE
um en
ĠM amm
Ġres ource
tr ate
Ġpl acing
Ġab und
05 8
ex amination
Ġi PTH
Ġtrans itions
ĠCD C
Ġsed imentation
ĠHospital s
ĠMI P
Ġmineral s
Ġmicrob iologic
Ġconservative ly
Ġconstruc tion
Ġchol inesterase
ann ous
Ġdan ger
ĠDecreas es
Ġrecanal ization
ĠRegard less
o S
Ġn im
il ized
ow a
od ed
ug s
pl ay
ĠV AT
05 5
Ġtrans obturator
Ġver um
Ġatroph ic
ĠMid dle
ĠIOL s
ĠSal iv
comp ulsive
ĠPlay ers
Ġmenstr uation
A t
b en
Ġc ubic
ac ific
ul ant
ĠM orris
Ġcomp lied
vent ricular
ĠCH B
ĠAL N
otom ies
Ġderiv ative
Ġdac arbazine
ĠThrombo lysis
ĠPneum onia
Evalu ating
Ġs tern
an es
Ġg yrus
et ing
ĠE PI
âĢ ²
em o
Ġco inc
Ġtrans cription
tens tein
11 6
Ġhous es
yc n
Ġmesal azine
Ġpseud o
Ġwur den
b et
Ġp ir
ĠC esarean
ĠS upp
ĠR AL
Ġper mit
Ġob ject
res istance
Ġ25 8
rep etition
Ġ34 1
Ġdoc uments
Ġencour agement
ĠDex medetomidine
ĠEff orts
Ġpic ture
ycn ogenol
d ental
l ength
y en
Ġd ol
Ġb odies
Ġst aged
st atistic
Ġmulti p
Ġ29 7
arth roplasty
ians erin
Ġvisc osity
Ġsplin ts
ĠBrazil ian
Ġein er
ĠTransc ranial
z el
Ġin ac
ad d
Ġcl otting
Ġcardi otoxicity
Ġgr av
Ġexp ressing
ole mic
Ġver apamil
Ġdisc our
ĠEngl and
Ġtel ec
prot ectin
ASI K
Ġtoco lysis
cup ational
ĠArch ived
Ġcolp orrhaphy
h ouse
ig id
ol aryng
Ġcon clusive
ant e
ĠO v
Ġhe al
ib er
ĠL ight
ax ia
ĠRe al
Ġx en
bl ast
uls ivity
ĠMo vement
Ġconv inc
Ġfetus es
Ġsomat ostatin
C ell
he art
Ġre ly
Ġper p
Ġinter act
Ġafter no
st udy
ep tic
Ġmeas les
spec ial
ĠSe e
ĠMD RD
ĠES S
abs orption
Ġbrid ging
Ġamn iotic
Ġp unc
ĠC hem
un ion
Ġde mented
ĠB enefit
Ġsub urban
ĠL idocaine
Ġen compass
gn er
12 8
rief ing
CE P
AR D
Ġprim iparous
Ġmotiv ate
ĠSO UR
Ġcorrec ting
Ġvouch er
Ġvouch ers
ĠRh in
Ġconform al
Ġvent ral
ĠEthiop ia
T OTPAR
b acter
l a
Ġd as
is ia
Ġre wards
ot ed
iz ine
Ġres umed
em ide
ild ing
Ġcoun ted
Ġwhen ever
Ġflu x
Ġ29 6
Ġinterview er
ĠCD R
Ġcer tif
Ġforce ps
ĠPH N
Ġconstit utes
ĠKrus kal
w ear
on v
et heless
Ġdis position
ĠCI S
ĠV II
Ġsequ encing
ĠSp ine
Ġattemp ting
Ġlin oleic
Ġheter osexual
Ġang les
anth in
Ġcyst atin
Ġophthal mic
ĠPROCED URES
Ġintellect ual
Ġw atching
Ġin qu
os umab
Ġh us
ĠP BS
ĠR etin
ther petic
ĠN ons
Ġne g
ĠL ich
Ġnon users
lic ations
fen amic
ĠSel ection
Ġfil es
Ġax etil
onyl ureas
Ġanc illary
ĠIsra el
web citation
Ġb er
ĠS ickness
ĠF ISH
ĠN U
st ent
ĠL HR
ĠG ait
Ġreg ained
ox itin
Ġrequ esting
pir one
IN S
Ġstress ors
umab ly
Ġlymph atic
Ġant hel
ĠPres cription
Ġallevi ation
ĠEndomet rial
ĠDocu mentation
Ġb ir
Ġr am
ĠM as
Ġinter proximal
ĠL ist
Ġser onegative
Ġmin s
ĠNo vel
Ġhem odilution
ĠRe vascularization
ĠAnal gesic
Ch ild
Ġendoscop ically
eptid yl
lymph ocyte
ĠPrem ature
Ġincur red
Ġpil ocarpine
T AR
U A
h um
h ai
l ie
l ayer
Ġ \
he ight
at able
an dibular
Ġ3 10
lin olenic
vi er
Ġab users
oin ting
Ġschizophren ics
gl actin
educ ational
ĠSh ang
Ġchemo therapeutic
Ġflap less
ĠAZ A
Ġtrabec ular
Ġlacer ations
H ER
I CAM
en osis
ĠP GF
ĠI HC
ĠN it
Ġpred ialysis
ĠME D
Ġthem es
for aminal
Ġhar ves
Ġerythropo iesis
ĠMCI D
> .
G R
ic ide
Ġ4 10
ĠD ur
Ġnon vertebral
ma kers
Ġhist opathology
Ġ33 6
In s
Ġposition ed
Ġexpect ancies
Ġweak er
ĠID Us
ĠBi ochemical
Ġeffusion s
Ġparasit ological
Ġheavi er
Ġintrace llular
Ġglycer ol
Ġgastroenter itis
Ġlamin ectomy
Ġtut orial
Ġaminoglyc oside
osse ous
C a
n m
Ġf igure
is tein
Ġh oney
reat ing
ĠI CI
Ġy east
Ġco aches
). <
Ġmain tains
)- -
ĠCa ution
Ġclassroom s
Ġmenisc ectomy
Ġtriacylglycer ol
ĠNAF LD
a ided
e valuation
al tered
Ġst ore
duc tor
Ġtr ying
ag weed
Ġintr ag
Ġhyp oal
Ġimmun isation
Ġextr acellular
ĠBP H
RS P
Ġgener ating
hold ers
Ġspe ak
ĠAS CT
ĠGr aft
ĠPO ST
ĠAp o
ĠArth roplasty
Ġment ally
Ġtow ns
Ġshed ding
Comp uter
r TMS
ĠB ronch
val es
ĠV olume
Ġj aund
Ġ32 4
ĠCo up
Ġrefer ring
IT T
mal ignant
report ing
tigm atism
Re vised
ĠBup ropion
hormon al
Ġcerv ic
ĠMerc k
Ġt al
Ġd atab
Ġb an
Ġcomp uters
Ġinf ras
ph eric
Ġag grav
Ġmo ved
Ġachie vable
Ġcounter balanced
Ġparasit emia
ĠTAP P
ĠInhib ition
Ġintrad ialytic
ĠAdequ ate
recogn ized
Ġd ivision
is oprost
ĠC orticosteroid
ĠA ER
ĠS he
og onad
ĠH BP
Ġrec alls
ors hip
Ġpost training
ĠCon current
Ġinv est
kin umab
Ġequ ivocal
Ġpoly pectomy
Ġthir teen
ĠBP I
por ation
aw ed
tid ep
ĠIns urance
ĠCONT RO
c osis
Ġs otalol
Ġb onded
ur icular
ĠS i
ĠS PT
ad al
ace a
feren ti
Ġout per
Ġcor onal
Ġanti fibrin
Ġcl odronate
Ġvis itation
Ġur s
Ġtechn ically
Ġscreening s
cor tical
ĠMA L
Ġ37 0
Ġquit line
Ġintrac ervical
ĠDif f
ĠAF P
Ġpurch ase
Ġhypercal cemia
P LA
W allis
Ġb if
ĠS ST
ĠB reat
Ġdi uresis
Ġvolum etric
11 9
Ġminim isation
Ġoff enders
Ġhypothes ize
AP T
ĠMin istry
Ġcompression s
ĠRel ated
meth rin
Ġpur ulent
Ġcoordin ator
Ġide a
Ġsymp ath
avail able
Ġpiv ot
Ġhyalur onic
Ġpeptid ase
ĠFPD s
Ġhemisp here
. (
C ite
U K
f a
ĠC affeine
ĠP ent
ĠM CP
ĠM igraine
ir rh
Ġac know
ĠB CT
ĠB esides
Ġpl ates
ĠL Y
oth oracic
Ġcoll ecting
Ġbr acket
Ġ31 6
Ġz ones
lip ressin
ĠWeb Cite
Ġinst all
ĠNI H
ĠMal ays
Ġcod ing
ĠLD H
grad uate
Ġrehabil itative
Ġs ores
Ġth ym
ĠA ust
ĠS pr
ion es
Ġac amprosate
ĠB SI
ĠO MT
we igh
Ġse mit
ĠG reen
Ġsp in
Ġhyper responsiveness
ĠIC BT
ĠWith drawal
17 2
Ġoptim ism
Ġleg al
Ġrin ses
ĠSAP S
ĠSing apore
Ġin version
ĠO L
ĠF ibrillation
Ġrep aglinide
Ġun altered
13 7
In tervention
Ġmes enchymal
ĠTe gner
ĠOp tim
Ġelimin ating
car is
ĠPers istent
Ġtra its
Ġtransport ation
diagn osis
Ġolig o
Ġmultivitamin s
Ġexcurs ion
Ġaddic ts
H B
b ivudine
y zed
Ġe metic
op ter
Ġcomp ly
Ġcomp etition
ad ication
tr ac
ĠG B
ĠV arenicline
ĠNT X
Ġcas ual
Ġsac ro
Ġimmuno assay
Ġconjunc tival
ĠConcentr ations
ĠParame ters
Ġharves ted
A NP
M IN
Ġd B
Ġpar al
unction al
Ġthrombo x
Ġpurch ases
ĠLG G
phil is
osper mia
ĠInterest ingly
B r
â Ī
ĠW al
Ġinf ective
ĠL ASIK
dom inant
Ġser ves
Ġdep ended
str y
Ġsug ammadex
ĠRe asons
ĠCA I
Ġexpl osive
itud inally
ĠPer manent
Ġphosph olip
ĠED s
Ġecon omy
Ġpack ages
Ġmill imeter
PE F
ĠBi as
Ġcys to
Ġtic agrelor
ĠGing ival
Ġthrombox ane
ith iasis
ren n
ĠM ill
Ġno tice
ĠParticip ant
Ġclass ify
13 2
Ġresid ency
ĠAN P
Ġmes ial
Ġoccup ation
Increas ing
Ġmec onium
Ġmanufacture r
Ġplaus ible
P G
p age
ĠT RI
Ġfor tified
ĠP os
ot ep
ne ts
oper ated
Ġ28 1
Ġcharacter ization
Ġ32 9
14 9
Ġlocal ised
ĠTr ail
ĠPost natal
Ġaw aiting
Ġinstru mented
Ġestablish ment
Ġcoag ulopathy
Ġsupr aventricular
Ġpare coxib
Ġcatechol amines
Ġstere otactic
agn esium
G r
Ġan orectal
Ġb ud
am ps
ĠI owa
ant om
ion ine
ap ubic
ĠD G
ĠN AS
Ġpar alle
Ġsh aft
ĠG D
Ġar ray
rep res
be it
Ġet anib
yst atin
ĠSP ID
ĠSh am
Ġaneurys mal
Ġcompet ency
tigr aph
Ġyog urt
Ġcath odal
Ġtre mor
Ġcholer a
K D
Ġ( +
ur c
Ġdis mut
Ġnon contact
oper ineal
Ġrem itted
Ġexp ress
ĠPro gressive
Ġcommun ications
ob ronchial
11 7
Com paring
ĠUK PDS
itiz ing
Ġdefinite ly
pi ece
Ġcadaver ic
Ġneurot oxicity
Ġneuroprot ective
Ġundes irable
ĠShang hai
T ime
i renone
p rol
un gen
am is
ch oice
com m
em uls
Ġmo ve
lev ance
ocy an
Ġteam work
Ġobstetric s
rosp irenone
ĠStrateg y
Ġprecurs or
adal afil
Ġdismut ase
A RS
u mented
Ġan abolic
Ġab ol
Ġdel inqu
14 4
Ġz oster
Ġoptim izing
AR E
Ġtrig gered
Ġvas ospasm
ĠTA M
Ġov ulatory
Ġslow ing
ĠTO F
Ġuter otonic
microg lobulin
lem tuzumab
Ġingred ients
M o
p rit
er y
Ġin ference
Ġf old
Ġto x
ĠT OT
os arcoma
ĠP ycnogenol
Ġde aling
Ġas tro
ĠN erve
Ġsub class
ute al
Ġsim ulations
Ġ32 3
Ġfac es
Ġimpair s
ĠPE I
Ġtemp or
Ġlin ks
Ġwr ap
ĠEvalu ations
Ġoverl ap
Ġapproxim ate
ĠTrich uris
ureth ane
P RO
r ists
s tick
Ġa ux
it ness
ic he
ĠC igarette
op nea
ĠM ess
ĠR esting
Ġpl a
Ġpl ot
ĠF RA
ĠN MDA
ep tin
ron i
Ġcoll ateral
Ġ28 3
15 4
Ġstay ed
Ġhypothes ised
Ġrout ines
part ate
Ġrecommend s
arox etine
Ġviol ent
Ġafterno on
R ich
m ade
re placement
Ġp yrid
ĠC at
ĠI PS
Ġres piration
com ing
Ġco ach
Ġperi apical
Ġsuc ce
In duced
ĠCareg iver
Ġchur ches
0 75
Ġth iazide
Ġat azanavir
ĠF all
Ġtr ade
Ġun equ
Ġpo ison
Ġ32 1
Ġoste oarth
Ġintro duce
Pro gnostic
Ġfavour ing
Ġchem istry
ĠCross over
AB L
Ġeros ion
F F
t hemat
er ical
at re
an i
ce in
th ym
ly cemic
im otor
Ġr agweed
ĠR G
Ġcor n
fer roni
ĠAd ap
Ġdys lipid
Ġcharacter ised
Ġpeak ed
Ġremo vable
Ġsection al
ĠSI RS
Ġtib olone
ĠBehavi our
Ġtow n
Ġharv esting
symptom atic
ĠrFV IIa
ĠPolic y
- /
b ase
d ecoxib
i ently
l one
s ized
Ġt PA
ĠT ID
os ensory
ol ide
ab in
ĠM MT
Ġat ropine
ĠO AC
Ġco operation
Ġk its
ĠTo oth
requ ently
ĠAn emia
Ġnur ser
ĠMed line
Ġradi ologically
ĠÎ ·
Ġsignific ative
Ġconce ived
ĠHyp othesis
Ġmidw ifery
Ġaler ting
Ġdiver tic
Ep o
Pl asma
Ġhol ding
Ġasym metry
ĠLich tenstein
Ġm im
ĠC ron
ĠS oft
Ġrep osition
Ġdec e
ting ent
iagn ostic
Ġcommun icate
ĠHe aling
Ġ29 5
11 1
ĠReg ion
ĠUS D
Ġwk s
ĠMethod ology
inter pretation
neu ropathy
ĠImportant ly
x il
Ġs Ã©
Ġc ash
Ġf ati
os itis
Ġsens itivities
In tensive
MD I
Ġmedi ans
Ġstimul ant
ĠAR R
int ubation
Ġturn ed
Ġang ular
ĠHem odialysis
Ġdistingu ished
Ġuro kinase
b linding
in ing
an amivir
Ġb ig
id o
un ia
Ġcom ments
ĠM eta
ĠB AS
ĠO I
ĠO ME
are unia
ĠL iter
Ġman ometry
ak ed
ĠPA L
CA R
Ġpneum oth
ĠAE D
ĠPRO M
ĠAg itation
ĠLS M
Ġdeb il
ĠObser vation
fil m
Ġneigh bour
Ġalcoholic s
ĠPat terns
ĠTur key
ĠComple x
lun isal
N N
n ov
w a
en ec
Ġp leurodesis
Ġin gest
Ġm ianserin
Ġn ab
ĠE ar
em inal
Ġdes tr
Ġrem issions
Ġpoly glactin
ĠTr ig
pr azolam
Ġet c
Ġcounse led
ĠPF MT
ĠAdj unc
ĠCB Z
Ġsubstit uted
ĠLatin os
Ġcys tom
wh ite
Ġfiss ures
Increas ed
ĠLig ament
Ġsan itation
Ġcolonoscop ies
renn ial
Ġt iter
er ation
tr ated
Ġdis cer
Ġall iance
CT R
Ġ34 4
Ġdiff Ã©
Ġtri pt
Ġbronch oscopy
Ġcut ting
ĠSup ervised
Ġpair wise
ĠPredic tion
Th is
Ġpara vertebral
Ġteen agers
Ġthy roxine
Ġtod dlers
ĠBon ferroni
Ġimpregn ated
b olus
o ate
el agatran
op osterior
Ġex agger
oth ane
Ġund iagnosed
ĠV ital
12 1
Ġ33 2
Ġhom ework
Ġcomparative ly
tif ib
Ġmembers hip
Ġesophag ectomy
Ġbrom ocriptine
ĠTac rolimus
Ġthorough ly
Ġsemit endinosus
re ments
os age
ĠP ancreatic
ĠM echanical
ĠH AL
ĠL ED
ĠRes ection
ival irudin
velop ing
Ġur ate
Ġbl an
ĠES R
uls ions
Ġexternal izing
ĠNetherl ands
Ġos molality
apol is
A ut
T opical
b B
ti zing
Ġv ice
TI s
UL ATION
term ed
Ġbi enn
of ibrate
Ġinform ative
Ġ33 4
ĠCD AI
anti le
ĠInf ectious
Ġcle avage
mod ulated
Ġfore st
organ ic
ĠCar cinoma
ĠReli ef
ĠThrough out
acchar ides
Ġhyalur onate
Ġperip rocedural
Ġvig ilance
ĠSqu ibb
amoxic lav
Ġpredi abetes
D ay
Q LQ
og ue
ip ients
ĠE TS
Ġun responsive
CL A
Ġhyper cap
me ter
Ġ32 7
Ġ29 4
hem oglobin
ĠTE E
Ġcef oxitin
Ġtom ato
Ġech o
Ġpredis pos
Ġrect us
f riend
Ġc amer
ĠT ren
od ene
ĠS ens
Ġ0 2
end ritic
ĠN onin
ox orubicin
abl ation
Ġcr yp
ĠJ A
Ġultr afiltration
Ġdistress ing
Ġneuro genic
As berg
ĠRet urn
eless ness
ĠSO FA
Ġker atin
Ġcampaign s
Ġmorbid ly
ĠImplant ation
Ġic ap
Ġhos tility
d in
i tic
n ourished
y ch
Ġa k
Ġcon vales
el ast
ĠL EV
Ġall o
nal oxone
ĠAd en
Ġ34 5
Ġcheck s
Ġdip eptidyl
Ad herence
Ġexclusion s
ĠIr rit
Ġthick ening
Ġremark ably
Ġmicrof lora
Des ign
onv uls
Ġp overty
es oter
th oracic
ĠT op
ĠPro Disc
of en
Ġinform ational
opro xil
Ġfraction ated
Ġconduct ance
Ġdisadvant age
ĠAngi oplasty
Ġate zolizumab
ĠTRE AT
esoter odine
G M
b ronch
f idelity
g auge
t age
Ġr il
Ġch ances
ĠE PS
Ġpar adox
ĠL OCF
Ġman i
AC H
ĠPar allel
Ġultr aviolet
omy cosis
Ġana emic
ĠMD CT
Ġnin eteen
ĠRem in
Ġeros ive
Î¼ g
Ġclub s
Ġqui et
ĠInflu enza
Ġremark able
ĠStock holm
H el
L ack
it ecture
Ġm enses
ig u
ĠS aud
ĠS olid
ĠM at
ĠM PT
Ġ4 05
ĠD ivision
ia ison
Ġpres umably
con ception
af in
tig o
Ġprot amine
ob aric
12 4
Ġpat ching
Ġwa king
por fin
ĠMT D
ĠPRO s
Ġfell ows
Ġpur s
ĠAnti hypertensive
ĠEvalu ating
Ġphleb itis
Ġchur ch
Ġplethysm ography
y ls
re et
Ġb ars
Ġre leasing
ĠT ME
ur as
ol on
ĠS ign
ĠD LT
Ġdis tension
ĠF requent
ĠE rectile
ĠSt able
Ġtrans arterial
Ġol ds
ob upivacaine
PO TH
Ġreac tivation
ĠSF A
sh ire
Ġjud gments
adren al
Out come
Ġkerat oses
Ġhemip are
bi ased
Ġasphy xia
Ġnicot inic
Prom oting
ĠCron bach
D BP
i ke
ĠM OS
ĠR isperidone
bo ard
Ġtrans formation
Ġop tic
Ġunder take
Ġgr up
oph an
Ġcal protectin
ĠRe levance
de termin
Ġhum idity
ĠHC l
ĠIS I
Ġlack ed
Ġiss ued
LI F
Ġcompens ate
Ġmom ents
Ġbisphosph onates
Ġverteb roplasty
ĠInstru ment
u til
v ulin
Ġout break
Ġse man
ĠPr EP
Ġlabor atories
Ġsign ature
ĠEn rollment
ĠCR Q
Ġwhere by
Ġsulf adiazine
Ġtach y
ĠCorrel ation
Ġbelong ing
Ġabrup t
Ġtroub les
Ġjaund ice
C or
C og
Ġt id
Ġp olar
Ġd l
ĠS J
ĠS PA
Ġad duction
Ġinter body
ĠB est
Ġsy philis
abl ative
ĠK t
Ġloc us
clud es
ĠDi arr
Ġthromb i
oe al
ĠLV H
met formin
ifer min
Ġmoder ators
Ġq igong
Ġdiaphr agm
ropyl ene
ĠNord ic
ĠColumb ia
b ot
k en
ap enem
Ġass urance
Ġac rom
ĠF usion
Ġco existing
oin s
001 5
ĠRes uscitation
Ġlong itudinally
Ġmulti ethnic
ole y
Ġ28 4
Ġ35 5
Ġtw ins
Ġz yg
ĠDet ailed
Im mun
ĠVir us
Ġelectroly tes
Ġbuff ered
Ġhypox emia
Multic enter
Ġsyring e
Ġepicondyl itis
Ġbacill i
c ts
Ġb icalutamide
os acral
Ġpro d
ĠR ay
Ġad nex
ĠD rop
ip ital
Ġco herence
ail ing
val vular
con trast
af tor
Ġgen istein
Ġpe rennial
ĠImp aired
ĠAs caris
Ġpack aging
Ġnod ule
Ġwors en
Ġprep are
vis ual
ĠHyp ogly
Ġhyster oscopic
Ġspirom etric
ĠEM LA
coll oid
ĠSed ation
Ġpeptid es
Ther apeutic
Ġwel fare
F s
K S
ur se
Ġth r
ĠO Cs
ĠD ry
Ġrec r
Ġall odynia
Ġun t
Ġdec rement
Ġ19 70
Ġes ter
kin in
Ġarter io
dr in
Ġtransplant ed
reg ional
Ġmes ylate
ĠGr aves
ĠTR US
Ġcran iotomy
Ġderiv ation
prof it
ĠAccur acy
ĠRÃ©s umÃ©
E v
b ro
f amily
r is
ud ent
uc iate
Ġres istive
ĠH VP
ĠF iO
ĠN IV
ĠE ER
Ġal beit
Ġnon intervention
Ġbr isk
Ġbr idge
Ġcm H
ĠPE EP
ĠInc remental
MD D
Ġmethyl phen
Ġfund us
ĠVL CD
Ġelectron ically
Ġgar lic
My ers
Ġpla ques
N OS
O V
ol umbar
oc clusion
ser vation
str atified
Ġi od
Ġ19 78
Ġgen omic
yl ase
ĠAn gina
Ġbl unted
iat ry
Ġbr ushes
Ġ29 3
Ġ31 3
Ġreve als
old opam
ĠInter leukin
ĠCons ensus
arc illin
ĠEnd points
Ġste ad
Ġsynt hes
Ad j
leg iline
Ġeu ros
Ġanxio lytic
acal cet
Ġidenti ty
M ain
i ura
ĠB elief
Ġout door
Ġob l
EC TION
12 7
19 6
sh ow
ĠSep sis
ĠEr adication
Ġdirec tive
ĠVietnam ese
Ġhemi arthroplasty
L ife
Ġa esthetic
Ġp alli
Ġr cts
Ġsc ars
Ġab str
Ġcardi ogenic
Ġval vular
06 5
AT G
Ġrefl ection
ĠCC R
ĠIT N
mm etric
Ġleak s
ĠPres cribing
reduc ed
ĠProt ection
Ġauthor ity
Ġunw anted
otyp ic
id entif
ain er
Ġinter cellular
ĠG uided
ĠSt ar
Ġ16 00
Ġshort ens
ems irolimus
CE A
Ġnecess itating
Ġdysp areunia
uz ole
Ġbreak down
adol inium
Ġdocument ing
Ġile ostomy
ĠHist ory
Ġvictim ization
Ġhybrid ization
Ġkindergart en
c igarette
at remia
es ne
Ġas tigmatism
ĠIn adequ
ĠE ss
âĢ ī
Ġvers a
Ġpos therpetic
yl osing
ĠQ RS
ĠCh oice
Ġneu rom
ĠAs ians
equ esne
Ġaccess ibility
Ġneuro trophic
ĠCons ortium
Ġinsuff lation
Ġcann ot
Ġaccum ulating
Ġpolyp ropylene
Ġhaemodynamic s
Ġcys ts
truct ured
Ġadver tising
Ġtrich iura
c us
g ate
Ġs hel
Ġw ish
Ġd ivalproex
ul u
ĠC ape
ys mal
Ġinter trochanteric
ĠH MB
ĠB en
Ġar t
Ġhealth ful
oper ations
ma ker
Ġintra hepatic
ĠWh o
ĠIns omnia
ĠHem orrh
Ġvag al
ĠPers on
Ġincid ents
Sc reening
avoid ance
m ode
Ġp essary
at asvir
el a
mon ic
Ġar gu
Ġsel en
sy n
Ġmen u
Ġdemonstr able
Ġpoly urethane
Ġtrig gers
Ġshock s
Ġorth otopic
ĠEp oetin
ĠSubst antial
Ġsuppos itories
Ġlic ensed
N em
P PV
o on
p redic
an xiety
ĠA mo
ĠA MP
Ġv ign
ĠM ax
ĠE ither
Ġtr azodone
Ġun an
Ġguid ing
Ġrh amn
Ġaden omatous
ĠCardi ology
ĠHB O
inter feron
Th ree
Ġunin tentional
Ġresuscit ated
Ġcontrad ict
record ed
a ou
ĠO CT
Ġtr ace
ĠL equesne
Ġche aper
Ġ34 3
Ġ39 5
ĠCT A
tid al
Ġcoag ul
ĠSG A
Ġdeb riefing
Ġposts urgery
Ġos molarity
Ġpulp itis
Ġabdomin operineal
ĠVac cine
Ġparo tid
' t
B ody
l act
w ire
Ġe plerenone
id den
ĠS IGN
ĠH ous
Ġ4 18
ĠD RE
Ġrece ptive
Ġspec tac
15 8
Ġgly caemia
Ġrest oring
AR C
ĠAL ND
ivac urium
ĠTT M
Ch ronic
gu an
att endance
otroph ic
Ġdenti tion
ĠSa fe
ĠPRI M
Ġtympan ostomy
ĠRece iving
ĠIb uprofen
ĠKa iser
metast atic
3 75
C ons
S ever
m ers
ver ted
ĠR ob
Ġpr amip
usion s
Ġsup ras
ĠJ S
inf or
IS RCTN
Ġsuff ere
ĠCl opidogrel
Ġcyt ogenetic
ĠDM FS
Ġq d
Ġune mp
Ġboard s
ĠFem oral
ĠSa O
Ġbound ary
ĠNumer ous
odynam ically
Ġpramip exole
l on
Ġp endant
as partate
ĠC NI
ĠM PI
ĠD rin
Ġtrans porter
Ġard ization
ĠParticip ating
ĠAD MA
Ġunc o
ĠPT X
Ġant ec
Ġstimul ator
trans fusion
Ġec ological
sub jects
def icit
arcom as
Ġconsul ted
Pr imary
Ġflavon oids
El ec
Ġchemopre vention
ĠRecon struction
Ġmastic atory
Ġparalle led
C he
Z P
Ġb es
ĠR un
Ġ4 02
ĠF EC
ĠW HR
iagn osis
ĠAl bumin
ĠHR R
Ġ35 8
ĠRe vised
ok al
24 0
Ġoptim ally
odil ator
Ġexperiment ally
ĠParen tal
ĠSupple mental
Te le
Ġpyr azinamide
termed iate
] -
h l
v omiting
Ġg aining
ĠE RP
Ġafter ward
mo tic
Ġed itor
Ġcan ine
ĠK PS
ĠSc oring
Ġprost acyclin
ĠEx ternal
Ġ32 2
13 8
Ġsl ides
Ġ39 9
Ġ44 0
ĠCV Cs
ĠPF O
ĠInv asive
Ġoccas ional
Ġhepat otoxicity
ĠSed entary
Ġtrabec ul
emo tional
3 50
ar ct
ur ative
ig ram
un infected
Ġv ibr
ot onsillectomy
Ġun biased
oper fusion
Ġsim ulators
ĠMe ier
rec tional
ĠJ er
Ġfat ality
Ġnor floxacin
ĠCl ostr
Ġinser t
ĠCM R
fac ial
Ġglut amate
Ġden se
Ġshe ets
ĠProv ision
Ġrepl acing
Ġfluo roscopy
Ġbib li
F L
S mall
d ist
o ir
Ġt ens
Ġc atal
ar on
id ental
se ed
ĠM ad
Ġinter dental
ĠD U
ort ing
Ġsc op
ep ing
pl ate
ĠSt aff
ame ter
Ġequ ine
Ġbr anc
13 9
Ġleuk otri
Ġirr ig
Ġge ographically
Ġunfav ourable
Assess ing
Ġoesophag itis
Nem ar
H yp
Ġt ar
ĠP Q
ap tic
ĠH o
ĠF BG
ug by
Ġph antom
Ġed ge
ĠV MP
rop arin
ax ial
Ġj e
ĠEx cess
Ġbr ushed
Ġblind ness
sc reening
Ġnor adrenaline
Ġantic onvuls
Ġbur d
ĠSS B
apan icol
otrop ins
Ġemphas izes
Ġsupr apubic
ĠContro lling
ĠMob ility
Ġenvelop e
Ġsubd ivided
in ser
Ġm W
ic opl
ut in
Ġme bendazole
Ġom alizumab
ĠE O
Ġrep igmentation
Ġser a
ĠSt an
Ġj umps
Ġ32 8
Ġvisual ly
Ġeven ly
ĠInter action
mor bidity
ĠPP G
Mul ti
Ġharv est
ymp athetic
Ġurs odeoxycholic
ĠSaud i
U l
e ties
Ġt akes
Ġw ed
le ted
ia e
ĠIn haled
Ġsur pr
Ġph on
ex tension
Ġtrans versus
Ġfl ushing
ry lic
abil istic
Ġcase in
Ġ39 0
50 6
ising ly
ĠPhys iological
toc h
Ġperioperative ly
ĠPS I
ĠTw ice
Ġmorph ological
ropr uss
Ġclom ipramine
ĠContr ace
ĠEmp loy
Ġantihist amine
icopl anin
m ess
or iginal
Ġre Ã§
Ġr C
Ġl arynx
ĠC SE
Ġper itoneum
ip asvir
ep i
pit uitary
RI C
Ġanaly tical
ĠMT A
Ġbis pectral
Ġbus y
Ġwarning s
iche ver
H a
I CE
T nT
b iotics
ter ity
ĠT aking
ĠA k
ot oxin
Ġimp ly
ĠD om
ĠF ET
Ġop ac
IN T
Ġimpl ies
11 3
Ġexpec tor
Ġorgan isation
Ġfer til
mod ilution
Ġsec retory
ĠER CP
Ġnoc turia
Ġsut ured
phys ical
ĠPeriod ontal
ĠThail and
Ġantifibrin olytic
ent one
as etron
ce tin
id in
ĠP apanicol
il k
Ġcom es
od er
em etic
Ġconf id
ai res
Ġcr ypt
Ġmic rosp
Ġcarri es
Ġnorm othermic
Ġintern ists
Ġpal ivizumab
Ġmyel osuppression
Ġglyc ol
Ġglyc ogen
ĠInterview s
Ġmask s
ĠAtt endance
Ġsep tal
Ġnecro tizing
Ġcram ps
usceptib le
Sever ity
Ġsuffere rs
ropruss ide
f it
o active
u f
on am
ent ry
as th
Ġper tinent
og in
Ġwh itening
Ġinf requently
ĠG p
Ġunder weight
Ġhist opathologic
Ġ35 2
Ġpoly neuropathy
Ġsol ifenacin
Ġextr ap
18 4
opl iteal
Ġline zolid
Ġfoot wear
Ġchallen ged
ĠAS P
Ġves tib
ĠGnRH a
Ġlob ectomy
ĠPPI s
hyp othesis
Ġcephal ic
Ġnom ogram
Ġsensor imotor
Ġhydroly zed
atent orial
Ġautop sy
R eg
l an
re currence
or ptive
ore lin
ĠE HR
Ġapp s
Ġag o
Ġpos terolateral
ox il
par ation
ĠPA R
Ġcommon est
Ġdist ressed
RI s
Ġradi ology
13 6
Ġisol ate
ĠTrans ient
Ġlev obupivacaine
ĠSep t
CP R
mitte es
Ġrecogn ize
Ġtra itement
fib ro
ĠDie go
Per i
appro ved
POTH ESIS
E conomic
re ements
Ġs ICAM
ro lled
ter ine
ĠP ES
Ġon ych
Ġwh ichever
ĠF ruit
ĠW E
ĠL BM
ise ase
Ġconf ident
Ġscre ens
15 5
Ġfac ed
17 5
ĠRec ep
dep ression
chan nel
thropo ietin
ĠVers ion
ĠParen ting
Ġadvance ment
ĠKeny an
ĠMar kers
ĠPRE DI
Ġexec ution
Ġhypercholesterol aemia
Ġneighbour hood
% +/-
c ade
Ġw ished
Ġin ception
Ġg rief
ĠB RS
ĠB ilateral
ĠF ugl
Ġ12 50
Ġen ema
ĠU pon
ĠTo gether
Ġtrans iently
ĠCO C
inc idence
ĠIns uff
Ġpublic ly
HA M
Ġinternal izing
Ġnar co
lamy dial
Ġpsychiat ry
Ġworks ites
Ġnic or
Ġpict ures
A Q
p ack
Ġb ivariate
et ocin
am s
val i
ĠRes tric
lic h
cop h
Ġcontinu um
Ġcalc ine
Ġ33 5
Ġhum eral
pro cess
Ġperce ive
ĠCardi opulmonary
anal ysis
Me yer
Ġdraw ing
Americ ans
ĠBC NU
orph y
tel opeptide
urg ie
Ġultim ate
abit ants
ĠAw areness
Ġdece ased
Ġpneumoth orax
L a
om es
Ġe uth
Ġl actic
ĠIn cluded
doc umented
mon d
act able
ous tic
Ġ19 66
AC C
Ġit er
Ġcr ack
ĠAc tivation
Ġback ward
ĠAD C
aff in
Ġrecon structive
Ġdescri ptions
Ġkne w
Ġpremolar s
Ġdens ities
Ġparamed ics
emuls ification
fibro zil
A UC
R em
n utrition
Ġf esoterodine
im et
od u
reat ine
Ġno xious
pon ents
ser vative
ĠAl pha
ocol itis
Ġoper ators
Ġprof ession
ĠSub cutaneous
rit ory
ĠMT H
Ġclar ity
Ġocclusion s
Ġampl itudes
Ġadvoc ate
Ġapprec iable
Ġrestr aints
Ġathle te
ventil ation
Ġgir dle
amis ole
Ġcalcine urin
f irst
h ost
r un
ec d
up h
os yn
if ies
se e
ĠS CH
Ġdec rements
Ġmod ulating
Ġdes erves
Ġhyper ther
ĠSub s
Ġradi ochemotherapy
Ġ31 8
Ġattend ees
ĠMM C
ĠCr uciate
ypt ophan
Ġpurch ased
oprot ection
Ġillustr ate
Ġdacl izumab
ĠAUD IT
Ġdebil itating
el ectasis
Ġ4 01
ple en
Ġnon response
Ġnon obese
Ġdevelop ments
ĠPA H
Ġvol atile
Ġlip ase
13 4
ĠAD Rs
ĠHospital ization
Ġmanual ly
ĠCol gate
Ġprep ub
ĠMc Nemar
Ġrehospital izations
Ġconjug ate
ĠColor ado
Ġfluores cein
aco emulsification
Ġincompet ence
Ġaqu atic
Ġconvinc ing
ofen adine
ĠPRIM ARY
f et
ti apine
Ġp ter
Ġp ads
Ġin ulin
Ġd ot
Ġe j
ĠO CP
Ġal prazolam
Ġab used
Ġsp asm
opro te
Ġ34 7
Ġrecommend ing
Ġphosph olipid
Ġecon omically
ĠCor p
Ġattenu ating
Ġvoid ed
Ġflare s
Ġperip rost
ĠDig it
Ġaudiot ape
Ġanter oposterior
Ġincis ors
ĠExerc ises
ĠScler osis
ĠClostr idium
. /
B IC
h aem
ĠT AS
ĠA qu
ab olism
Ġde mineral
ĠB ra
ĠB ED
Ġafter wards
ex ofenadine
hol ding
Ġmedic ated
Ġgly cine
Ġinterview ers
ĠSB RT
ĠRefer ral
ĠHVP G
S CO
w ashing
on itrate
Ġc enti
ac apone
Ġfor t
ĠM K
ĠB is
Ġimp ulsivity
Ġmod ulates
Ġrandom isation
Ġfe at
Ġfl utamide
MS C
Ġ33 1
14 6
ĠAC D
Ġphot on
ĠPS QI
Ġconn ective
ĠCY C
imen opausal
ĠOx id
ĠMem orial
ĠPUFA s
Ġtemporom andibular
b reast
c lovir
o eu
Ġn ach
Ġst annous
ĠP ICU
ĠH OP
ip ulation
end on
ĠF lor
Ġstr ing
Ġul nar
ect oral
ĠUn like
omet abolic
Ġcondition ed
Ġextr apol
Ġven a
ĠPer u
Ġchi ef
Ġvaccin ations
Ġrheumat ology
Ġens uring
ĠSG LT
Ġspl anch
ĠLT G
ĠDecreas ed
Ġgall st
ĠAir way
lop idine
Ġastro cytom
r active
ĠP ass
Ġpoly my
Ġparen chymal
06 7
Ġenc oding
Ġfas ted
ĠTE G
ĠApp ropriate
ĠMc K
Ã¨ re
Ġescal ated
ĠUltr ason
ĠPlan ned
Ġdialy zer
Ġimmunomod ulatory
Ġmicrocirc ulation
Ġrhamn osus
an y
ec rolimus
Ġst aphyl
ĠP trend
ĠS CS
ĠR uss
Ġhe x
ĠF oley
Ġsub tle
Ġpr ime
lo ok
Ġfunction ality
Ġoc cluded
RI T
Ġinjur ious
Ġ31 7
14 8
Ġsl ide
Ġfer ric
Ġov aries
ĠET T
ĠBreast feeding
Ġcounter movement
ĠExp ression
Ġsib ling
Ġaerosol ized
ĠPan el
ĠAccept ance
trig lycer
ishman iasis
toch rome
ĠPapanicol aou
F VC
Y o
a fe
f used
r ically
s ampling
al ene
Ġthe ta
Ġcon ferences
ĠP alliative
ĠI PSS
ĠM other
ĠR SA
ĠF ocus
ĠE m
ep rost
ĠV AC
ĠV iral
Ġag ency
Ġpsych ology
Ġpsych ophys
Ġbi ologically
Ġ36 9
Ġ35 1
Ġgest odene
ache xia
Ġlate x
Ġelectro des
ĠMT C
ĠMon te
Ġsom atization
Ġgrad ed
Ġdiscrimin ant
Ġwave form
ĠAut ologous
ĠOrth o
Ġtoen ail
Ġmetric s
- &
B lood
p EF
z otinib
Ġ rom
Ġf Ã¼
Ġres erv
Ġinter vertebral
ĠD MP
Ġdis oproxil
ĠN CEP
Ġman oeu
ĠAl ber
Ġprior ities
Ġcolon isation
Ġ54 0
ili ence
Ġnit roprusside
Ġsulf asalazine
ĠSh ock
Ġinhal ers
ĠFlu oxetine
truct uring
ĠOxy tocin
Ġcompan ies
ĠMeth yl
Ġglob ally
ĠDiscontinu ation
a P
Ġ ub
Ġc iv
Ġc ores
Ġan onymous
it able
Ġd welling
Ġh apl
ĠA part
se ver
ĠR B
ĠB asal
ĠO m
ĠO HI
ĠG BP
ĠRes ult
Ġunder powered
ĠK O
Ġu rot
17 4
men tioned
Ġeth am
tib ial
Ġslow ed
ĠPL W
Ġgonad otropins
Ġple asant
ĠRecom binant
âĤ Ĥ
determin ed
Ġsplanch nic
B LE
a xim
Ġc age
Ġh ast
ĠS UD
ren uous
Ġpre season
ĠO HSS
ĠN ort
Ġtr ismus
ĠW W
Ġar range
Ġtim olol
Ġcl av
tig en
ak a
Ġcoll ar
Ġmal t
Ġ36 6
14 7
Ġhip s
pre ventive
ĠY ale
Ġutil ities
Ġdex terity
Ġtrig eminal
Ġery themat
ĠAdj usting
Co A
ĠNeuropsych ological
Ġmenisc us
ĠEch ocardi
nucle oside
Ġtroubles ome
V L
d opa
f und
m Tc
v in
Ġt ired
en apine
Ġb ivalirudin
Ġcon e
ĠA BVD
Ġres tructuring
Ġme fenamic
ĠO AT
ĠL ou
Ġco oking
ĠPro ced
Ġ36 1
vic ular
Ġ33 8
ĠCA N
Ġcaus ative
17 0
ĠMul tim
Ġpanc reat
oly mer
ĠClin ics
ĠCy to
Ġvideot apes
ĠRBC s
Ġcontraind icated
ĠPOP ULATION
Ġelast ase
ĠStan ford
P e
ar ms
Ġre test
Ġto coph
Ġper oxidase
ĠB iopsy
ĠW HI
Ġno tion
Ġemerg ent
Ġaut ogenous
sc reened
Ġelectro magnetic
Ġinstit uted
Ġste atosis
ĠPM R
Ġden osumab
ĠPres ence
ĠTreat ing
ĠMass age
ĠMus ic
Ġverte porfin
Ġthiop entone
Ġdecompens ation
Ġcontrac tile
Ġamen able
Ġanov ulatory
ĠVictor ia
Ġtocoph erol
I Q
c tr
is pheric
Ġb userelin
im etric
if ting
ĠP RA
ical citol
ĠM ix
Ġex emp
Ġar ise
Ġhy pon
ros copically
acter ic
Ġwork book
Ġbo os
amp ing
por tive
Ġinstruc tor
Ġamp utations
Ġinst ance
ĠMy el
ĠProf essionals
ĠIP F
ĠElec trical
ĠAngi otensin
ĠMonth s
Ġphenyl alanine
micro L
Ġcomb at
h uman
v aptan
ĠT NM
ot on
Ġbe er
fe ed
oll icular
jec tif
Ġanti py
ĠU til
Ġcont aminated
tain ment
06 3
Ġexacerb ated
Ġadap t
otr imazole
Ġoccup ancy
Ġves ico
Ġinst alled
Ġbook lets
Ġdiscrimin ating
Ġdeb ated
H em
z umab
Ġt onic
at ech
Ġr Ã©s
ĠC ure
ĠH aving
ĠD SA
ĠG a
pon se
ĠV D
xim elagatran
ĠAn t
Ġter lipressin
Ġ32 6
18 7
Ġlo ose
Ġhal othane
Ġmeth amphetamine
Ġnorm ogly
Ġhemorrh ages
ĠCRP S
Pro t
Ġdisco unted
ĠIA BP
ĠInterview ing
Ġeosinophil s
Ġdietiti ans
ĠTur k
ĠUD CA
f s
t hesis
u istic
Ġa lemtuzumab
on osetron
Ġf ung
th at
ĠC reatinine
ĠA HA
Ġv ocal
ĠB ir
duc ts
ĠW IT
Ġno thing
Ġther modilution
all ergic
ach id
Ġprop acetamol
kin a
Ġlo os
ales ional
orec tomy
Ġneuro trans
ĠEl se
Ġsubs id
prednis one
ĠPa ul
ocytop enic
ĠLD CT
Ġcys titis
ony ss
Ġcontribut or
ĠProced ures
at riptan
id ad
ĠI CT
ĠM Y
ĠM uc
Ġ4 36
Ġom itted
ĠF acil
we re
of lu
Ġmar ks
Ġrese mb
Ġabs orbable
ĠAb original
Ġhydro gel
Ġemploy ee
uk es
ĠHF pEF
ĠHigh ly
Ġvirus es
rich ment
Ġtel aprevir
implant ation
tegr ating
Ġstrict ly
Ġmarket ed
Ġteen age
Ġfen ofibrate
dex amethasone
Ġpter onyss
Ġmanoeu v
P rep
Q uit
f aced
i ates
u j
Ġre act
le menting
ĠA ACR
se y
am us
op elvic
um es
ĠD erm
com plete
pt ake
Ġhyper th
Ġeduc ate
Ġcontr asts
Ġaccording ly
Ġ37 1
Ġaspir ate
Ġline arly
ient es
ĠTC M
Ġindirect ly
Ġinterven ing
ĠCur ric
ĠElse vier
Ġpteronyss inus
2 20
A ll
S G
b ing
o yl
Ġs tigm
Ġb ony
ĠA VR
el ch
Ġ4 30
ĠB N
ĠB O
ĠB urn
st hes
Ġar b
Ġal ginate
ĠU tilization
ĠAt titudes
Ġadv ancing
Ġinh abitants
enter ic
Ġer t
Ġwal n
Ġce tirizine
Ġacet onide
ĠRE E
ropl as
Ġreal ized
Ġmac rolide
ophag oides
diab etes
Ġnin th
Ġanticip atory
Ġawakening s
Ġcre vicular
Ġstake holders
Ġdiscer n
re in
ro itin
ati l
Ġg adolinium
oc cer
ĠS orafenib
op oly
Ġover activity
Ġexp enses
ole mia
gr avir
ĠPC M
Ġcompr ises
Ġshif ting
Ġrecogn ised
Ġsn oring
ĠTechn ique
Ġuniform ly
Ġinfr ared
Ġhyperuric emia
ĠHol ter
ĠIndones ia
ĠClo zapine
ĠDiarr hea
U FA
f ront
o economic
Ġf ire
is chen
Ġth iaz
ĠC ateg
ĠA mp
uc l
Ġac rylic
duc ted
ch ronic
ĠE UC
Ġpsych ologist
ĠAl one
Ġ34 9
Ġ37 8
fl um
Ġallerg ies
Ġtel bivudine
tegr avir
lum en
ink i
Ġmitig ate
Ġcamer a
Ġabstr acts
A pp
Ġs ternal
ro ate
ĠT om
ri an
Ġ0 1
ĠF ear
ĠN ASH
ĠL AC
ĠL ateral
ĠG ran
Ġab atacept
ĠV entricular
Ġthree fold
avi ties
VE R
Ġstr ide
Ġgr ape
Ġcap abilities
Ġsal ping
Ġ38 6
Ġnit rof
Ġtac tile
Ġgenotyp ed
Ġbeh ind
Ġneurophys iological
ĠDLB CL
Ġphenobarb ital
F l
Ġr ye
ĠP ol
ĠP MS
Ġ% <
ĠS mo
ĠM er
ll a
ĠB ed
Ġle ishmaniasis
dom ain
Ġser ially
ric oides
ĠV a
ivid ing
Ġcol istin
Ġfe eds
Ġhem aturia
ect ors
Ġminim ization
ĠAI S
Ġlog s
Ġunders core
Ġsec urity
Ġspeed s
ĠOc cupational
leg ic
tre onam
Ġchannel s
ĠCN V
Ġparkinson ism
Ġsynovi al
Intern et
Ġinstall ation
afin il
7 00
F ive
S urgical
g mental
y an
il ast
Ġv apor
ure teral
ĠD AA
ĠD ukes
are lin
ane zumab
Ġsol itary
Ġmid life
dep endence
ĠInf lammation
Ġeth yl
ĠFour th
Ġinsuff iciently
ĠStatistic s
etron idazole
ĠEV L
birth s
ĠBl adder
sol uble
Ġreflex ology
Ġcyst oscopy
[...]
