{"<s>":0,"<pad>":1,"</s>":2,"<unk>":3,"<mask>":4,"<doc-sep>":5,"!":6,"\"":7,"#":8,"$":9,"%":10,"&":11,"'":12,"(":13,")":14,"*":15,"+":16,",":17,"-":18,".":19,"/":20,"0":21,"1":22,"2":23,"3":24,"4":25,"5":26,"6":27,"7":28,"8":29,"9":30,":":31,";":32,"<":33,"=":34,">":35,"?":36,"@":37,"A":38,"B":39,"C":40,"D":41,"E":42,"F":43,"G":44,"H":45,"I":46,"J":47,"K":48,"L":49,"M":50,"N":51,"O":52,"P":53,"Q":54,"R":55,"S":56,"T":57,"U":58,"V":59,"W":60,"X":61,"Y":62,"Z":63,"[":64,"\\":65,"]":66,"^":67,"_":68,"`":69,"a":70,"b":71,"c":72,"d":73,"e":74,"f":75,"g":76,"h":77,"i":78,"j":79,"k":80,"l":81,"m":82,"n":83,"o":84,"p":85,"q":86,"r":87,"s":88,"t":89,"u":90,"v":91,"w":92,"x":93,"y":94,"z":95,"{":96,"|":97,"}":98,"~":99,"¡":100,"¢":101,"£":102,"¤":103,"¥":104,"¦":105,"§":106,"¨":107,"©":108,"ª":109,"«":110,"¬":111,"®":112,"¯":113,"°":114,"±":115,"²":116,"³":117,"´":118,"µ":119,"¶":120,"·":121,"¸":122,"¹":123,"º":124,"»":125,"¼":126,"½":127,"¾":128,"¿":129,"À":130,"Á":131,"Â":132,"Ã":133,"Ä":134,"Å":135,"Æ":136,"Ç":137,"È":138,"É":139,"Ê":140,"Ë":141,"Ì":142,"Í":143,"Î":144,"Ï":145,"Ð":146,"Ñ":147,"Ò":148,"Ó":149,"Ô":150,"Õ":151,"Ö":152,"×":153,"Ø":154,"Ù":155,"Ú":156,"Û":157,"Ü":158,"Ý":159,"Þ":160,"ß":161,"à":162,"á":163,"â":164,"ã":165,"ä":166,"å":167,"æ":168,"ç":169,"è":170,"é":171,"ê":172,"ë":173,"ì":174,"í":175,"î":176,"ï":177,"ð":178,"ñ":179,"ò":180,"ó":181,"ô":182,"õ":183,"ö":184,"÷":185,"ø":186,"ù":187,"ú":188,"û":189,"ü":190,"ý":191,"þ":192,"ÿ":193,"Ā":194,"ā":195,"Ă":196,"ă":197,"Ą":198,"ą":199,"Ć":200,"ć":201,"Ĉ":202,"ĉ":203,"Ċ":204,"ċ":205,"Č":206,"č":207,"Ď":208,"ď":209,"Đ":210,"đ":211,"Ē":212,"ē":213,"Ĕ":214,"ĕ":215,"Ė":216,"ė":217,"Ę":218,"ę":219,"Ě":220,"ě":221,"Ĝ":222,"ĝ":223,"Ğ":224,"ğ":225,"Ġ":226,"ġ":227,"Ģ":228,"ģ":229,"Ĥ":230,"ĥ":231,"Ħ":232,"ħ":233,"Ĩ":234,"ĩ":235,"Ī":236,"ī":237,"Ĭ":238,"ĭ":239,"Į":240,"į":241,"İ":242,"ı":243,"Ĳ":244,"ĳ":245,"Ĵ":246,"ĵ":247,"Ķ":248,"ķ":249,"ĸ":250,"Ĺ":251,"ĺ":252,"Ļ":253,"ļ":254,"Ľ":255,"ľ":256,"Ŀ":257,"ŀ":258,"Ł":259,"ł":260,"Ń":261,"in":262,"Ġa":263,"re":264,"Ġt":265,"on":266,"ti":267,"en":268,"er":269,"Ġo":270,"he":271,"Ġp":272,"ed":273,"Ġs":274,"al":275,"Ġw":276,"Ġc":277,"Ġin":278,"Ġan":279,"ro":280,"Ġ,":281,"Ġand":282,"Ġthe":283,"at":284,"Ġof":285,"it":286,"es":287,"Ġ.":288,"ent":289,"or":290,"ati":291,"Ġd":292,"an":293,"Ġm":294,"as":295,"Ġf":296,"ic":297,"is":298,"ar":299,"Ġb":300,"Ġ(":301,"ing":302,"Ġre":303,"Ġ)":304,"om":305,"ve":306,"Ġe":307,"ec":308,"Ġto":309,"ith":310,"ce":311,"le":312,"ter":313,"Ġwe":314,"Ġg":315,"tion":316,"us":317,"th":318,"ation":319,"ly":320,"Ġwith":321,"ĠT":322,"Ġn":323,"Ġ1":324,"up":325,"os":326,"ur":327,"Ġh":328,"ents":329,"Ġth":330,"ac":331,"im":332,"ul":333,"ig":334,"Ġr":335,"ol":336,"id":337,"Ġst":338,"Ġl":339,"Ġwere":340,"Ġcon":341,"Ġfor":342,"if":343,"ĠĠ":344,"ĠC":345,"Ġpati":346,"Ġwas":347,"ĠP":348,"ment":349,"ts":350,"un":351,"ĠA":352,"roup":353,"Ġ%":354,"et":355,"oc":356,"Ġ2":357,"Ġpatients":358,"il":359,"ut":360,"Ġgroup":361,"ss":362,"se":363,"ud":364,"ĠThe":365,"Ġv":366,"Ġpro":367,"ow":368,"Ġcom":369,"od":370,"reat":371,"ri":372,"am":373,"ity":374,"ff":375,"ĠS":376,"ĠI":377,"Ġon":378,"red":379,"Ġor":380,"ine":381,"el":382,"ate":383,"tic":384,"ant":385,"op":386,"Ġ0":387,"ren":388,"ign":389,"uc":390,"ess":391,"ver":392,"ain":393,"ab":394,"ion":395,"ap":396,"ated":397,"tive":398,"ys":399,"ven":400,"ical":401,"um":402,"ge":403,"ĠM":404,"Ġcomp":405,"Ġ3":406,"Ġat":407,"ot":408,"ll":409,"ad":410,"Ġstud":411,"ir":412,"tro":413,"iz":414,"Ġtreat":415,"Ġde":416,"Ġres":417,"Ġeff":418,"Ġex":419,"ĠR":420,"00":421,"ific":422,"Ġad":423,"Ġpre":424,"ted":425,"Ġper":426,"qu":427,"ure":428,"Ġim":429,"Ġinter":430,"ore":431,"Ġbe":432,"tr":433,"Ġinc":434,"Ġch":435,"ĠĠĠĠ":436,"igh":437,"Ġstudy":438,"Ġass":439,"og":440,"Ġme":441,"ignific":442,"lin":443,"iv":444,"Ġac":445,"Ġ=":446,"ignificant":447,"Ġus":448,"ary":449,"ĠH":450,"Ġtreatment":451,"ub":452,"Ġ4":453,"ĠB":454,"Ġsignificant":455,"ĠO":456,"Ġeffec":457,"vention":458,"Ġ;":459,"Ġby":460,"rom":461,"Ġimp":462,"reas":463,"Ġcontro":464,"Ġpl":465,"rial":466,"ers":467,"ĠD":468,"Ġwh":469,"Ġas":470,"ip":471,"Ġis":472,"Ġ6":473,"te":474,"pec":475,"ized":476,"Ġom":477,"ia":478,"Ġ5":479,"ear":480,"ĠIn":481,"duc":482,"ch":483,"doc":484,"Ġhe":485,"sep":486,"Ġdis":487,"fter":488,"Ġ9":489,"ay":490,"fe":491,"ence":492,"Ġthat":493,"Ġtrial":494,"und":495,"ost":496,"ther":497,"end":498,"ON":499,"ĠF":500,"ort":501,"est":502,"are":503,"we":504,"Ġ:":505,"ace":506,"mon":507,"bo":508,"ĠN":509,"ĠE":510,"ative":511,"ose":512,"Ġintervention":513,"com":514,"Ġafter":515,"Ġmon":516,"Ġle":517,"oll":518,"Ġfrom":519,"Ġsc":520,"Ġev":521,"ress":522,"Ġy":523,"Ġdif":524,"Ġnot":525,"ug":526,"st":527,"feren":528,"ls":529,"Ġtr":530,"ens":531,"di":532,"Ġbet":533,"ive":534,"ek":535,"Ġ-":536,"ĠW":537,"Ġinf":538,"apy":539,"ance":540,"anc":541,"one":542,"Ġgroups":543,"Ġout":544,"ase":545,"Ġse":546,"Ġpar":547,"orm":548,"act":549,"mp":550,"age":551,"jec":552,"Ġdi":553,"Ġdifferen":554,"Ġrece":555,"linical":556,"ous":557,"Ġsh":558,"Ġmonth":559,"Ġsur":560,"âĢ":561,"Ġthan":562,"Ġ7":563,"ib":564,"our":565,"Ġph":566,"Ġne":567,"ared":568,"ollow":569,"per":570,"Ġimpro":571,"ween":572,"vi":573,"ults":574,"ations":575,"alu":576,"lled":577,"Ġplace":578,"Ġcontrol":579,"Ġ8":580,"Ġsub":581,"Ġyear":582,"Ġbetween":583,"ES":584,"Ġpr":585,"oci":586,"Ġfollow":587,"lo":588,"em":589,"isk":590,"Ġhigh":591,"ual":592,"Ġweek":593,"Ġplacebo":594,"ies":595,"Ġmonths":596,"ight":597,"Ġlow":598,"Ġno":599,"Ġincreas":600,"ist":601,"ĠL":602,"Ġanal":603,"Ġcompared":604,"Ġsignificantly":605,"Ġclinical":606,"Ġhad":607,"Ġther":608,"ag":609,"Ġdur":610,"ĠG":611,"Ġar":612,"Ġal":613,"Ġob":614,"ved":615,"Ġoutcom":616,"ide":617,"Ġint":618,"Ġmg":619,"Ġreduc":620,"Ġ12":621,"Ġind":622,"Ġco":623,"Ġcare":624,"ep":625,"mo":626,"Ġda":627,"Ġqu":628,"ans":629,"Ġrec":630,"Ġbas":631,"able":632,"Ġthis":633,"Ġomized":634,"Ġassess":635,"ĠTh":636,"unc":637,"oth":638,"wo":639,"Ġrisk":640,"tom":641,"Ġ<":642,"Ġmeas":643,"alth":644,"cl":645,"Ġrep":646,"ants":647,"Ġwho":648,"Ġmed":649,"Ġprog":650,"TS":651,"tal":652,"tiv":653,"dom":654,"Ġare":655,"idence":656,"ram":657,"Ġall":658,"ial":659,"ular":660,"ph":661,"Ġran":662,"ors":663,"Ġreceiv":664,"ild":665,"Ġcons":666,"Ġha":667,"TI":668,"omen":669,"ast":670,"ke":671,"ree":672,"min":673,"Ġ95":674,"Ġpain":675,"Ġrel":676,"Ġtherapy":677,"Ġyears":678,"Ġpost":679,"pp":680,"ticip":681,"Ġmore":682,"pon":683,"Ġ10":684,"ality":685,"Ġun":686,"enti":687,"vel":688,"ory":689,"ef":690,"yp":691,"Ġtim":692,"Ġreg":693,"ges":694,"all":695,"Ġover":696,"spec":697,"Ġevalu":698,"Ġduring":699,"tions":700,"Ġdec":701,"ach":702,"Ġwomen":703,"US":704,"ET":705,"Ġtwo":706,"ĠĠĠĠĠĠĠĠ":707,"Ġsy":708,"olog":709,"usion":710,"Ġsup":711,"01":712,"acy":713,"ple":714,"ally":715,"enc":716,"Ġcar":717,"ression":718,"ĠWe":719,"Ġassoci":720,"CL":721,"Ġhealth":722,"Ġapp":723,"iti":724,"ger":725,"Ġk":726,"Ġeffects":727,"ĠCI":728,"ĠCON":729,"Ġvs":730,"pit":731,"form":732,"eline":733,"Ġweeks":734,"Ġbut":735,"Ġmod":736,"Ġchan":737,"ates":738,"Ġscore":739,"ility":740,"unction":741,"ise":742,"der":743,"cent":744,"Ġen":745,"ron":746,"Ġincl":747,"ancer":748,"ari":749,"tim":750,"Ġimprove":751,"Ġ[":752,"ĠRES":753,"Ġeffect":754,"ures":755,"Ġend":756,"Ġuse":757,"ION":758,"UL":759,"erc":760,"Ġboth":761,"Ġmean":762,"Ġnon":763,"Ġanalys":764,"king":765,"USION":766,"Ġcontrolled":767,"ĠRESUL":768,"CLUSION":769,"ĠCONCLUSION":770,"ne":771,"ĠRESULTS":772,"Ġ+":773,"Ġinclud":774,"oper":775,"Ġparticip":776,"Ġdise":777,"itive":778,"mptom":779,"ill":780,"Ġund":781,"aining":782,"imary":783,"Ġed":784,"Ġphys":785,"Ġdo":786,"icacy":787,"term":788,"Ġbaseline":789,"ass":790,"ew":791,"ĠThis":792,"ail":793,"Ġchild":794,"ath":795,"pl":796,"Ġ]":797,"Ġcor":798,"Ġtime":799,"Ġshow":800,"pital":801,"ospital":802,"ied":803,"DS":804,"ulation":805,"Ġrate":806,"Ġser":807,"Ġrandom":808,"Ġcancer":809,"Ġusing":810,"Ġab":811,"ding":812,"ments":813,"ack":814,"Ġprogram":815,"Ġreceived":816,"Ġdisease":817,"Ġrespon":818,"gn":819,"Ġhave":820,"HO":821,"bin":822,"ugh":823,"Ġassociated":824,"val":825,"ata":826,"Ġdep":827,"ting":828,"ser":829,"operative":830,"ised":831,"Ġtotal":832,"thod":833,"Ġdays":834,"Ġsymptom":835,"/-":836,"ND":837,"ĠCon":838,"ces":839,"Ġresults":840,"tively":841,"Ġperi":842,"ric":843,"jects":844,"Ġprimary":845,"tin":846,"Ġfunction":847,"Ġsel":848,"oin":849,"001":850,"Ġanti":851,"ute":852,"erg":853,"its":854,"ĠMET":855,"Ġrespec":856,"str":857,"ale":858,"ily":859,"ĠU":860,"Ġman":861,"Ġage":862,"tivity":863,"Ġperform":864,"mong":865,"Ġinv":866,"aus":867,"atis":868,"Ġexerc":869,"ĠMETHO":870,"ating":871,"ult":872,"ound":873,"Ġdr":874,"Ġpatient":875,"lood":876,"ĠPati":877,"Ġtheir":878,"ained":879,"lind":880,"ĠRes":881,"amin":882,"Ġdes":883,"Ġone":884,"ix":885,"Ġ'":886,"lic":887,"ĠV":888,"ian":889,"05":890,"art":891,"ex":892,"Ġag":893,"Ġoutcome":894,"Ġefficacy":895,"Ġmin":896,"ffec":897,"eral":898,"ety":899,"ĠTo":900,"Ġvers":901,"Ġmul":902,"Ġi":903,"ection":904,"Ġmay":905,"Ġincreased":906,"Ġused":907,"vels":908,"inal":909,"rel":910,"Ġperiod":911,"Ġhospital":912,"Ġtest":913,"Ġchildren":914,"Ġdecreas":915,"Ġdifference":916,"Ġpres":917,"rop":918,"Ġlevels":919,"ĠMETHODS":920,"Ġblood":921,"Ġprospec":922,"uld":923,"Ġwhe":924,"Ġsim":925,"con":926,"af":927,"dition":928,"ĠThere":929,"mun":930,"ma":931,"Ġrespectively":932,"umb":933,"Ġ19":934,"ĠPatients":935,"Ġdid":936,"ong":937,"io":938,"AC":939,"ĠSt":940,"Ġversus":941,"ased":942,"sy":943,"Ġexercise":944,"Ġanalysis":945,"Ġcomple":946,"res":947,"Ġcl":948,"Ġtrans":949,"ich":950,"Ġve":951,"Ġassign":952,"ome":953,"ither":954,"Ġ24":955,"Ġdata":956,"lu":957,"ard":958,"Ġsubjects":959,"Ġlower":960,"Ġ15":961,"Ġpos":962,"Â±":963,"Ġoutcomes":964,"Ġhigher":965,"Ġthose":966,"Ġthree":967,"ever":968,"âĢĵ":969,"ond":970,"Ġamong":971,"Ġconf":972,"therapy":973,"gery":974,"ival":975,"Ġobser":976,"Ġgen":977,"Ġdifferences":978,"Ġma":979,"nal":980,"Ġcompar":981,"out":982,"atic":983,"ue":984,"uble":985,"irst":986,"osis":987,"Ġfact":988,"Ġel":989,"orted":990,"yl":991,"Ġless":992,"avi":993,"ability":994,"Ġtraining":995,"atory":996,"Ġomly":997,"ice":998,"Ġassigned":999,"ox":1000,"Ġ20":1001,"Ġeither":1002,"clusion":1003,"Ġfirst":1004,"lso":1005,"ĠMe":1006,"ency":1007,"Ġsurgery":1008,"ization":1009,"ame":1010,"Ġwhich":1011,"ten":1012,"ected":1013,"fore":1014,"Ġcombin":1015,"fer":1016,"aph":1017,"Ġcardi":1018,"cur":1019,"av":1020,"Ġpred":1021,"Ġprov":1022,"Ġquality":1023,"Ġro":1024,"ured":1025,"EC":1026,"cular":1027,"havi":1028,"Ġsmo":1029,"Ġeffective":1030,"iver":1031,"based":1032,"Ġweight":1033,"Ġparticipants":1034,"Ġalso":1035,"Ġhy":1036,"Ġrates":1037,"ational":1038,"Ġtreated":1039,"Ġlif":1040,"hed":1041,"ĠCONCLUSIONS":1042,"Ġdouble":1043,"tem":1044,"Ġrandomized":1045,"Ġthese":1046,"Ġsymptoms":1047,"ov":1048,"Ġ11":1049,"Ġbeen":1050,"Ġsurv":1051,"econd":1052,"Ġ30":1053,"blind":1054,"Ġdiab":1055,"iss":1056,"ody":1057,"ĠResults":1058,"cess":1059,"Ġnumb":1060,"Ġhas":1061,"ilar":1062,"Ġother":1063,"Ġben":1064,"velop":1065,"Ġincluded":1066,"tig":1067,"Ġstudies":1068,"ĊĠĠĠĠĠĠĠĠ":1069,"ĠĠĠ":1070,"ĠĠĠĠĠĠĠ":1071,"ĊĠĠĠĠĠĠĠĠĠĠĠĠĠĠĠ":1072,"Ġop":1073,"Ġgreat":1074,"Ġassessed":1075,"Ġsys":1076,"Ġprospect":1077,"ogr":1078,"Ġdose":1079,"hes":1080,"Ġvari":1081,"Ġmo":1082,"Ġshowed":1083,"Ġcan":1084,"verse":1085,"Ġ18":1086,"Ġthere":1087,"Ġexper":1088,"Ġ14":1089,"thods":1090,"Ġintr":1091,"Ġte":1092,"sych":1093,"owever":1094,"Ġoc":1095,"RO":1096,"VE":1097,"atistic":1098,"ium":1099,"Ġdaily":1100,"ication":1101,"ai":1102,"Ġdrug":1103,"Ġresponse":1104,"Ġreduction":1105,"ord":1106,"Ġeach":1107,"Ġ/-":1108,"ech":1109,"treat":1110,"JEC":1111,"ivid":1112,"Ġsuc":1113,"ms":1114,"BJEC":1115,"ograph":1116,"Ġphysical":1117,"Ġes":1118,"minis":1119,"etes":1120,"Ġscores":1121,"Ġins":1122,"Ġprac":1123,"Ġvis":1124,"ici":1125,"rib":1126,"Ġpress":1127,"Ġdevelop":1128,"ronic":1129,"cop":1130,"âĢĲ":1131,"ype":1132,"Ġsupp":1133,"Ġsimilar":1134,"Ġonly":1135,"Ġdel":1136,"Ġactivity":1137,"ile":1138,"Ġnumber":1139,"Ġbehavi":1140,"Ġsp":1141,"ascular":1142,"rent":1143,"ions":1144,"Ġstr":1145,"agement":1146,"ty":1147,"Ġbenef":1148,"estig":1149,"veness":1150,"Ġgreater":1151,"Ġ13":1152,"ĠÂ±":1153,"Ġard":1154,"Ġâ":1155,"Ġchange":1156,"Ġsurvival":1157,"Ġday":1158,"Ġself":1159,"ĠOBJEC":1160,"Ġdiet":1161,"Ġsug":1162,"ited":1163,"ĠOBJECTI":1164,"ogn":1165,").":1166,"Ġ16":1167,"iagn":1168,"Ġbefore":1169,"Ġunder":1170,"action":1171,"Ġinterval":1172,"Ġgr":1173,"Ġrati":1174,"Ġstatistic":1175,"Ġmm":1176,"Ġtrials":1177,"Ġincidence":1178,"tis":1179,"Ġimproved":1180,"Ġwell":1181,"rec":1182,"ortality":1183,"Ġpercent":1184,"ak":1185,"ental":1186,"tens":1187,"ause":1188,"pt":1189,"Ġ200":1190,"Ġincrease":1191,"Ġlife":1192,"med":1193,"Ġup":1194,"Ġinvestig":1195,"view":1196,"rence":1197,"ological":1198,"CT":1199,"Ġreduced":1200,"ness":1201,"related":1202,"oint":1203,"Ġchanges":1204,"Ġpredic":1205,"Ġpracti":1206,"Ġpressure":1207,"ior":1208,"ell":1209,"Ġche":1210,"Ġobserved":1211,"Ġfound":1212,"tiveness":1213,"ĠâĢ":1214,"Ġmeasures":1215,"requ":1216,"Ġwithout":1217,"Ġmen":1218,"tained":1219,"Ġmain":1220,"Ġgl":1221,"ade":1222,"az":1223,"UND":1224,"Ġ25":1225,"co":1226,"Ġreported":1227,"Ġol":1228,"Ġmortality":1229,"Ġperformed":1230,"Ġchronic":1231,"Ġadminis":1232,"Ġdiabetes":1233,"Ġevents":1234,"Ġacute":1235,"year":1236,"ĠConclusion":1237,"Ġdesign":1238,"AS":1239,"trolled":1240,"Ġadj":1241,"oles":1242,"Ġsystem":1243,"ving":1244,"Ġit":1245,"ood":1246,"Ġimprovement":1247,"ater":1248,"Ġspec":1249,"ible":1250,"ĠQ":1251,"Ġconduc":1252,"ould":1253,"Ġdiagn":1254,"Ġcoun":1255,"arly":1256,"Ġmeasured":1257,"ie":1258,"Ġpop":1259,"KG":1260,"Ġmet":1261,"ĠBAC":1262,"Ġlong":1263,"Ġsecond":1264,"ROUND":1265,"ĠBACKG":1266,"ĠBACKGROUND":1267,"arge":1268,"tern":1269,"Ġid":1270,"entif":1271,"Ġwor":1272,"Ġrem":1273,"Ġexp":1274,"ros":1275,"jective":1276,"abl":1277,"tinu":1278,"oid":1279,"Ġneed":1280,"Ġpostoperative":1281,"ake":1282,"par":1283,"ption":1284,"Ġwhether":1285,"ividual":1286,"ening":1287,"ool":1288,"02":1289,"oph":1290,"ough":1291,"Ġwhen":1292,"ane":1293,"Ġratio":1294,"kers":1295,"Ġaddition":1296,"Ġpopulation":1297,"xim":1298,"Ġfr":1299,"arm":1300,"ĠPro":1301,"Ġsch":1302,"ĠAt":1303,"Ġadverse":1304,"Ġfactors":1305,"ite":1306,"Ġcol":1307,"Ġvalu":1308,"Ġ50":1309,"acter":1310,"iter":1311,"to":1312,"Ġfe":1313,"gen":1314,"tration":1315,"Ġhyper":1316,"adi":1317,"oss":1318,"Ġreceive":1319,"ison":1320,"Ġfrequ":1321,"afety":1322,"olic":1323,"ral":1324,"estion":1325,"ognitive":1326,"Ġrequ":1327,"ases":1328,"ĠII":1329,"Ġpsych":1330,"Ġoccur":1331,"day":1332,"Ġevaluated":1333,"Ġpe":1334,"ĠCh":1335,"Ġexamin":1336,"Ġdef":1337,"month":1338,"Â·":1339,"Ġadv":1340,"Ġreceiving":1341,"Ġfail":1342,"Ġaim":1343,"Ġcal":1344,"Ġindic":1345,"ample":1346,"ĠNo":1347,"Ġeduc":1348,"Ġcommun":1349,"Ġprob":1350,"Ġcr":1351,"tics":1352,"Ġprovid":1353,"ler":1354,"Ġinto":1355,"Ġcy":1356,"Ġlevel":1357,"IV":1358,"me":1359,"Ġbi":1360,"Ġplus":1361,"Ġiniti":1362,"til":1363,"ingle":1364,"Ġsmoking":1365,"ours":1366,"Ġindividual":1367,"gth":1368,"Ġmost":1369,"Ġprop":1370,"Ġhyp":1371,"Ġpractice":1372,"Ġmanagement":1373,"Ġconducted":1374,"termine":1375,"Ġoral":1376,"over":1377,"Ġdifferent":1378,"Ġcent":1379,"Ġdetermine":1380,"Ġ>":1381,"Ġstat":1382,"Ġevaluate":1383,"ĠTrial":1384,"Ġmeasure":1385,"vent":1386,"Ġscre":1387,"Ġdepression":1388,"Ġep":1389,"Ġassessment":1390,"ĠHowever":1391,"Ġconfidence":1392,"tered":1393,"Ġintens":1394,"ĠCom":1395,"ters":1396,"ĠMethods":1397,"Ġpresent":1398,"Ġoverall":1399,"vere":1400,"uce":1401,"of":1402,"TE":1403,"rough":1404,"Ġbody":1405,"Ġ17":1406,"ĠOBJECTIVE":1407,"Ġ100":1408,"Ġprot":1409,"ced":1410,"Ġcont":1411,"Ġloss":1412,"Ġevidence":1413,"Ġsafety":1414,"arg":1415,"ung":1416,"Ġmodel":1417,"Ġfin":1418,"Ġwithin":1419,"week":1420,"Ġappro":1421,"ax":1422,"cin":1423,"Ġearly":1424,"Ġpo":1425,"Ġmulti":1426,"went":1427,"ĠAn":1428,"Ġsingle":1429,"Ġdos":1430,"Ġtype":1431,"Ġfour":1432,"Ġdecreased":1433,"Ġpers":1434,"ĠK":1435,"Ġabo":1436,"jor":1437,"Ġinterventions":1438,"now":1439,"Ġsample":1440,"Ġidentif":1441,"centr":1442,"Ġhem":1443,"ulin":1444,"reast":1445,"Ġur":1446,"hol":1447,"Ġgeneral":1448,"ateg":1449,"Ġred":1450,"Ġmus":1451,"pir":1452,"ardi":1453,"ross":1454,"tein":1455,"ormal":1456,"Ġomised":1457,"Ġstatistically":1458,"Ġmedical":1459,"Ġconcentr":1460,"Ġnew":1461,"03":1462,"ĠAll":1463,"erate":1464,"ĠStud":1465,"Ġdeath":1466,"Ġtes":1467,"mb":1468,"vious":1469,"Ġmic":1470,"Ġsupport":1471,"Ġintra":1472,"Ġeffectiveness":1473,"endent":1474,"Ġenro":1475,"Ġcognitive":1476,"Ġmedian":1477,"Ġ21":1478,"Ġstatus":1479,"Ġ40":1480,"round":1481,"ob":1482,"ĠGroup":1483,"Ġfollowing":1484,"ĠPA":1485,"ĠAfter":1486,"Ġmajor":1487,"Ġserum":1488,"urther":1489,"Ġfollowed":1490,"Ġcomplic":1491,"controlled":1492,"ĠHIV":1493,"monstr":1494,"tional":1495,"UR":1496,"Ġox":1497,"Ġdet":1498,"Ġter":1499,"mentation":1500,"itation":1501,"Ġdemonstr":1502,"ĠSc":1503,"Ġsevere":1504,"iqu":1505,"Ġpositive":1506,"Ġany":1507,"cle":1508,"Ġthrough":1509,"Ġalone":1510,"Ġheart":1511,"Ġnai":1512,"onary":1513,"urrent":1514,"eding":1515,"erv":1516,"Ġvol":1517,"ential":1518,"Ġbreast":1519,"Ġly":1520,"Ġinform":1521,"Ġpot":1522,"ds":1523,"Ġcost":1524,"Ġinh":1525,"Ġpregn":1526,"Ġrequi":1527,"Ġcompleted":1528,"ology":1529,"gest":1530,"tit":1531,"ĠThese":1532,"anced":1533,"hort":1534,"Ġhours":1535,"asma":1536,"ĠAl":1537,"arch":1538,"ities":1539,"iven":1540,"Ġduration":1541,"Ġresult":1542,"Ġindex":1543,"oral":1544,"04":1545,"Ġpa":1546,"IG":1547,"pati":1548,"ovascular":1549,"ĠJ":1550,"cer":1551,"dings":1552,"Ġcombination":1553,"ful":1554,"kin":1555,"ition":1556,"Ġquestion":1557,"amine":1558,"though":1559,"ĪĴ":1560,"Ġj":1561,"ĠPar":1562,"ons":1563,"itor":1564,"ision":1565,"Ġadjus":1566,"ru":1567,"Ġunderg":1568,"Ġregim":1569,"ependent":1570,"Ġhome":1571,"Ġcompare":1572,"uth":1573,"echn":1574,"ural":1575,"tomy":1576,"ĠAd":1577,"Ġreduce":1578,"Ġcontinu":1579,"Ġ60":1580,"Ġbetter":1581,"Ġinfection":1582,"Ġclin":1583,"Ġcomparison":1584,"Ġ22":1585,"atin":1586,"Ġrelative":1587,"ning":1588,"gical":1589,"ole":1590,"Ġprevious":1591,"oing":1592,"Ġtoler":1593,"Ġmoderate":1594,"Ġcoll":1595,"IN":1596,"Ġleast":1597,"Ġsever":1598,"Ġgiven":1599,"Ġatt":1600,"Ġphase":1601,"ission":1602,"Ġcalc":1603,"Ġach":1604,"Ġabout":1605,"Ġsupple":1606,"Ġ28":1607,"Ġmor":1608,"ately":1609,"Ġintake":1610,"Ġachie":1611,"Ġfailure":1612,"Ġexperi":1613,"ĠDES":1614,"Ġgluc":1615,"Ġusual":1616,"Ġincluding":1617,"group":1618,"ĠAND":1619,"Ġsix":1620,"Ġfl":1621,"Ġcoronary":1622,"Ġbased":1623,"Ġreview":1624,"IGN":1625,"ocial":1626,"oints":1627,"uid":1628,"Ġlim":1629,"Ġrange":1630,"ground":1631,"Ġ\"":1632,"ĠBack":1633,"ended":1634,"RT":1635,"ĠDESIGN":1636,"Ġperformance":1637,"Ġsex":1638,"Ġsuggest":1639,"Ġcommunity":1640,"Ġnur":1641,"Ġtechn":1642,"Ġolder":1643,"ĠConclusions":1644,"Ġstro":1645,"Ġknow":1646,"Ġmedication":1647,"Ġprevention":1648,"jur":1649,"12":1650,"ĠClinical":1651,"ĠStudy":1652,"Ġschool":1653,"li":1654,"ĠOb":1655,"Ġmy":1656,"ution":1657,"tervention":1658,"TION":1659,"Ġscreening":1660,"herence":1661,"ancy":1662,"atal":1663,"Ġcould":1664,"Ġul":1665,"Ġproced":1666,"duced":1667,"ry":1668,"Ġrecord":1669,"Ġaged":1670,"Ġestim":1671,"Ġarter":1672,"ĠBM":1673,"ĠHe":1674,"Ġcommon":1675,"Ġactive":1676,"Ġdist":1677,"Ġdeter":1678,"CI":1679,"osed":1680,"etting":1681,"Ġ199":1682,"10":1683,"Ġprost":1684,"amm":1685,"Ġmicro":1686,"nd":1687,"abil":1688,"ocol":1689,"Ġconsum":1690,"hy":1691,"Ġeducation":1692,"line":1693,"terol":1694,"Ġstroke":1695,"Ġflu":1696,"Ġplasma":1697,"Ġbone":1698,"Ġimport":1699,"mic":1700,"Ġoccurred":1701,"Ġfindings":1702,"Ġrecom":1703,"ses":1704,"motherapy":1705,"Ġantib":1706,"kg":1707,"Ġimpact":1708,"Ġ23":1709,"Ġcardiovascular":1710,"ĠBackground":1711,"Ġloc":1712,"Ġli":1713,"crib":1714,"Ġthey":1715,"Ġbl":1716,"Ġimpl":1717,"Ġhist":1718,"mall":1719,"RI":1720,"air":1721,"Ġ26":1722,"Ġchar":1723,"Ġsess":1724,"Ġdecrease":1725,"ĠMed":1726,"led":1727,"Ġenrolled":1728,"cept":1729,"Ġinsulin":1730,"Ġneu":1731,"Ġacid":1732,"PA":1733,"Ġsens":1734,"Ġadults":1735,"cor":1736,"ables":1737,"Ġcomplications":1738,"iat":1739,"ified":1740,"ked":1741,"Ġshould":1742,"sel":1743,"Ġcontr":1744,"Ġshort":1745,"inary":1746,"mit":1747,"ulmon":1748,"gative":1749,"Ã©":1750,"oma":1751,"ressive":1752,"Ġvit":1753,"enter":1754,"verage":1755,"Ġinjur":1756,"Ġsuch":1757,"ulmonary":1758,"Ġglucose":1759,"Ġmal":1760,"NTS":1761,"Ġasth":1762,"ĠHR":1763,"),":1764,"Ġcases":1765,"Ġcriter":1766,"Ġbec":1767,"copic":1768,"Ġmar":1769,"Ġfem":1770,"rol":1771,"Ġcombined":1772,"Ġdys":1773,"Ġstrateg":1774,"Ġver":1775,"ock":1776,"Ġrese":1777,"Ġclinic":1778,"Ġform":1779,"itis":1780,"abor":1781,"ves":1782,"Ġif":1783,"medi":1784,"ĠMA":1785,"idity":1786,"Ġreport":1787,"Ġresearch":1788,"Ġequ":1789,"Ġmass":1790,".<":1791,"ect":1792,"Ġinformation":1793,"ĠIN":1794,"Ġchemotherapy":1795,"Ġdefin":1796,"Ġval":1797,"ently":1798,"Ġtherap":1799,"lev":1800,"Ġprotocol":1801,"Ġscale":1802,"xi":1803,"Ġcontrols":1804,"ography":1805,"ogen":1806,"Ġ48":1807,"Ġfat":1808,"armac":1809,"Ġ36":1810,"Ġer":1811,"ĠParticip":1812,"ize":1813,"atisf":1814,"uter":1815,"Ġnaire":1816,"struc":1817,"Ġits":1818,"treated":1819,"Ġrelated":1820,"Ġinflu":1821,"Ġfunctional":1822,"AL":1823,"Ġelec":1824,"Ġundergoing":1825,"Ġnormal":1826,"tension":1827,"aneous":1828,"Ġrecru":1829,"Ġcharacter":1830,"Ġopen":1831,"Ġinfants":1832,"Ġimmun":1833,"ĠUn":1834,"ines":1835,"ran":1836,"Ġaffec":1837,"tric":1838,"Ġmultic":1839,"opro":1840,"duction":1841,"Ġarm":1842,"omet":1843,"Ġwill":1844,"eu":1845,"Ġcohort":1846,"ra":1847,"icians":1848,"Ġcardiac":1849,"Ġav":1850,"Ġmethod":1851,"tical":1852,"Ġoper":1853,"Ġwhile":1854,"Ġevaluation":1855,"vic":1856,"ĠOR":1857,"Ġinjec":1858,"Ġkg":1859,"Ġsurgical":1860,"Ġwork":1861,"clud":1862,"ish":1863,"Ġrecomm":1864,"Ġever":1865,"Ġdetermin":1866,"ocardi":1867,"rength":1868,"Ġbenefit":1869,"Ġcriteria":1870,"ished":1871,"imental":1872,"xiety":1873,"Ġ35":1874,"Ġadherence":1875,"ĠâĪĴ":1876,"ĠParticipants":1877,"ĠHealth":1878,"isted":1879,"amic":1880,"ism":1881,"Ġcap":1882,"Ġdoses":1883,"Ġinhib":1884,"Ġasthma":1885,"Ġpropor":1886,"Ġlip":1887,"CO":1888,"ages":1889,"Ġanalges":1890,"Ġpat":1891,"Ġsuccess":1892,"MS":1893,"row":1894,"Ġspecific":1895,"Ġyo":1896,"Ġpreval":1897,"olesterol":1898,"Ġfib":1899,"ysis":1900,"ĠRe":1901,"Ġguid":1902,"utri":1903,"Ġprevent":1904,"Ġproble":1905,"ographic":1906,"Ġ27":1907,"The":1908,"Effec":1909,"Ġoxy":1910,"Ġinitial":1911,"ĠFor":1912,"Ġfew":1913,"Ġtum":1914,"ĠPre":1915,"Ġvalues":1916,"Ġrenal":1917,"Ġalloc":1918,"ME":1919,"Ġtreatments":1920,"Ġdeliver":1921,"iatric":1922,"Ġgrade":1923,"Ġlike":1924,"Ġâī":1925,"Ġadministration":1926,"Ġfactor":1927,"ator":1928,"Ġtimes":1929,"Ġtechniqu":1930,"ĠAc":1931,"ĠEx":1932,"Ġsatisf":1933,"ĠOne":1934,"Ġfrequency":1935,"0001":1936,"ties":1937,"Ġanalyses":1938,"etic":1939,"Ġsal":1940,"venous":1941,"Ġstress":1942,"Ġpregnancy":1943,"urp":1944,"Ġsmall":1945,"ventional":1946,"nee":1947,"Ġclass":1948,"dose":1949,"Ġindependent":1950,"athe":1951,"Ġimportant":1952,"Ġadministered":1953,"Ġvolum":1954,"Ġsus":1955,"Ġdemonstrated":1956,"ored":1957,"Ġprof":1958,"Ġstim":1959,"Ġ32":1960,"ĠME":1961,"Ġbr":1962,"uring":1963,"Ġstrength":1964,"mission":1965,"Ġthrom":1966,"Ġmuscle":1967,"Ġside":1968,"Ġfam":1969,"Ġexamined":1970,"inf":1971,"DL":1972,"arget":1973,"piratory":1974,"ectomy":1975,"Ġir":1976,"sing":1977,"rect":1978,"ĠIC":1979,"Ġnec":1980,"Ġseverity":1981,"orts":1982,"ĠOn":1983,"Ġinvol":1984,"ains":1985,"urpose":1986,"Ġevery":1987,"tial":1988,"Ġback":1989,"Ġlarge":1990,"hip":1991,"utes":1992,"ologic":1993,"Ġhealthy":1994,"Ġtw":1995,"Ġreli":1996,"ĠOf":1997,"Ġcondition":1998,"ĠSD":1999,"ĠDes":2000,"Ġ90":2001,"ists":2002,"rep":2003,"Ġconventional":2004,"Ġparame":2005,"Ġdisc":2006,"Ġsecondary":2007,"mia":2008,"Ġpotential":2009,"Ġlikely":2010,"cording":2011,"undred":2012,"ĠSub":2013,"Ġdeveloped":2014,"Ġsit":2015,"25":2016,"Ġpredict":2017,"Ġradi":2018,"Ġsame":2019,"ostic":2020,"reatment":2021,"Ġgas":2022,"Ġaverage":2023,"Ġfurther":2024,"lamm":2025,"osts":2026,"Ġobes":2027,"Ġ29":2028,"bal":2029,"irth":2030,"Ġvariables":2031,"Ġdisch":2032,"Ġconsumption":2033,"Ġ31":2034,"emia":2035,"fusion":2036,"Ġrad":2037,"ct":2038,"Ġfract":2039,"Ġcycl":2040,"ĠScale":2041,"patient":2042,"uff":2043,"de":2044,"Ġpoints":2045,"leeding":2046,"Ġpub":2047,"Ġpri":2048,"aled":2049,"Ġdietary":2050,"Ġdem":2051,"ĠCO":2052,"istance":2053,"Ġpart":2054,"apa":2055,"test":2056,"ivers":2057,"Ġ45":2058,"ok":2059,"umab":2060,"habil":2061,"sequ":2062,"Ġref":2063,"Ġprotein":2064,"ections":2065,"PO":2066,"Ġcross":2067,"Ġpoint":2068,"ditions":2069,"Ġext":2070,"vir":2071,"essation":2072,"ople":2073,"cohol":2074,"Ġrandomised":2075,"Ġ75":2076,"aging":2077,"15":2078,"ĠPh":2079,"Ġimprovements":2080,"rh":2081,"Ġpharmac":2082,"effec":2083,"Ġhundred":2084,"itivity":2085,"Ġsetting":2086,"ulated":2087,"mented":2088,"Ġ33":2089,"Ġantibio":2090,"andom":2091,"xic":2092,"Ġconditions":2093,"ndrom":2094,"Ġcholesterol":2095,"enced":2096,"gan":2097,"ocardial":2098,"Ġexperimental":2099,"Ġdue":2100,"Ġintensive":2101,"Ġsuper":2102,"PD":2103,"Ġdevelopment":2104,"gi":2105,"Ġsugges":2106,"Ġconcentrations":2107,"Ġprogression":2108,"Ġanxiety":2109,"Ġcharacteris":2110,"Ġknee":2111,"NG":2112,"Ġemp":2113,"Ġtests":2114,"eric":2115,"Ġdate":2116,"Ġ80":2117,"ĠCA":2118,"Ġparameters":2119,"osure":2120,"leep":2121,"Ġabs":2122,"habilitation":2123,"free":2124,"Ġcosts":2125,"Ġintravenous":2126,"Ġprevalence":2127,"Ġadditional":2128,"Ġcessation":2129,"Ġill":2130,"Ġtarget":2131,"Ġunderwent":2132,"Ġobtained":2133,"ste":2134,"Ġregression":2135,"order":2136,"Ġwhereas":2137,"ecu":2138,"ibility":2139,"ature":2140,"Ġwould":2141,"lear":2142,"Ġreducing":2143,"Ġadvanced":2144,"treatment":2145,"urn":2146,"Ġregis":2147,"ious":2148,"isod":2149,"ically":2150,"otherapy":2151,"Ġ201":2152,"Ġfive":2153,"iting":2154,"ived":2155,"Ġprovided":2156,"Ġobjective":2157,"Ġhum":2158,"Ġdiagnosis":2159,"iotherapy":2160,"Ġpoly":2161,"pro":2162,"echan":2163,"ĠBoth":2164,"Ġanaly":2165,"Ġaccording":2166,"Ġsessions":2167,"000":2168,"Ġmaxim":2169,"Ġ34":2170,"ledge":2171,"Ġvolume":2172,"Ġrecorded":2173,"Ġadd":2174,"ĠIt":2175,"Ġcurrent":2176,"Ġnegative":2177,"ĠAlthough":2178,"ĠInd":2179,"Ġbleeding":2180,"Ġvitamin":2181,"11":2182,"hel":2183,"gr":2184,"teroid":2185,"lication":2186,"man":2187,"+/-":2188,"aparos":2189,"Ġsurve":2190,"derly":2191,"Ġem":2192,"tain":2193,"Ġidentified":2194,"Ġposs":2195,"SA":2196,"ĠâĢĻ":2197,"phyl":2198,"Ġenh":2199,"Ġmethods":2200,"Ġcir":2201,"Ġdrugs":2202,"Ġ/":2203,"Ġsa":2204,"Ġtwice":2205,"Ġindividuals":2206,"Ġhaz":2207,"Ġsocial":2208,"Ġpulmonary":2209,"Ġregimen":2210,"copy":2211,"ĠTreatment":2212,"vice":2213,"Ġalcohol":2214,"Ġhazard":2215,"Ġrequired":2216,"Ġprior":2217,"plant":2218,"Ġstudied":2219,"Ġdelivery":2220,"Ġcell":2221,"ĠSET":2222,"ĠIntervention":2223,"Ġcomplete":2224,"Ġvalue":2225,"wenty":2226,"Ġsubst":2227,"Ġinjury":2228,"let":2229,"Ġconfir":2230,"TING":2231,"RP":2232,"20":2233,"Ġblind":2234,"Ġmater":2235,"Ġbecause":2236,"Ġmedic":2237,"Ġmyocardial":2238,"Ġpeople":2239,"13":2240,"Ġlung":2241,"Ġapproach":2242,"ĠST":2243,"Ġdischarge":2244,"ĠImp":2245,"ĠSETTING":2246,"Ġour":2247,"Ġ70":2248,"ergy":2249,"14":2250,"Ġselected":2251,"bidity":2252,"Ġneeded":2253,"Ġsyndrom":2254,"Ġachieved":2255,"Ġassociation":2256,"ourse":2257,"Ġmultiple":2258,"eutic":2259,"Ġmild":2260,"Ġ65":2261,"Ġresid":2262,"Ġallocated":2263,"Ġrehabilitation":2264,"Ġparen":2265,"Ġepisod":2266,"Ġdefined":2267,"Ġcharacteristics":2268,"ĠObjective":2269,"Ġrepe":2270,"dro":2271,"Ġknowledge":2272,"Ġhypot":2273,"Ġstage":2274,"Ġprogramme":2275,"36":2276,"Ġadoles":2277,"Ġinfections":2278,"point":2279,"Ġprostate":2280,"azole":2281,"Ġavail":2282,"Ġhowever":2283,"Ġsome":2284,"Ġles":2285,"CA":2286,"Ġtele":2287,"ASUR":2288,"ĠINTE":2289,"Ġbirth":2290,"ĠMEASUR":2291,"Ġu":2292,"Ġing":2293,"Ġvisits":2294,"ritis":2295,"Ġintensity":2296,"ateral":2297,"Ġsupplementation":2298,"Ġanalyz":2299,"Ġadjusted":2300,"ocy":2301,"SE":2302,"Ġsol":2303,"ĠWh":2304,"Ġextr":2305,"Ġsl":2306,"cal":2307,"ĠOut":2308,"ĠWith":2309,"Ġsleep":2310,"ST":2311,"Ġ37":2312,"ively":2313,"uct":2314,"ĠAss":2315,"Ġimmedi":2316,"Ġsatisfaction":2317,"Ġobserv":2318,"Ġdetermined":2319,"ged":2320,"Ġminutes":2321,"andomized":2322,"ticular":2323,"Ġmechan":2324,"fficacy":2325,"esthes":2326,"Ġshown":2327,"ationship":2328,"16":2329,"ered":2330,"Ġinfusion":2331,"phone":2332,"Ġelderly":2333,"ecutive":2334,"Ġz":2335,"Ġinvestigate":2336,"Ġod":2337,"Ġconsist":2338,"and":2339,"Ġproportion":2340,"Ġrecruited":2341,"Ġminim":2342,"inc":2343,"ower":2344,"vices":2345,"Ġcollected":2346,"ĠOur":2347,"itoring":2348,"ength":2349,"Ġ38":2350,"ĠPr":2351,"Ġimple":2352,"Ġlocal":2353,"Ġresistance":2354,"active":2355,"Ġcaus":2356,"emic":2357,"unt":2358,"ĠTwo":2359,"Ġsuperior":2360,"Ġhypertension":2361,"Ġgly":2362,"overy":2363,"Ġsize":2364,"Ġvisual":2365,"Ġonce":2366,"athy":2367,"Ġurinary":2368,"18":2369,"Ġrelap":2370,"ional":2371,"ilot":2372,"Ġcathe":2373,"Ġ42":2374,"Ġfac":2375,"ĠIV":2376,"Ġlabor":2377,"Ġâī¥":2378,"Ġartery":2379,"Ġcolon":2380,"ensity":2381,"Ġseen":2382,"Ġprospective":2383,"terior":2384,"ĠBMI":2385,"Ġincreasing":2386,"Ġprovide":2387,"Ġ52":2388,"Ġcase":2389,"icial":2390,"Ġlo":2391,"aine":2392,"ference":2393,"Ġperce":2394,"Ġtesting":2395,"Ġhel":2396,"yn":2397,"Ġent":2398,"care":2399,"Ġodds":2400,"Ġpurpose":2401,"Ġexpl":2402,"Ġinvestigated":2403,"ician":2404,"Ġrelationship":2405,"idered":2406,"odium":2407,"Ġphysicians":2408,"Ġlaparos":2409,"ĠRCT":2410,"Ġprom":2411,"Ġnutri":2412,"Ġhistory":2413,"vers":2414,"Ġsafe":2415,"onger":2416,"Ġconsidered":2417,"Ġdisorder":2418,"cell":2419,"iving":2420,"Ġsyndrome":2421,"les":2422,"17":2423,"Ġhip":2424,"Ġincreases":2425,"mph":2426,"Ġbenefits":2427,"ĠIII":2428,"Ġfav":2429,"Ġstay":2430,"ĠAs":2431,"Ġoste":2432,"risk":2433,"Ġbehavior":2434,"meric":2435,"Ġrole":2436,"Ġmulticenter":2437,"Ġsmokers":2438,"esthesia":2439,"Ġrct":2440,"ĠOver":2441,"OL":2442,"emb":2443,"Ġfood":2444,"tenance":2445,"ward":2446,"Ġprocess":2447,"vement":2448,"men":2449,"ressed":2450,"Ġwa":2451,"Ġcounsel":2452,"ĠData":2453,"Ġrecur":2454,"weight":2455,"earch":2456,"Ġmat":2457,"ĠDuring":2458,"Ġsensitivity":2459,"Ġest":2460,"Ġwal":2461,"Ġpercentage":2462,"Ġtested":2463,"Ġ39":2464,"Ġrespiratory":2465,"utaneous":2466,"Ġfeas":2467,"Ġdiffer":2468,"Ġlength":2469,"50":2470,"Ġprocedure":2471,"30":2472,"ick":2473,"tention":2474,"Ġarea":2475,"lex":2476,"Ġimplant":2477,"Ġinten":2478,"Ġsk":2479,"ĠAD":2480,"mental":2481,"Ġmid":2482,"osph":2483,"Ġavailable":2484,"igible":2485,"24":2486,"lace":2487,"Ġrecovery":2488,"Ġbal":2489,"Ġcontinuous":2490,"19":2491,"Ġlonger":2492,"cet":2493,"set":2494,"Ġ44":2495,"Ġcomparing":2496,"ĠâĢĵ":2497,"pos":2498,"ason":2499,"Ġprophyl":2500,"Ġven":2501,"CS":2502,"Ġpoor":2503,"che":2504,"ĠÎ":2505,"aged":2506,"Ġbeing":2507,"Ġweekly":2508,"Ġret":2509,"Ġful":2510,"BT":2511,"Ġthir":2512,"Ġpath":2513,"Ġconcentration":2514,"Ġoxygen":2515,"ĠDi":2516,"Ġtoxic":2517,"BP":2518,"Ġtherapeutic":2519,"aken":2520,"ading":2521,"Ġexperienced":2522,"Ġoff":2523,"Ġperson":2524,"Ġinterview":2525,"ĠHb":2526,"Ġvi":2527,"Ġion":2528,"aff":2529,"Ġinjection":2530,"Ġcorrel":2531,"Ġmorbidity":2532,"Ġthen":2533,"Ġemerg":2534,"Ġfamily":2535,"Ġbehavioral":2536,"Ġdoc":2537,"cri":2538,"Ġstimulation":2539,"Ġinflamm":2540,"specific":2541,"ps":2542,"ĠSe":2543,"Ġso":2544,"Ġfewer":2545,"ales":2546,"ject":2547,"ĠOutcom":2548,"ycin":2549,"ider":2550,"ĠAI":2551,"Ġappear":2552,"tivi":2553,"Ġinte":2554,"Ġpilot":2555,"Ġexamine":2556,"ĠSix":2557,"tensive":2558,"Ġtren":2559,"Ġanalyzed":2560,"ĠCH":2561,"ĠBP":2562,"ification":2563,"ropri":2564,"oglo":2565,"gram":2566,"spective":2567,"Ġaltern":2568,"Ġmaintenance":2569,"ĠDep":2570,"Ġ55":2571,"ĠTwenty":2572,"Ġhypothes":2573,"95":2574,"ills":2575,"ĠTr":2576,"Ġcompli":2577,"Ġcomputer":2578,"ixed":2579,"arr":2580,"ective":2581,"Ġcourse":2582,"Ġultr":2583,"Ġcounseling":2584,"ĠÂ":2585,"Ġvir":2586,"II":2587,"75":2588,"Ġclus":2589,"Ġinfa":2590,"Ġplan":2591,"Ġively":2592,"ĠTrials":2593,"Ġagain":2594,"ĠSubjects":2595,"Ġresponses":2596,"aro":2597,"Ġlog":2598,"ĠComp":2599,"ĠAmong":2600,"Ġcomparable":2601,"Ġunit":2602,"entil":2603,"Ġtelephone":2604,"Ġschiz":2605,"be":2606,"NA":2607,"Ġhuman":2608,"Ġrout":2609,"gin":2610,"Ġdeg":2611,"yle":2612,"uss":2613,"ĠCD":2614,"Ġcirc":2615,"ators":2616,"ormon":2617,"Ġproblems":2618,"Ġhal":2619,"ervical":2620,"VES":2621,"dr":2622,"Ġprol":2623,"ophren":2624,"eth":2625,"Ġcur":2626,"Ġbo":2627,"Ġcount":2628,"elines":2629,"Ġdecision":2630,"ĠNCT":2631,"rosis":2632,"tives":2633,"Ġtechnique":2634,"ched":2635,"ĠFurther":2636,"Ġconsecutive":2637,"Ġarth":2638,"Ġstrategies":2639,"ft":2640,"respon":2641,"Ġamo":2642,"otor":2643,"part":2644,"Ġmale":2645,"aginal":2646,"Ġphysician":2647,"ĠDesign":2648,"ausal":2649,"RS":2650,"Ġaut":2651,"ĠOBJECTIVES":2652,"Ġfal":2653,"ariate":2654,"ust":2655,"Ġml":2656,"opausal":2657,"Ġroutine":2658,"omic":2659,"Ġtolerated":2660,"Ġestabl":2661,"Ġrespond":2662,"gov":2663,"ins":2664,"Ġmeth":2665,"Ġremained":2666,"Ġventil":2667,"Ġparticular":2668,"UT":2669,"Ġcel":2670,"ture":2671,"Ġeight":2672,"Ġsubsequ":2673,"tes":2674,"ĠSecond":2675,"Ġidentify":2676,"pite":2677,"Ġinfluence":2678,"ask":2679,"Ġcompliance":2680,"Ġalthough":2681,"isc":2682,"Ġsour":2683,"Ġlaparoscopic":2684,"Ġprogn":2685,"Ġ46":2686,"Ġfemale":2687,"ĠQu":2688,"tivities":2689,"Ġcreat":2690,"uture":2691,"Ġdiagnosed":2692,"Ġrecommend":2693,"Ġce":2694,"06":2695,"Ġ43":2696,"Ġmag":2697,"Ġpossible":2698,"ĠCT":2699,"Ġpreoperative":2700,"ĠSur":2701,"back":2702,"%)":2703,"Ġprescrib":2704,"orec":2705,"stin":2706,"Ġpreviously":2707,"ĠHC":2708,"Ġreve":2709,"Ġbel":2710,"Ġmmol":2711,"Ġ+/-":2712,"icot":2713,"Ġ72":2714,"rin":2715,"Ġsexual":2716,"Ġdepressive":2717,"neum":2718,"pre":2719,"Ġlimited":2720,"isation":2721,"lobal":2722,"abel":2723,"ĠMAIN":2724,"ĠAmeric":2725,"rit":2726,"cluded":2727,"iel":2728,"Ġmeasurements":2729,"Ġreac":2730,"Ġmental":2731,"Ġdescrib":2732,"ĠThir":2733,"lor":2734,"Ġenergy":2735,"Ġmonitoring":2736,"cutaneous":2737,"que":2738,"istic":2739,"Ġindicated":2740,"itud":2741,"Ġservices":2742,"Ġstudents":2743,"ĠY":2744,"Ġsodium":2745,"ĠRR":2746,"Ġvac":2747,"tolic":2748,"Ġschizophren":2749,"cents":2750,"ĠHg":2751,"vant":2752,"uted":2753,"Ġgraf":2754,"rief":2755,"Ġskin":2756,"Ġprograms":2757,"orders":2758,"ĠPUR":2759,"trol":2760,"Ġrecurrence":2761,"Ġimproving":2762,"ivered":2763,"Ġadult":2764,"reported":2765,"ĠAb":2766,"ocus":2767,"Ġreductions":2768,"POSE":2769,"opl":2770,"Ġblock":2771,"omy":2772,"Ġanalgesic":2773,"Ġtransplant":2774,"Ġgood":2775,"asting":2776,"ĠmL":2777,"Ġhead":2778,"ĠPURPOSE":2779,"orectal":2780,"Ġhormon":2781,"idine":2782,"VEN":2783,"Ġcompos":2784,"ĠINTER":2785,"ences":2786,"ĠAnal":2787,"asone":2788,"Ġleft":2789,"Ġmodels":2790,"Ġutil":2791,"ene":2792,"Ġcarri":2793,"oglobin":2794,"arding":2795,"Ġgrow":2796,"ems":2797,"Ġguidelines":2798,"ĠMean":2799,"Ġdisability":2800,"Ġprocedures":2801,"apine":2802,"Ġestimated":2803,"VENTION":2804,"Ġexposure":2805,"Ġsign":2806,"Ġterms":2807,"pass":2808,"vari":2809,"Ġimproves":2810,"Ġam":2811,"dominal":2812,"oal":2813,"inine":2814,"Ġstrategy":2815,"ĠOUT":2816,"axis":2817,"Ġcatheter":2818,"rolog":2819,"ĠOUTCO":2820,"Ġinduction":2821,"Ġ47":2822,"way":2823,"Ġtumor":2824,"ĠINTERVENTION":2825,"Ġlipid":2826,"Ġflow":2827,"icotine":2828,"Ġtiss":2829,"oscopy":2830,"ĠCo":2831,"function":2832,"28":2833,"Ġmuc":2834,"Ġdirect":2835,"icient":2836,"Ġdiff":2837,"fen":2838,"Ġthromb":2839,"asis":2840,"Ġabstin":2841,"iciency":2842,"Ġbeneficial":2843,"Ġepisodes":2844,"time":2845,"Ġproduc":2846,"Ġacross":2847,"RTI":2848,"Ġactivities":2849,"Ġpattern":2850,"Ġdoes":2851,"valu":2852,"RA":2853,"Ġsubgroup":2854,"olar":2855,"Ġaccept":2856,"Ġ54":2857,"entric":2858,"ork":2859,"ĠSecondary":2860,"Ġanalog":2861,"gl":2862,"alle":2863,"umin":2864,"ĠRec":2865,"Ġstatistical":2866,"aking":2867,"Ġexamination":2868,"anti":2869,"Ġangi":2870,"Ġregimens":2871,"arin":2872,"Ġsti":2873,"hood":2874,"Ġexpec":2875,"ĠHbA":2876,"ropriate":2877,"CE":2878,"Ġvisit":2879,"Ġantibiotic":2880,"iversity":2881,"Ġlymph":2882,"ĠReg":2883,"old":2884,"In":2885,"agl":2886,"other":2887,"aling":2888,"Ġrest":2889,"Ġx":2890,"Ġrequire":2891,"Ġcompon":2892,"Ġcalcium":2893,"Ġrating":2894,"Ġhelp":2895,"Ġ41":2896,"astatin":2897,"Ġpneum":2898,"Ġpeak":2899,"ĠEn":2900,"phine":2901,"Ġsuccessful":2902,"Ġstron":2903,"Ġoptim":2904,"ĠCOPD":2905,"Ġsites":2906,"35":2907,"Ġintention":2908,"Ġunc":2909,"iph":2910,"Ġuntil":2911,"Ġtrend":2912,"Ġevent":2913,"Ġskills":2914,"Ġrefer":2915,"Ġimpair":2916,"NS":2917,"sc":2918,"Ġdrin":2919,"ays":2920,"acity":2921,"Ġclear":2922,"uit":2923,"Ġfluid":2924,"GF":2925,"Ġadmission":2926,"ĠRandomized":2927,"Ġ49":2928,"Ġ56":2929,"aum":2930,"estyle":2931,"22":2932,"pha":2933,"Ġ$":2934,"Ġparticipated":2935,"ened":2936,"rine":2937,"Ġoften":2938,"ital":2939,"Ġnurse":2940,"Ġimplants":2941,"tle":2942,"Ġpsychological":2943,"ner":2944,"ising":2945,"Ġreplace":2946,"otic":2947,"TIE":2948,"Ġconsisted":2949,"Ġdiabetic":2950,"Ġ64":2951,"Ġrelapse":2952,"Ġbypass":2953,"bral":2954,"ĠPl":2955,"Ġelev":2956,"tile":2957,"Ġbehaviour":2958,"Ġrevealed":2959,"Ġmade":2960,"Ġdelay":2961,"Ġsurvey":2962,"ĠCancer":2963,"mitted":2964,"cinoma":2965,"Ġgener":2966,"FS":2967,"oprotein":2968,"Ġdex":2969,"Ġsystolic":2970,"entia":2971,"Ġyoung":2972,"Ġregarding":2973,"Ġvery":2974,"07":2975,"ier":2976,"Ġadolescents":2977,"Ġaer":2978,"amp":2979,"ĠPATIE":2980,"Ġcells":2981,"Ġthird":2982,"Ġcervical":2983,"onic":2984,"Ġreporting":2985,"Ġmemb":2986,"allel":2987,"Ġorgan":2988,"Ġquit":2989,"ĠPD":2990,"ĠNe":2991,"pr":2992,"gue":2993,"ĠCR":2994,"Ġreduces":2995,"Ġregard":2996,"Ġcapacity":2997,"002":2998,"itr":2999,"menopausal":3000,"ĠIL":3001,"Ġomization":3002,"Ġlater":3003,"Ġrepeated":3004,"Ġtransfusion":3005,"Ġthem":3006,"Ġder":3007,"ĠAf":3008,"Ġeligible":3009,"Ġhaem":3010,"ĠWomen":3011,"Ġvenous":3012,"Ġsustained":3013,"Ġcluster":3014,"ĠChild":3015,"Ġnicotine":3016,"Ġmight":3017,"ife":3018,"Ġcause":3019,"eful":3020,"edback":3021,"tinence":3022,"Ġillness":3023,"ĠThirty":3024,"fied":3025,"Ġische":3026,"Ġdisorders":3027,"ĠMul":3028,"ensive":3029,"orrh":3030,"Ġeven":3031,"Ġaccur":3032,"Ġuseful":3033,"34":3034,"obic":3035,"Ġrelief":3036,"Ġdiscon":3037,"Ġtyp":3038,"ĠOUTCOME":3039,"Ġcycles":3040,"Ġfunctioning":3041,"ĠâĢĶ":3042,"itus":3043,"Ġliver":3044,"Ġagainst":3045,"26":3046,"ID":3047,"lling":3048,"Ġparallel":3049,"Ġmultiv":3050,"equ":3051,"Ġmaximum":3052,"Ġeducational":3053,"Ġrecommended":3054,"Ġgest":3055,"Ġaspir":3056,"Ġemergency":3057,"Ġendpoint":3058,"Ġrecurrent":3059,"acin":3060,"Ġhydro":3061,"Ġbiop":3062,"Ġlesions":3063,"ache":3064,"ĠAfric":3065,"formin":3066,"entricular":3067,"40":3068,"Ġneon":3069,"Ġbacter":3070,"ĠCP":3071,"Ġsched":3072,"Ġanalgesia":3073,"ident":3074,"umm":3075,"iological":3076,"Ġwound":3077,"arger":3078,"ises":3079,"ĠPain":3080,"Ġknown":3081,"Ġ53":3082,"try":3083,"Ġlead":3084,"uvant":3085,"atigue":3086,"Ġsystematic":3087,"Ġonset":3088,"Ġtissue":3089,"Ġdysfunction":3090,"Ġhaving":3091,"Ġpresence":3092,"ially":3093,"Ġread":3094,"tral":3095,"Ġincon":3096,"lied":3097,"asty":3098,"Ġalternative":3099,"80":3100,"Ġgastro":3101,"onia":3102,"23":3103,"IC":3104,"Ġgrowth":3105,"Ġher":3106,"Ġ57":3107,"Ġattend":3108,"Ġauth":3109,"Ġconfirmed":3110,"Ġcontrib":3111,"Ġoutpatient":3112,"Ġ85":3113,"Ġsaline":3114,"ĠPost":3115,"ĠPrimary":3116,"85":3117,"rest":3118,"CIPA":3119,"Ġcm":3120,"Ġpersons":3121,"IS":3122,"ĠPE":3123,"ĠUS":3124,"oro":3125,"Ġabstinence":3126,"Ġunits":3127,"Ġfocus":3128,"orn":3129,"odyn":3130,"Ġobesity":3131,"Ġexperience":3132,"Ġstable":3133,"ender":3134,"Ġ59":3135,"Ġtoxicity":3136,"ĠPer":3137,"Ġmob":3138,"por":3139,"face":3140,"Ġobese":3141,"apid":3142,"thasone":3143,"ximately":3144,"RTICIPA":3145,"aria":3146,"ĠFort":3147,"Ġindicate":3148,"ĠCV":3149,"ĠPARTICIPA":3150,"27":3151,"Ġdelivered":3152,"Ġfree":3153,"Ġana":3154,"Ġsubsequent":3155,"ĠPARTICIPANTS":3156,"Ġsymptomatic":3157,"Ġgoal":3158,"Ġhom":3159,"=.":3160,"Ġradiotherapy":3161,"Ġsite":3162,"Ġstate":3163,"ĠOverall":3164,"Ġcolorectal":3165,"Ġfracture":3166,"Ġregular":3167,"Ġability":3168,"intervention":3169,"others":3170,"Ġfacil":3171,"Ġadjust":3172,"Ġmany":3173,"ĠIndex":3174,"induced":3175,"Ġsuff":3176,"Ġcalculated":3177,"aching":3178,"Ġschizophrenia":3179,"AR":3180,"ĠCompared":3181,"ER":3182,"Ġbeta":3183,"ĠPATIENTS":3184,"Ġinhibitor":3185,"ivided":3186,"Ġdiscontinu":3187,"ĠAssess":3188,"ifty":3189,"Ġreplacement":3190,"hem":3191,"ĠPhys":3192,"ediatric":3193,"Ġlifestyle":3194,"Ġcontrast":3195,"use":3196,"ĠIntern":3197,"Ġdetected":3198,"ĠForty":3199,"Ġaffect":3200,"Ġcult":3201,"Ġtemp":3202,"asal":3203,"Ġ58":3204,"aired":3205,"Ġgain":3206,"ausea":3207,"RIAL":3208,"21":3209,"ule":3210,"app":3211,"Ġvaginal":3212,"Ġcorrelated":3213,"tivation":3214,"illin":3215,"Ġconsider":3216,"ield":3217,"atur":3218,"tex":3219,"Ġabdominal":3220,"60":3221,"'s":3222,"Ġdiagnostic":3223,"Ġapplied":3224,"Ġdementia":3225,"Ġserious":3226,"actic":3227,"teen":3228,"Ġlas":3229,"Ġtool":3230,"Ġbalance":3231,"ump":3232,"99":3233,"ney":3234,"Ġvascular":3235,"Ġstruct":3236,"Ġ51":3237,"UD":3238,"aw":3239,"Ġwalking":3240,"ori":3241,"Ġconclusion":3242,"Ġmetab":3243,"Ġtop":3244,"Ġrelev":3245,"ances":3246,"Ġrecept":3247,"Ġmaintained":3248,"Ġfrequent":3249,"artment":3250,"33":3251,"Ġfractures":3252,"Ġneck":3253,"ings":3254,"ably":3255,"IT":3256,"avir":3257,"tid":3258,"label":3259,"Ġcontinued":3260,"Ġdivided":3261,"Com":3262,"bumin":3263,"Ġhighly":3264,"Ġemb":3265,"Ġpredicted":3266,"Ġlarger":3267,"Ġanterior":3268,"ymptom":3269,"86":3270,"Effect":3271,"Ġcarried":3272,"Ġcri":3273,"90":3274,"struction":3275,"ĠNS":3276,"Ġair":3277,"ĠQuestion":3278,"Ġintervals":3279,"Ġdeaths":3280,"Ġreturn":3281,"rane":3282,"Ġaccess":3283,"45":3284,"fered":3285,"ging":3286,"Ġneut":3287,"ronch":3288,"Ġmedications":3289,"ĠFollow":3290,"Ġtoward":3291,"ĠZ":3292,"positive":3293,"loy":3294,"ĠMore":3295,"Ġbehaviors":3296,"ĠAmerican":3297,"005":3298,"Ġ63":3299,"Ġdone":3300,"Ġ67":3301,"Ġtub":3302,"odynamic":3303,"Ġpredictive":3304,"Ġwhom":3305,"Ġseven":3306,"Ġepid":3307,"acer":3308,"Effects":3309,"Ġpromot":3310,"Ġfavor":3311,"ients":3312,"aret":3313,"aper":3314,"65":3315,"Ġacet":3316,"Ġmetformin":3317,"imin":3318,"Ġarterial":3319,"olism":3320,"Ġimpairment":3321,"Ġnursing":3322,"89":3323,"ber":3324,"Ġarms":3325,"Ġprofile":3326,"igaret":3327,"lished":3328,"Ġsed":3329,"29":3330,"Ġstar":3331,"amide":3332,"Ġwithd":3333,"Ġrepres":3334,"dep":3335,"Ġrapid":3336,"Ġhospitalization":3337,"Ġdensity":3338,"ĠMan":3339,"Ġliving":3340,"Ġline":3341,"normal":3342,"Ġnoted":3343,"Ġbasis":3344,"Ġoverweight":3345,"roph":3346,"Ġsignific":3347,"Ġprophylaxis":3348,"Ġteam":3349,"asive":3350,"ulatory":3351,"88":3352,"Ġ66":3353,"Ġschools":3354,"Ġmarkers":3355,"Ġcentral":3356,"ioid":3357,"Ġcere":3358,"Ġreports":3359,"chan":3360,"ime":3361,"astolic":3362,"Ġsequ":3363,"ĠICU":3364,"tide":3365,"amethasone":3366,"Ġnausea":3367,"MP":3368,"Ġfatigue":3369,"Ġmothers":3370,"37":3371,"rs":3372,"Ġorder":3373,"list":3374,"ĠThree":3375,"Ġappropriate":3376,"Ġbrief":3377,"ĠMEASURES":3378,"adj":3379,"ĠAssessment":3380,"Ġmaternal":3381,"Ġet":3382,"Ġdiffic":3383,"ING":3384,"ching":3385,"Ġproblem":3386,"cemic":3387,"mL":3388,"ĠHospital":3389,"Ġdocu":3390,"Ġpower":3391,"parin":3392,"ĠControlled":3393,"hold":3394,"parison":3395,"stract":3396,"Ġseveral":3397,"get":3398,"Ġblinded":3399,"ometric":3400,"Ġbup":3401,"ode":3402,"Ġpersist":3403,"87":3404,"ĠEu":3405,"Ġfull":3406,"mal":3407,"Ġmodified":3408,"arth":3409,"ĠDepression":3410,"idone":3411,"Ġ69":3412,"Ġestablished":3413,"Ġtri":3414,"orb":3415,"Ġupper":3416,"den":3417,"umbar":3418,"Ġdepend":3419,"Ġbrain":3420,"ĠWhen":3421,"Ġplay":3422,"ittle":3423,"Ġstrati":3424,"ĠVAS":3425,"Ġplate":3426,"Ġimaging":3427,"Ġtechniques":3428,"imens":3429,"Ġauthors":3430,"oot":3431,"Ġcorrelation":3432,"ocaine":3433,"Ġmem":3434,"Ġprolong":3435,"Ġsystemic":3436,"Ġtask":3437,"asound":3438,"Ġimmediately":3439,"ĠDis":3440,"Ġventricular":3441,"Ġ62":3442,"Ġ74":3443,"Ġpractition":3444,"udes":3445,"Ġfit":3446,"Ġdistress":3447,"vascular":3448,"olec":3449,"Ġincontinence":3450,"Ġmotor":3451,"lease":3452,"Ġapproximately":3453,"Ġanesthesia":3454,"Ġbias":3455,"Ġ68":3456,"Ġhormone":3457,"ĠLDL":3458,"<.":3459,"73":3460,"09":3461,"Ġthrombo":3462,"hing":3463,"aque":3464,"jection":3465,"spect":3466,"istant":3467,"nis":3468,"Ġtaken":3469,"Ġunders":3470,"ĠResearch":3471,"Ġnaires":3472,"Ġdom":3473,"Ġparents":3474,"BS":3475,"Ġstep":3476,"Ġremo":3477,"Ġ&":3478,"Ġcarcinoma":3479,"Ġleg":3480,"dL":3481,"cep":3482,"ĠIns":3483,"ned":3484,"ĠTher":3485,"ĠProspect":3486,"ĠInc":3487,"Ġfinal":3488,"Ġsignificance":3489,"raw":3490,"Ġperceived":3491,"temp":3492,"84":3493,"ĠPC":3494,"Ġdecline":3495,"ĠEffec":3496,"AP":3497,"ues":3498,"ilateral":3499,"Ġglobal":3500,"Ġadequ":3501,"ders":3502,"xy":3503,"Ġstill":3504,"Ġpredictors":3505,"Ġfall":3506,"isms":3507,"Ġconcer":3508,"hydr":3509,"Ġdiscuss":3510,"Ġmicrog":3511,"Ġservice":3512,"Ġfeasibility":3513,"aced":3514,"Ġsuggests":3515,"Ġcycle":3516,"Ġiron":3517,"Ġterm":3518,"Ġallow":3519,"Ġenc":3520,"Ġhospitals":3521,"67":3522,"Ġsw":3523,"Ġvia":3524,"003":3525,"Ġexercises":3526,"Ġcrossover":3527,"ĠCare":3528,"ĠDec":3529,"educ":3530,"Ġbest":3531,"Ġcenters":3532,"Ġneuro":3533,"Ġregistered":3534,"less":3535,"ries":3536,"Ġreceptor":3537,"Ġprovides":3538,"VA":3539,"terone":3540,"Ġsuggested":3541,"ck":3542,"ml":3543,"Ġtaking":3544,"Ġ61":3545,"Ġparticularly":3546,"Ġpublic":3547,"08":3548,"lim":3549,"unte":3550,"Ġsolution":3551,"hest":3552,"Ġnor":3553,"ient":3554,"Ġexc":3555,"izumab":3556,"Ġspecial":3557,"Ġpublished":3558,"ĠMI":3559,"Ġresidents":3560,"Ġneurop":3561,"Ġproduced":3562,"Ġfrequently":3563,"ulative":3564,"OR":3565,"Ġapplication":3566,"clude":3567,"Ġwhere":3568,"Ġmalaria":3569,"Ġaerobic":3570,"Ġclinics":3571,"32":3572,"Ġ96":3573,"gly":3574,"Ġ76":3575,"two":3576,"Ġpostmenopausal":3577,"Ġamb":3578,"Ġelectr":3579,"aren":3580,"vastatin":3581,"Ġhalf":3582,"Ġagents":3583,"Ġflex":3584,"Ġresection":3585,"hetic":3586,"Ġinteraction":3587,"feron":3588,"Ġlaboratory":3589,"Ġcop":3590,"Ġlipoprotein":3591,"Ġwhole":3592,"Ġcho":3593,"Ġaspirin":3594,"ercise":3595,"hour":3596,"DM":3597,"cine":3598,"ortic":3599,"effectiveness":3600,"Ġthroughout":3601,"Ġwater":3602,"ker":3603,"axel":3604,"Ġfeedback":3605,"ipheral":3606,"Ġ150":3607,"Ġfalls":3608,"upp":3609,"orter":3610,"Ġ400":3611,"rected":3612,"Ġlate":3613,"ĠInf":3614,"Ġelectro":3615,"70":3616,"Ġhypothesis":3617,"ellitus":3618,"Ġcateg":3619,"Ġbronch":3620,"ĠMain":3621,"Ġareas":3622,"ĠNew":3623,"Ġtraum":3624,"Ġ84":3625,"Ġpneumonia":3626,"âĪĴ":3627,"Ġear":3628,"osocial":3629,"39":3630,"ĠAr":3631,"MI":3632,"Ġcreatinine":3633,"ĠThey":3634,"icin":3635,"eti":3636,"Ġconsult":3637,"Ġdiastolic":3638,"ĠSignificant":3639,"MT":3640,"ailored":3641,"Ġcareg":3642,"jectives":3643,"omiting":3644,"Ġheparin":3645,"uality":3646,"Ġcigaret":3647,"Ġsession":3648,"Ġcarb":3649,"Ġmeasurement":3650,"Ġemploy":3651,"acerb":3652,"Ġmemory":3653,"Ġdial":3654,"Ġsul":3655,"Ġshorter":3656,"Ġhemoglobin":3657,"Ġadjustment":3658,"Ġ78":3659,"aditional":3660,"partum":3661,"Ġadvant":3662,"ĠÃ":3663,"Ġocc":3664,"79":3665,"PV":3666,"Ġendot":3667,"Ġendomet":3668,"Ġtolerability":3669,"Ġopioid":3670,"enia":3671,"ides":3672,"Ġequival":3673,"BG":3674,"Ġliter":3675,"Ġultrasound":3676,"four":3677,"testinal":3678,"38":3679,"patitis":3680,"ĠNational":3681,"ocal":3682,"Ġdevice":3683,"Ġpreterm":3684,"Ġmorphine":3685,"76":3686,"Ġgender":3687,"ĠMEASURE":3688,"PS":3689,"Ġtable":3690,"LA":3691,"ialysis":3692,"Ġimmediate":3693,"ĠSF":3694,"Ġrelevant":3695,"ĠCBT":3696,"ighest":3697,"ĠSp":3698,"Ġ500":3699,"Ġspinal":3700,"ension":3701,"Ġtransplantation":3702,"Ġgastric":3703,"oprost":3704,"ĠChildren":3705,"Ġantibiotics":3706,"Ġsteroid":3707,"Ġnecess":3708,"Ġenhance":3709,"valuation":3710,"entre":3711,"zy":3712,"Ġvolunte":3713,"Ġfuture":3714,"Ġmeans":3715,"Ġhous":3716,"ĠEl":3717,"Ġintegr":3718,"agon":3719,"Ġrandomly":3720,"Ġwithdraw":3721,"Ġvide":3722,"Ġinjuries":3723,"Ġpartial":3724,"ĠUsing":3725,"Ġtolerance":3726,"Ġhighest":3727,"ĠPatient":3728,"Ġinvolved":3729,"ĠFI":3730,"Ġimplementation":3731,"Ġabnormal":3732,"Ġmis":3733,"Ġveget":3734,"ventive":3735,"matic":3736,"Ġcenter":3737,"oarth":3738,"br":3739,"Ġlast":3740,"Ġrestric":3741,"Ġardized":3742,"Ġsin":3743,"31":3744,"helial":3745,"44":3746,"hea":3747,"ulating":3748,"âĢĻ":3749,"Ġremission":3750,"izing":3751,"Ġparticipation":3752,"intestinal":3753,"Ġsepar":3754,"Ġtrained":3755,"Ġdistrib":3756,"Ġeth":3757,"Ġnurses":3758,"Ġmellitus":3759,"read":3760,"rope":3761,"ĠFifty":3762,"ĠSixty":3763,"Ġib":3764,"Ġ79":3765,"taining":3766,"dependent":3767,"MD":3768,"Ġexacerb":3769,"Ġset":3770,"Ġbase":3771,"ĠDise":3772,"Ġrepair":3773,"Ġnutrition":3774,"Ġ71":3775,"Ġhepatitis":3776,"actory":3777,"Ġdecreases":3778,"Ġlumbar":3779,"ang":3780,"Ġmaterial":3781,"varian":3782,"viron":3783,"Ġtob":3784,"Ġcortic":3785,"yr":3786,"Ġperiods":3787,"ergic":3788,"uk":3789,"ĠPR":3790,"Ġoperation":3791,"Ġrespect":3792,"Ġischemic":3793,"Ġhep":3794,"Ġhow":3795,"Ġey":3796,"pecially":3797,"oL":3798,"zapine":3799,"ave":3800,"erve":3801,"ĠâĢľ":3802,"Ġspon":3803,"Ġlittle":3804,"ĠCl":3805,"ĠMeas":3806,"uria":3807,"ogly":3808,"owel":3809,"Ġfasting":3810,"Ġemo":3811,"ĠRE":3812,"Ġinflammatory":3813,"reg":3814,"Ġfas":3815,"ĠInter":3816,"UC":3817,"Ġadvice":3818,"ocyte":3819,"take":3820,"ĠRT":3821,"Ġespecially":3822,"ĠEight":3823,"Ġ86":3824,"ĠSetting":3825,"Ġsoci":3826,"48":3827,"Ġrecommendations":3828,"Ġtract":3829,"Ġappears":3830,"Ġrh":3831,"Ġprognostic":3832,"ATION":3833,"Ġap":3834,"Ġminor":3835,"ify":3836,"urance":3837,"ĠMedical":3838,"entially":3839,"entan":3840,"Ġcontaining":3841,"Ġperipheral":3842,"Ġinstr":3843,"Ġaffected":3844,"ĠPT":3845,"Ġpresented":3846,"aily":3847,"reh":3848,"uncture":3849,"etine":3850,"ĠAfrican":3851,"ibr":3852,"Ġvomiting":3853,"Ġnons":3854,"mg":3855,"Ġremains":3856,"Ġlaser":3857,"Ġunderst":3858,"osteroid":3859,"Ġdegree":3860,"Ġsyn":3861,"idney":3862,"ĠFour":3863,"retion":3864,"49":3865,"ĠSE":3866,"Ġelevated":3867,"Ġ77":3868,"66":3869,"actions":3870,"ochem":3871,"ĠGP":3872,"andard":3873,"ĠFin":3874,"Ġmood":3875,"ules":3876,"Ġbiopsy":3877,"oarthritis":3878,"oe":3879,"Ġventilation":3880,"cy":3881,"imer":3882,"Ġphosph":3883,"ĠSer":3884,"Ġpul":3885,"Ġ73":3886,"Ġconclude":3887,"als":3888,"tation":3889,"tent":3890,"ĠED":3891,"ĠAC":3892,"Ġantic":3893,"ĠHF":3894,"Ġtooth":3895,"ĠProgram":3896,"Ġadmitted":3897,"%,":3898,"points":3899,"Ġpreventing":3900,"Ġhealing":3901,"etal":3902,"Ġaden":3903,"arri":3904,"inib":3905,"Ġ82":3906,"GI":3907,"Ġpsychosocial":3908,"chool":3909,"ĠLe":3910,"ĠEurope":3911,"ling":3912,"ĠSTUD":3913,"aryn":3914,"Ġconsistent":3915,"ĠMD":3916,"Ġmarg":3917,"ĠOutcomes":3918,")-":3919,"Ġprescri":3920,"Ġchlor":3921,"Ġamount":3922,"hospital":3923,"ĠBet":3924,"Ġlear":3925,"(-":3926,"Ġmatched":3927,"Ġtrig":3928,"Ġrecip":3929,"Ġtraditional":3930,"ĠUnited":3931,"Ġcer":3932,"ĠHigh":3933,"ĠSTUDY":3934,"ĠQuality":3935,"Ġgraft":3936,"lit":3937,"Ġulcer":3938,"OM":3939,"astic":3940,"ĠRegis":3941,"ca":3942,"Ġfraction":3943,"Ġ81":3944,"Ġmultivariate":3945,"Ġattention":3946,"acco":3947,"ĠIS":3948,"Ġcompletion":3949,"Ġstaff":3950,"Ġsubjective":3951,"umulative":3952,"Ġrecent":3953,"Ġsu":3954,"Ġ88":3955,"essional":3956,"Ġload":3957,"toc":3958,"Ġplaque":3959,"five":3960,"Ġtypes":3961,"Ġinclude":3962,"ĠAL":3963,"Ġng":3964,"oscopic":3965,"Ġdelayed":3966,"Ġmagn":3967,"Ġneonatal":3968,"Ġ89":3969,"ĠAbstract":3970,"Ġinhibit":3971,"mor":3972,"69":3973,"004":3974,"Ġdetection":3975,"section":3976,"ĠMS":3977,"Ġrepresent":3978,"Ġnine":3979,"ĠâĢĿ":3980,"Ġ83":3981,"Ġ120":3982,"Ġery":3983,"aseline":3984,"Ġaccuracy":3985,"Ġtend":3986,"otal":3987,"Ġlack":3988,"ĠSim":3989,"78":3990,"ĠDiab":3991,"opath":3992,"Ġobservation":3993,"64":3994,"74":3995,"Ġovarian":3996,"AT":3997,"Ġsof":3998,"Ġretro":3999,"Ġexcluded":4000,"management":4001,"Ġthres":4002,"55":4003,"ĠBMD":4004,"Ġestimate":4005,"Ġled":4006,"Ġ300":4007,"Ġusers":4008,"PT":4009,"aches":4010,"Ġdexamethasone":4011,"ĠSel":4012,"ĠMETHOD":4013,"ĠChan":4014,"usted":4015,"Ġmil":4016,"Ġslight":4017,"odialysis":4018,"ubation":4019,"Ġrisks":4020,"Ġsham":4021,"hib":4022,"Ġelective":4023,"Ġcontrace":4024,"Ġdifficult":4025,"allen":4026,"eli":4027,"ociated":4028,"ĠOutcome":4029,"antial":4030,"Ġprem":4031,"Ġant":4032,"Ġenviron":4033,"Ġdemographic":4034,"Ġbur":4035,"ogram":4036,"ĠES":4037,"PC":4038,"abine":4039,"iring":4040,"Ġprepar":4041,"ĠIU":4042,"Ġwar":4043,"yst":4044,"ivors":4045,"rium":4046,"Ġinduced":4047,"ĠHA":4048,"Ġnorm":4049,"68":4050,"Ġ94":4051,"Ġold":4052,"ĠDisease":4053,"Ġjoint":4054,"Ġregistration":4055,"Ġadjuvant":4056,"Ġattemp":4057,"Ġminimal":4058,"Ġurine":4059,"ĠFrom":4060,"Ġlogistic":4061,"ories":4062,"Ġwide":4063,"Ġvirus":4064,"romycin":4065,"ores":4066,"yste":4067,"Ġenhanced":4068,"depress":4069,"Ġratios":4070,"mol":4071,"Ġsimple":4072,"Ġdiseases":4073,"Ġcomplex":4074,"ili":4075,"ĠImpro":4076,"EV":4077,"arb":4078,"oses":4079,"Ġrun":4080,"ĠDe":4081,"Ġtransfer":4082,"Ġperiodon":4083,"Ġdied":4084,"Ġtherefore":4085,"ferences":4086,"ril":4087,"72":4088,"ton":4089,"Ġcle":4090,"Ġmonotherapy":4091,"Ġpediatric":4092,"ather":4093,"ban":4094,"unger":4095,"six":4096,"opathy":4097,"eight":4098,"Ġacco":4099,"Ġpostoperatively":4100,"Ġpregnant":4101,"ummary":4102,"Ġcorticosteroid":4103,"ĠMin":4104,"Ġprim":4105,"Ġmetast":4106,"nual":4107,"Ġvarious":4108,"Ġobservational":4109,"cit":4110,"structive":4111,"Ġstratified":4112,"Ġprolonged":4113,"ĠX":4114,"Ġintern":4115,"itment":4116,"dle":4117,"Ġcountries":4118,"Ġfitness":4119,"Ġ92":4120,"Ġmechanical":4121,"Ġcaused":4122,"ĠRep":4123,"Ġantidepress":4124,"Ġerro":4125,"olute":4126,"Ġfailed":4127,"isting":4128,"Ġdemonstrate":4129,"ĠOS":4130,"ought":4131,"elvic":4132,"Ġremin":4133,"Ġ--":4134,"Ġinvolving":4135,"bl":4136,"ĠTE":4137,"56":4138,"ancies":4139,"Ġmess":4140,"Ġinflammation":4141,"Ġgenot":4142,"ĠAnalysis":4143,"Ġgastrointestinal":4144,"ĠAT":4145,"Ġcircum":4146,"uled":4147,"tensity":4148,"Ġtreating":4149,"Ġcommunication":4150,"Ġ1000":4151,"ptive":4152,"etric":4153,"Ġbed":4154,"roid":4155,"Ġvalidity":4156,"tual":4157,"Ġalbumin":4158,"98":4159,"Ġcompreh":4160,"Ġassessing":4161,"Ġ87":4162,"ese":4163,"ickness":4164,"54":4165,"Ġmanual":4166,"itudinal":4167,"Ġconsent":4168,"Ġabove":4169,"Ġlact":4170,"Ġpostpartum":4171,"Ġdental":4172,"Ġsigns":4173,"ximal":4174,"Ġsuperv":4175,"Ġsubstantial":4176,"Ġacc":4177,"ĠEach":4178,"rex":4179,"Ġvaccine":4180,"ĠUniversity":4181,"elling":4182,"Ġtherapies":4183,"ired":4184,"Ġthrombosis":4185,"Ġmeet":4186,"Ġradiation":4187,"itored":4188,"Ġkidney":4189,"94":4190,"illary":4191,"77":4192,"Ġ93":4193,"Ġmixed":4194,"irls":4195,"netic":4196,"Ġdepartment":4197,"Ġdeveloping":4198,"ternal":4199,"ĠBec":4200,"Ġalpha":4201,"TERIAL":4202,"Ġcomparative":4203,"Ġbowel":4204,"Ġfeasible":4205,"Ġartic":4206,"Ġsources":4207,"idation":4208,"ĠMATERIAL":4209,"Ġfoot":4210,"Ġattit":4211,"Ġpreventive":4212,"Ġbiom":4213,"Ġachieve":4214,"Ġchallen":4215,"issions":4216,"Ġnasal":4217,"Ġprescribed":4218,"82":4219,"Ġspe":4220,"Ġitems":4221,"Ġexpression":4222,"Ġinstit":4223,"Ġinvestigation":4224,"esis":4225,"Ġlin":4226,"ĠAN":4227,"tility":4228,"Ġlost":4229,"53":4230,"Ġcontent":4231,"Ġmaximal":4232,"efficacy":4233,"Ġinser":4234,"eart":4235,"Ġvali":4236,"Ġfacilit":4237,"96":4238,"ĠSU":4239,"olone":4240,"Ġgenerally":4241,"ailed":4242,"Ġcheck":4243,"Ġmut":4244,"Ġstandard":4245,"Ġagent":4246,"HA":4247,"ĠTherapy":4248,"Hg":4249,"Ġ91":4250,"Ġoptimal":4251,"Ġshock":4252,"Ġvolunteers":4253,"ĠMedian":4254,"kle":4255,"Ġcumulative":4256,"Ġke":4257,"umat":4258,"Ġsource":4259,"Ġindependently":4260,"Ġmulticentre":4261,"83":4262,"Ġmes":4263,"Ġgel":4264,"Ġlimit":4265,"42":4266,"ĠOA":4267,"fort":4268,"Ġcauses":4269,"rox":4270,"Ġratings":4271,"ystem":4272,"throp":4273,"clus":4274,"Ġnone":4275,"Ġrelation":4276,"ĠHRQ":4277,"Ġhemorrh":4278,"ĠCM":4279,"97":4280,"Ġpanc":4281,"Ġconfirm":4282,"ula":4283,"ilies":4284,"know":4285,"enz":4286,"gener":4287,"ĠHCV":4288,"Ġcorrespon":4289,"ynamic":4290,"venty":4291,"Ġtobacco":4292,"Ġscales":4293,"Ġlight":4294,"infected":4295,"41":4296,"46":4297,"Ġclearance":4298,"Ġacup":4299,"ĠQOL":4300,"ĠAE":4301,"uts":4302,"Ġassociations":4303,"Ġspecificity":4304,"Ġextent":4305,"Ġten":4306,"oxic":4307,"Ġrequiring":4308,"oag":4309,"Ġoccurrence":4310,"Ġglycemic":4311,"oul":4312,"ĠOnly":4313,"Ġmalign":4314,"Ġ97":4315,"Ġdialysis":4316,"ld":4317,"Ġcomponents":4318,"ĠDespite":4319,"BV":4320,"ĠAus":4321,"psych":4322,"nia":4323,"Ġosteoarthritis":4324,"Ġinternal":4325,"Ġiss":4326,"Ġsurvivors":4327,"Ġpaper":4328,"Ġcef":4329,"81":4330,"rectomy":4331,"uscular":4332,"Ġorig":4333,"59":4334,"ĠHeart":4335,"CC":4336,"ĠSS":4337,"pan":4338,"imus":4339,"Ġrecipients":4340,"Ġincre":4341,"ĠJan":4342,"Ġsoft":4343,"Ġchi":4344,"Ġstop":4345,"Ġaddress":4346,"Ġequivalent":4347,"ĠMT":4348,"ofol":4349,"idol":4350,"57":4351,"oprostol":4352,"100":4353,"Ġtailored":4354,"Ġexcept":4355,"Ġfil":4356,"Ġplatelet":4357,"Ġmedicine":4358,"63":4359,"okine":4360,"47":4361,"Ġrecon":4362,"Ġisol":4363,"Ġrural":4364,"43":4365,"nel":4366,"Ġfer":4367,"Ġheight":4368,"ait":4369,"uterine":4370,"Ġrefl":4371,"Ġnecessary":4372,"eared":4373,"ĠÎ¼":4374,"ĠStates":4375,"onin":4376,"ĠControl":4377,"Ġcompr":4378,"rees":4379,"arean":4380,"Ġging":4381,"Ġreferral":4382,"Ġabsolute":4383,"etin":4384,"ĠmmHg":4385,"icated":4386,"Ġhour":4387,"Ġcomposition":4388,"Ġgirls":4389,"Ġsubs":4390,"Ġdocumented":4391,"ript":4392,"Ġabsence":4393,"ropl":4394,"Ġpersistent":4395,"ĠCS":4396,"Ġimpaired":4397,"ĠAustral":4398,"Ġdrinking":4399,"Ġmales":4400,"three":4401,"adjusted":4402,"Ġdespite":4403,"ogenic":4404,"Ġenroll":4405,"Ġmotion":4406,"Ġcomposite":4407,"oly":4408,"ĠBetween":4409,"52":4410,"Ġmonitored":4411,"ĠBe":4412,"ĠMost":4413,"ĠBaseline":4414,"antit":4415,"son":4416,"Ġpatterns":4417,"oulder":4418,"associated":4419,"being":4420,"ĠDiabetes":4421,"Ġdie":4422,"Efficacy":4423,"Ġparticipate":4424,"blinded":4425,"intensity":4426,"Ġ250":4427,"LE":4428,"ĠCan":4429,"hyper":4430,"cers":4431,"acet":4432,"ĠCons":4433,"Ġhouse":4434,"92":4435,"Ġvariable":4436,"ĠFe":4437,"ĠRCTs":4438,"Ġmineral":4439,"Ġinclusion":4440,"Ġvas":4441,"Ġbreat":4442,"missions":4443,"Ġinjections":4444,"arent":4445,"tib":4446,"Ġpotentially":4447,"more":4448,"Ġequal":4449,"bohydr":4450,"oring":4451,"Ġadded":4452,"Ġexpected":4453,"lier":4454,"Ġdetect":4455,"ĠSo":4456,"Ġâī¤":4457,"lation":4458,"Ġla":4459,"Ġhypogly":4460,"Ġneurolog":4461,"62":4462,"lammatory":4463,"dl":4464,"tically":4465,"ptions":4466,"Ġrectal":4467,"Ġnerve":4468,"urb":4469,"Ġannual":4470,"lying":4471,"Ġfixed":4472,"level":4473,"Ġ)<":4474,"Imp":4475,"ĠGen":4476,"ners":4477,"Ġsearch":4478,"uls":4479,"ĠCardi":4480,"ĠFIND":4481,"mod":4482,"ĠUK":4483,"ORT":4484,"Ġadjunc":4485,"Ġprogressive":4486,"Ġteaching":4487,"Ġmarked":4488,"estions":4489,"ococ":4490,"INGS":4491,"tif":4492,"Ġaction":4493,"NT":4494,"ĠFunction":4495,"Ġprofessional":4496,"known":4497,"ĠFINDINGS":4498,"Ġcontact":4499,"Ġdeep":4500,"Ġtrauma":4501,"Ġ98":4502,"Ġadap":4503,"Ġsubcutaneous":4504,"ogene":4505,"Ġactivation":4506,"razole":4507,"Ġnat":4508,"esarean":4509,"Ġure":4510,"Ġmiddle":4511,"lox":4512,"Ġrecords":4513,"Ġmedi":4514,"Ġcaries":4515,"lip":4516,"ĠRating":4517,"Ġrespons":4518,"oler":4519,"zin":4520,"cemia":4521,"Ġfeeding":4522,"enic":4523,"otomy":4524,"Ġinitiation":4525,"mat":4526,"Ġadequate":4527,"ĠNor":4528,"ĠCol":4529,"Ġdosage":4530,"ĠAS":4531,"ophage":4532,"ognition":4533,"ĠTest":4534,"ptic":4535,"ĠBlood":4536,"Ġavoid":4537,"going":4538,"Ġobstructive":4539,"Ġdegrees":4540,"93":4541,"Ġtumors":4542,"opulmonary":4543,"ivac":4544,"Ġrecruitment":4545,"VT":4546,"ophageal":4547,"Ġwhite":4548,"stage":4549,"Ġulcers":4550,"Ġendpoints":4551,"OS":4552,"Ġintro":4553,"Ġleuk":4554,"tor":4555,"71":4556,"Ġentry":4557,"Ġundert":4558,"Ġagg":4559,"Ġvariance":4560,"Ġattrib":4561,"ĠCL":4562,"ĠLow":4563,"PI":4564,"antitative":4565,"FA":4566,"feeding":4567,"och":4568,"Ġsubstance":4569,"Ġcounse":4570,"uary":4571,"Ġhemat":4572,"Ġinstruc":4573,"Ġdysp":4574,"Ġmucos":4575,"Ġmel":4576,"ĠDS":4577,"years":4578,"58":4579,"ĠMod":4580,"itrate":4581,"Ġemotional":4582,"Ġestimates":4583,"Ġdosing":4584,"psis":4585,"zhe":4586,"titis":4587,"Ġsepsis":4588,"text":4589,"effective":4590,"ĠThus":4591,"ĠTA":4592,"Ġmonthly":4593,"ĠAddition":4594,"Ġrelatively":4595,"Ġlimb":4596,"Ġoffered":4597,"ape":4598,"Ġmouth":4599,"Ġ99":4600,"oxid":4601,"zheimer":4602,"taneous":4603,"ĠSymptom":4604,"ĠGr":4605,"roplasty":4606,"pe":4607,"Ġanalogue":4608,"ronate":4609,"Ġeating":4610,"Ġnutritional":4611,"Ġwithdrawal":4612,"Ġintermit":4613,"BI":4614,"Ġchoice":4615,"ochemical":4616,"oea":4617,"Ġpelvic":4618,"ACT":4619,"Ġinfant":4620,"astom":4621,"nic":4622,"Ġyounger":4623,"ĠJanuary":4624,"ĠObjectives":4625,"Ġexternal":4626,"Ġcomprehensive":4627,"Ġmajority":4628,"Ġtargeted":4629,"ĠRisk":4630,"Ġhospitalized":4631,"havioral":4632,"Ġearlier":4633,"ema":4634,"rist":4635,"opo":4636,"ĠMEASUREME":4637,"rup":4638,"51":4639,"ĠApp":4640,"Ġreal":4641,"Ġretention":4642,"ĠEuropean":4643,"ĠOr":4644,"Ġreliability":4645,"Ġscheduled":4646,"ring":4647,"apan":4648,"Ġquestions":4649,"Ġmamm":4650,"Ġaw":4651,"91":4652,"ĠMRI":4653,"Ġpredictor":4654,"Ġintraoperative":4655,"Ġnewly":4656,"icac":4657,"Ġankle":4658,"Ġinfer":4659,"Ġseries":4660,"Ġcaro":4661,"BC":4662,"Ġchildhood":4663,"mes":4664,"onate":4665,"Ġneph":4666,"Ġpsychiatric":4667,"Ġnet":4668,"Ġposition":4669,"Ġnit":4670,"platin":4671,"Ġspine":4672,"Ġmig":4673,"Ġfemales":4674,"ics":4675,"Ġmisoprostol":4676,"Ġmotiv":4677,"Ġcomponent":4678,"Ġnovel":4679,"Ġperioperative":4680,"Ġproviding":4681,"rob":4682,"OP":4683,"ĠAlzheimer":4684,"Ġbegin":4685,"itone":4686,"Ġimportance":4687,"Ġinvasive":4688,"azine":4689,"Ġmetabolic":4690,"ĠSelf":4691,"ĠCC":4692,"Ġbelow":4693,"DI":4694,"Ġpractitioners":4695,"ĠINTERVENTIONS":4696,"Ġinterferon":4697,"ĠAIMS":4698,"loxacin":4699,"site":4700,"Ġview":4701,"ret":4702,"onal":4703,"Ġprobability":4704,"Ġcomplication":4705,"Ġtopical":4706,"Ġwhose":4707,"Ġright":4708,"Ġsec":4709,"Ġoperative":4710,"ĠMEASUREMENTS":4711,"Ġworkers":4712,"Ġfamilies":4713,"lycer":4714,"Ġmagnetic":4715,"Ġlat":4716,"ĠFurthermore":4717,"NF":4718,"Ġscreened":4719,"come":4720,"Ġ2000":4721,"ĠInternet":4722,"adder":4723,"Ġoil":4724,"Ġlongitudinal":4725,"Ġhemodialysis":4726,"sis":4727,"Ġintermittent":4728,"Ġprophylactic":4729,"Ġplacement":4730,"Ġlinear":4731,"Ġunknown":4732,"Ġstructured":4733,"006":4734,"ĠPurpose":4735,"arily":4736,"Ġnumbers":4737,"Ġparent":4738,"farin":4739,"rofen":4740,"Ġcommonly":4741,"une":4742,"ĠNin":4743,"Ġirr":4744,"Ġprescribing":4745,"Ġsystems":4746,"atures":4747,"orac":4748,"Ġtemper":4749,"Ġneeds":4750,"MA":4751,"ones":4752,"Ġcerebral":4753,"ferior":4754,"ĠCHD":4755,"Ġdrop":4756,"tra":4757,"ream":4758,"ĠMR":4759,"Ġfruit":4760,"Ġpropofol":4761,"ĠCox":4762,"compl":4763,"put":4764,"Ġenrollment":4765,"Ġlearning":4766,"inflammatory":4767,"Ġers":4768,"Ġplaced":4769,"Ġpyl":4770,"iaz":4771,"Ġdiarr":4772,"ns":4773,"Ġpersonal":4774,"Ġcis":4775,"Ġamp":4776,"ometry":4777,"izations":4778,"HS":4779,"Ġfemoral":4780,"Ġaid":4781,"Ġprelim":4782,"Ġdeclin":4783,"ext":4784,"GFR":4785,"life":4786,"ĠInstit":4787,"Ġpreliminary":4788,"Ġsulf":4789,"Ġspontaneous":4790,"Ġpancre":4791,"Ġlig":4792,"Ġwk":4793,"HD":4794,"%-":4795,"oxif":4796,"Randomized":4797,"Ġket":4798,"Ġinsuff":4799,"ĠHy":4800,"Ġincident":4801,"Ġrelax":4802,"ĠMedic":4803,"61":4804,"ined":4805,"Ġalter":4806,"Ġecon":4807,"Ġalf":4808,"seven":4809,"for":4810,"Ġprednis":4811,"Ġurban":4812,"Ġfatty":4813,"Ġstart":4814,"Ġantagon":4815,"Ġrated":4816,"current":4817,"Ġdepressed":4818,"ember":4819,"ĠSystem":4820,"Ġefficac":4821,"ĠNon":4822,"Ġaims":4823,"Ġslightly":4824,"Ġteeth":4825,"Ġcounts":4826,"omas":4827,"Ġuntreated":4828,"peridone":4829,"Ġgestation":4830,"Ġundertaken":4831,"Ġprognosis":4832,"Ġsubgroups":4833,"Ġthromboemb":4834,"incip":4835,"iplin":4836,"Ġpac":4837,"hydro":4838,"ithromycin":4839,"Ġthreshold":4840,"ĠInterventions":4841,"enza":4842,"Ġcomparisons":4843,"ato":4844,"ĠHDL":4845,"ĠHD":4846,"Ġapproaches":4847,"fl":4848,"Ġsqu":4849,"Ġextre":4850,"Ġpylori":4851,"NP":4852,"Ġtook":4853,"density":4854,"Ġneutrop":4855,"Ġyouth":4856,"mi":4857,"ind":4858,"Ġantipsych":4859,"Ġaud":4860,"Ġresol":4861,"ĠSA":4862,"ampl":4863,"ĠSw":4864,"FN":4865,"negative":4866,"ĠRA":4867,"ĠCor":4868,"Ġremaining":4869,"Ġanticoag":4870,"Ġuptake":4871,"minute":4872,"Comparison":4873,"nea":4874,"Ġdil":4875,"Ġpeer":4876,"Ġbacterial":4877,"Ġmilk":4878,"nine":4879,"Ġpass":4880,"ĠTe":4881,"Ġseems":4882,"ray":4883,"ark":4884,"Ġstimul":4885,"ĠCVD":4886,"Ġcat":4887,"Ġcurve":4888,"Ġwarr":4889,"ĠTrans":4890,"Ġorth":4891,"Ġatten":4892,"olus":4893,"Ġanalysed":4894,"Ġmanip":4895,"pected":4896,"inferior":4897,"Ġreactions":4898,"itude":4899,"flu":4900,"Ġheadache":4901,"ĠFEV":4902,"Ġess":4903,"Ġproper":4904,"Ġepidural":4905,"ivacaine":4906,"Ġcorresponding":4907,"Ġvideo":4908,"Ġburden":4909,"Ġappeared":4910,"ĠJapan":4911,"sh":4912,"Ġchest":4913,"hesis":4914,"iologic":4915,"ĠHS":4916,"ĠGy":4917,"Ġfibrosis":4918,"acted":4919,"Ġambulatory":4920,"Ġable":4921,"Ġinstru":4922,"Ġvaccin":4923,"Ġbiomar":4924,"Ġpal":4925,"Ġnear":4926,"zyme":4927,"Ġadolescent":4928,"entary":4929,"Ġutilization":4930,"utions":4931,"adequ":4932,"Ġremoval":4933,"ĠCABG":4934,"Ġuniversity":4935,"Ġencour":4936,"isperidone":4937,"ĠSever":4938,"Ġbarri":4939,"RET":4940,"Ġcompression":4941,"control":4942,"azol":4943,"cause":4944,"Ġmuch":4945,"iplinary":4946,"asons":4947,"ĠTherefore":4948,"troke":4949,"reak":4950,"inant":4951,"Ġequally":4952,"Ġextended":4953,"Ġphysiotherapy":4954,"max":4955,"Ġdistribution":4956,"uch":4957,"Ġaspec":4958,"Ġpreparation":4959,"Ġpast":4960,"bohydrate":4961,"ortion":4962,"Ġbro":4963,"ĠCRP":4964,"Ġlab":4965,"Ġarthritis":4966,"but":4967,"onomic":4968,"aring":4969,"Ġtom":4970,"isciplinary":4971,"ĠSP":4972,"Ġprefer":4973,"Ġacupuncture":4974,"Ġendurance":4975,"omer":4976,"Ġacceptable":4977,"Ġparticipating":4978,"Ġentered":4979,"ĠAR":4980,"mination":4981,"ĠChronic":4982,"idocaine":4983,"Ġincor":4984,"hyth":4985,"comit":4986,"Ġreached":4987,"Ġevaluating":4988,"Ġwarfarin":4989,"Ġasked":4990,"Ġreference":4991,"Ġopp":4992,"Ġdistance":4993,"trogen":4994,"ancers":4995,"ĠShort":4996,"esthetic":4997,"illation":4998,"daily":4999,"Ġshoulder":5000,"raine":5001,"Ġattitudes":5002,"itamin":5003,"anzapine":5004,"Ġintrac":5005,"idal":5006,"ĠStatistic":5007,"Ġexhib":5008,"Ġlowest":5009,"work":5010,"retro":5011,"otrop":5012,"Ġpep":5013,"Ġclinicians":5014,"Ġinhibitors":5015,"born":5016,"ĠTotal":5017,"like":5018,"Ġsatur":5019,"usc":5020,"Ġadvantage":5021,"viral":5022,"oride":5023,"ĠPSA":5024,"Ġexpect":5025,"iptin":5026,"Ġdiarrhea":5027,"CD":5028,"Ġkey":5029,"ystic":5030,"rip":5031,"heumat":5032,"Ġax":5033,"Ġvein":5034,"agliptin":5035,"Ġextension":5036,"place":5037,"Ġrelease":5038,"ranial":5039,"ĠÃĹ":5040,"CH":5041,"resistant":5042,"ĠPhysical":5043,"].":5044,"ices":5045,"iotic":5046,"Ġsuggesting":5047,"Ġcure":5048,"Ġsupplement":5049,"effects":5050,"ĠSerum":5051,"Ġembry":5052,"Ġthus":5053,"Ġpromote":5054,"ament":5055,"ĠCanad":5056,"Ġmechanisms":5057,"ĠPrevention":5058,"Ġaz":5059,"Ġdiscontinuation":5060,"ĠBy":5061,"Ġcritical":5062,"aries":5063,"Ġanother":5064,"Ġsurge":5065,"Ġaortic":5066,"atitis":5067,"Ġacqu":5068,"Ġmiss":5069,"orbid":5070,"Ġstrong":5071,"ĠExercise":5072,"Ġinitially":5073,"Ġliterature":5074,"Ġzinc":5075,"ĠDecember":5076,"Ġrefr":5077,"Ġmovement":5078,"Ġantidepressant":5079,"Ġefficacious":5080,"Ġdeli":5081,"Ġgestational":5082,"Ġtriglycer":5083,"asia":5084,"urgical":5085,"Ġimplemented":5086,"Ġdescribed":5087,"etron":5088,"uided":5089,"Ġmac":5090,"Ġsubject":5091,"ofl":5092,"Ġprescription":5093,"Ġhab":5094,"ĠSeventy":5095,"RE":5096,"Ġcancers":5097,"ĠIg":5098,"Ġinformed":5099,"ubicin":5100,"isions":5101,"retroviral":5102,"Ġeas":5103,"Pro":5104,"Ġinterviews":5105,"Ġretin":5106,"ociation":5107,"ĠAcute":5108,"uz":5109,"Ġmembers":5110,"Ġloading":5111,"ĠSimilar":5112,"changed":5113,"Ġinterest":5114,"Ġreferred":5115,"Ġcounselling":5116,"Ġstent":5117,"Ġlev":5118,"Ġcaps":5119,"Ġremain":5120,"Ġfavorable":5121,"Ġendothelial":5122,"Ġairway":5123,"Ġbio":5124,"Ġspeed":5125,"fold":5126,"Ġlateral":5127,"Ġexcess":5128,"tocin":5129,"Ġgenotype":5130,"ĠDif":5131,"sectional":5132,"Ġlist":5133,"izes":5134,"hex":5135,"ped":5136,"Ġhealthcare":5137,"Ġeng":5138,"Ġselective":5139,"HE":5140,"Ġmake":5141,"used":5142,"Ġmicrogram":5143,"ĠLV":5144,"Ġclassified":5145,"Ġmodest":5146,"onance":5147,"wise":5148,"Ġatrial":5149,"Ġproviders":5150,"scale":5151,"ĠINTERP":5152,"ww":5153,"Ġsten":5154,"Ġmethyl":5155,"ĠAF":5156,"Ġsurface":5157,"RETATION":5158,"Ġyet":5159,"eps":5160,"Ġinadequ":5161,"Ġprincip":5162,"oxib":5163,"comitant":5164,"ĠINTERPRETATION":5165,"Ġcaregivers":5166,"ĠType":5167,"ademic":5168,"ĠEC":5169,"acts":5170,"Ġshows":5171,"Ġinfluenza":5172,"Ġquanti":5173,"Ġdescribe":5174,"Ġpack":5175,"oxetine":5176,"Ġdig":5177,"Ġconcluded":5178,"Ġbeginning":5179,"Ġorally":5180,"anal":5181,"encing":5182,"Ġphen":5183,"Ġpolic":5184,"ĠEp":5185,"CLC":5186,"ash":5187,"disciplinary":5188,"ropion":5189,"ĠGl":5190,"hypertensive":5191,"Ġyr":5192,"rolimus":5193,"ĠEighty":5194,"Ġrequirements":5195,"ĠChanges":5196,"Ġamin":5197,"artan":5198,"trans":5199,"ecal":5200,"tebral":5201,"ĠDNA":5202,"Ġsupervised":5203,"Ġcisplatin":5204,"Ġdependence":5205,"ĠCG":5206,"Ġcyt":5207,"Ġunchanged":5208,"met":5209,"etary":5210,"Ġallocation":5211,"Ġimmune":5212,"ĠIT":5213,"Ġcontrolling":5214,"Ġages":5215,"Ġongoing":5216,"Ġdelirium":5217,"Ġele":5218,"Ġhemodynamic":5219,"anted":5220,"Ġproducts":5221,"icit":5222,"iate":5223,"ĠMeasure":5224,"Ġconsequ":5225,"An":5226,"VR":5227,"iclo":5228,"uprofen":5229,"fat":5230,"Ġpatch":5231,"Ġmicrob":5232,"mediate":5233,"ats":5234,"oga":5235,"Ġrhin":5236,"Ġseem":5237,"Ġanaesthesia":5238,"moking":5239,"ecting":5240,"Ġendoscopic":5241,"Ġinpatient":5242,"ĠBecause":5243,"Ġrather":5244,"Ġresidual":5245,"Ġrisperidone":5246,"Ġfever":5247,"iles":5248,"Ġpercutaneous":5249,"Ġphot":5250,"Ġminimum":5251,"eff":5252,"Ġcardiopulmonary":5253,"Ġconfound":5254,"eriatric":5255,"arc":5256,"Cs":5257,"Ġoxid":5258,"Ġfetal":5259,"ĠER":5260,"Ġepisode":5261,"ĠÎ¼g":5262,"Ġconsultation":5263,"ĠPI":5264,"inese":5265,"Ġsought":5266,"Ġparticipant":5267,"aving":5268,"Ġinhaled":5269,"Ġversion":5270,"Ġreach":5271,"osin":5272,"own":5273,"Ġantim":5274,"enal":5275,"Ġstarted":5276,"Ġdam":5277,"Ġomisation":5278,"ĠBr":5279,"alpha":5280,"Ġantigen":5281,"oplasty":5282,"opic":5283,"Ġinvolvement":5284,"adiation":5285,"Ġpretreatment":5286,"Ġbladder":5287,"gether":5288,"Ġlidocaine":5289,"Ġstarting":5290,"Ġtemperature":5291,"Ġvariability":5292,"Ġimplantation":5293,"ĠEvaluation":5294,"ĠFS":5295,"ĠEnd":5296,"affe":5297,"Ġmill":5298,"ĠInvent":5299,"Ġabuse":5300,"ars":5301,"):":5302,"artile":5303,"teral":5304,"assisted":5305,"Ġdrain":5306,"Ġinterpre":5307,"Ġattended":5308,"ĠEngl":5309,"Ġyield":5310,"Ġroom":5311,"ĠPostoperative":5312,"ĠRespon":5313,"ĠChinese":5314,"ire":5315,"ĠPS":5316,"Ġexcretion":5317,"Ġ2010":5318,"FR":5319,"ĠSh":5320,"LI":5321,"udine":5322,"Ġsedentary":5323,"Ġmaking":5324,"Ġcall":5325,"Ġcondom":5326,"Ġeffectively":5327,"ĠEarly":5328,"ĠInventory":5329,"ressing":5330,"Ġconsisting":5331,"Ġweb":5332,"leu":5333,"Ġpharmacist":5334,"Ġfibrin":5335,"Ġexce":5336,"ush":5337,"Ġselection":5338,"ks":5339,"Ġ2001":5340,"Ġcigarette":5341,"ĠIm":5342,"ĠInternational":5343,"008":5344,"Ġseg":5345,"off":5346,"Ġbolus":5347,"Ġrelaxation":5348,"Ġarthroplasty":5349,"ĠGI":5350,"ĠIs":5351,"Ġface":5352,"ĠOc":5353,"ĠSep":5354,"Ġperiodontal":5355,"ĠLong":5356,"ĠSouth":5357,"Ġincorpor":5358,"kele":5359,"Ġpresenting":5360,"Ġconcurrent":5361,"Ġessential":5362,"Ġresonance":5363,"ights":5364,"iod":5365,"ologous":5366,"ĠJune":5367,"Ġsubstanti":5368,"most":5369,"ĠDM":5370,"Ġoffer":5371,"ering":5372,"Ġcontext":5373,"Ġassignment":5374,"Ġpharm":5375,"keletal":5376,"AD":5377,"Ġworking":5378,"quine":5379,"requency":5380,"OC":5381,"icrob":5382,"Ġwidely":5383,"gina":5384,"celer":5385,"stim":5386,"Ġbiochemical":5387,"tery":5388,"ĠPFS":5389,"otr":5390,"Ġfeatures":5391,"tisol":5392,"vation":5393,"Ġmigraine":5394,"fact":5395,"Ġquantitative":5396,"Ġinhal":5397,"Ġvariation":5398,"Ġdiets":5399,"Ġantibody":5400,"Ġattenu":5401,"Ġtam":5402,"007":5403,"aemia":5404,"rection":5405,"iflo":5406,"ĠWeb":5407,"Ġviral":5408,"ritten":5409,"ĠQoL":5410,"Ġintegrated":5411,"iflozin":5412,"iness":5413,"tors":5414,"sed":5415,"ĠMon":5416,"Ġ2005":5417,"oric":5418,"ĠFive":5419,"Ġintubation":5420,"Ġpreser":5421,"ĠIf":5422,"Ġattending":5423,"Ġov":5424,"Ġolanzapine":5425,"Ġdistal":5426,"ĠAdverse":5427,"Ġcompl":5428,"Ġ600":5429,"Ġsom":5430,"ournal":5431,"ĠEfficacy":5432,"yses":5433,"Ġindicating":5434,"ĠLife":5435,"enstr":5436,"ique":5437,"Ġeconomic":5438,"Ġradical":5439,"Ġcentres":5440,"akes":5441,"--":5442,"Ġsection":5443,"cetaxel":5444,"Ġscler":5445,"Ġmedia":5446,"lam":5447,"Ġenti":5448,"amination":5449,"Ġcirrh":5450,"Ġmax":5451,"Ġunclear":5452,"ĠIM":5453,"Ġalfa":5454,"Ġrevascular":5455,"Ġnod":5456,"ĠÂ°":5457,"ĠUC":5458,"Ġdomains":5459,"tur":5460,"ĠDo":5461,"ĠEv":5462,"ĠAIM":5463,"ĠPe":5464,"Ġdual":5465,"ophosph":5466,"Ġreconstruction":5467,"Ġfavour":5468,"ĠET":5469,"Ġpromising":5470,"Ġreaction":5471,"oporosis":5472,"Ġbreak":5473,"Ġclosure":5474,"HR":5475,"adone":5476,"ocytes":5477,"top":5478,"Ġconcomitant":5479,"LT":5480,"Ġdeterior":5481,"fr":5482,"na":5483,"Ġapparent":5484,"reement":5485,"Ġfibr":5486,"Ġerad":5487,"icle":5488,"Ġfluoride":5489,"Ġprotective":5490,"Ġplanning":5491,"ocon":5492,"Ġfoods":5493,"aparin":5494,"Ġow":5495,"Ġnight":5496,"Ġoxytocin":5497,"guided":5498,"Ġmobility":5499,"Ġgum":5500,"Ġcorrect":5501,"Ġaspects":5502,"elve":5503,"Ġdiscussed":5504,"Ġundergo":5505,"Ġworse":5506,"Ġguideline":5507,"Ġrecently":5508,"Ġanemia":5509,"Ġslow":5510,"olecular":5511,"Ġreason":5512,"ĠCF":5513,"Ġhypertensive":5514,"Ġ2003":5515,"ĠMM":5516,"AI":5517,"XT":5518,"ided":5519,"Ġmainly":5520,"Ġward":5521,"Ġhemorrhage":5522,"Ġstenosis":5523,"ĠGeneral":5524,"Ġstabil":5525,"cler":5526,"Ġ2006":5527,"reactive":5528,"Ġexaminations":5529,"holds":5530,"Ġdro":5531,"Ġmicrograms":5532,"amol":5533,"Ġvel":5534,"ude":5535,"Ġsupported":5536,"Ġestablish":5537,"Ġoption":5538,"Ġantioxid":5539,"ometer":5540,"Ġdry":5541,"Ġinverse":5542,"Ġplanned":5543,"tiary":5544,"Ġdiame":5545,"itoneal":5546,"Ġaug":5547,"uscitation":5548,"type":5549,"utional":5550,"ĠOther":5551,"Ġ2004":5552,"fulness":5553,"ĠCal":5554,"Ġtablets":5555,"Ġactiv":5556,"Ġresponders":5557,"Ġpromo":5558,"ĠState":5559,"cellent":5560,"Ġiden":5561,"rof":5562,"ĠAB":5563,"Ġprofiles":5564,"ĠART":5565,"Ġacids":5566,"Ġpremature":5567,"Ġelectronic":5568,"Ġfocused":5569,"Ġcomm":5570,"Ġoutput":5571,"Ġalong":5572,"ulate":5573,"Ġantiretroviral":5574,"Ġposterior":5575,"otens":5576,"Ġhomes":5577,"Ġbilateral":5578,"Ġtro":5579,"Ġdecreasing":5580,"Ġdamage":5581,"Ġtransmission":5582,"Ġcut":5583,"duce":5584,"Ġultrason":5585,"Ġca":5586,"Ġbehavioural":5587,"ĠFr":5588,"report":5589,"opram":5590,"Ġcyto":5591,"Ġadjusting":5592,"Ġmyel":5593,"Ġfibrillation":5594,"ĠReduc":5595,"Ġrheumat":5596,"ĠPTS":5597,"Ġmaintain":5598,"int":5599,"ĠWhile":5600,"ophen":5601,"eter":5602,"by":5603,"Ġreasons":5604,"Ġculture":5605,"Ġreinf":5606,"Ġfinding":5607,"Ġregion":5608,"ĠFollowing":5609,"Ġthickness":5610,"version":5611,"ĠRel":5612,"estern":5613,"Ġdynamic":5614,"pers":5615,"binant":5616,"Ġ2007":5617,"ĠNinety":5618,"Ġseason":5619,"ĠVO":5620,"ĠCK":5621,"Ġcovari":5622,"Ġcortisol":5623,"ĠÂ®":5624,"Ġstability":5625,"Ġneutropenia":5626,"PP":5627,"Ġ2002":5628,"Ġacceler":5629,"ĠPsych":5630,"Ġexpir":5631,"Ġintram":5632,"adiol":5633,"Ġwritten":5634,"Ġangina":5635,"Ġcontribute":5636,"agliflozin":5637,"Ġscan":5638,"Ġmorning":5639,"leukin":5640,"ĠCommun":5641,"ĠâĢĺ":5642,"Ġcircumference":5643,"ĠMay":5644,"operidol":5645,"SORT":5646,"ĠMa":5647,"Ġconduct":5648,"keli":5649,"Ġsubstantially":5650,"Ġrev":5651,"Ġexacerbations":5652,"Ġdon":5653,"kelihood":5654,"Ġnational":5655,"Ġinsertion":5656,"Ġuns":5657,"otensin":5658,"Ġcatheters":5659,"ĠPCI":5660,"Ġhypothesized":5661,"sw":5662,"aft":5663,"Ġsitu":5664,"Pre":5665,"Ġsuic":5666,"MG":5667,"Ġtomography":5668,"Ġdiscontinued":5669,"ipar":5670,"Ġfund":5671,"ĠGlobal":5672,"illance":5673,"ĠIQ":5674,"encies":5675,"Ġejection":5676,"Ġcritically":5677,"As":5678,"Ġnewborn":5679,"Ġpositively":5680,"Ġsuccessfully":5681,"aminophen":5682,"Ġconstr":5683,"ĠCognitive":5684,"unctions":5685,"adminis":5686,"iology":5687,"ipine":5688,"gia":5689,"Ġacetate":5690,"Ġ2008":5691,"Ġqual":5692,"Ġlikelihood":5693,"Ġsmaller":5694,"Ġnatural":5695,"Ġfield":5696,"Ġ2009":5697,"ĠSI":5698,"Ġderived":5699,"litaxel":5700,"Ġchecklist":5701,"cology":5702,"tinue":5703,"Ġantihypertensive":5704,"odil":5705,"Ġcarotid":5706,"Ġidentical":5707,"009":5708,"Ġath":5709,"Ġsince":5710,"ĠPG":5711,"Ġretrospective":5712,"Ġphone":5713,"Ġibuprofen":5714,"Ġcurrently":5715,"Ġdisturb":5716,"acil":5717,"Ġgu":5718,"affeine":5719,"kinson":5720,"uly":5721,"ives":5722,"cline":5723,"Ġplayers":5724,"ying":5725,"Ġexcellent":5726,"Ġactual":5727,"ramine":5728,"Ġpancreatic":5729,"Ġmodification":5730,"inferiority":5731,"ĠSummary":5732,"ymptomatic":5733,"CP":5734,"after":5735,"orption":5736,"Ġcollabor":5737,"Ġdocetaxel":5738,"Ġinitiated":5739,"icrobial":5740,"ĠCa":5741,"ophosphamide":5742,"Ġachieving":5743,"Ġmotivational":5744,"Ġdevi":5745,"ĠMoreover":5746,"Ġcomprised":5747,"Ġste":5748,"plete":5749,"Ġmanaged":5750,"Ġattack":5751,"Ġuterine":5752,"Con":5753,"ancing":5754,"ĠUse":5755,"Ġconsumed":5756,"Ġsensitive":5757,"Ġregardless":5758,"Ġpharmacokine":5759,"MW":5760,"Ġvar":5761,"Ġranged":5762,"Ġcolonoscopy":5763,"pler":5764,">[":5765,"Ġexisting":5766,"Ġmethadone":5767,"ux":5768,"Ġcomputed":5769,"ensus":5770,"Ġconserv":5771,"ifer":5772,"Ġacademic":5773,"Ġhygi":5774,"tradiol":5775,"ĠNSCLC":5776,"Ġdependent":5777,"oxide":5778,"Ġcontraceptive":5779,"ĠTT":5780,"Ġlesion":5781,"ways":5782,"urane":5783,"Ġreturned":5784,"Ġpregnancies":5785,"Ġseiz":5786,"iment":5787,"Ġtake":5788,"Ġinhibition":5789,"Ġdirectly":5790,"ĠÃ©":5791,"Ġradiographic":5792,"osterone":5793,"Ġexpiratory":5794,"Ġdiffered":5795,"olol":5796,"SD":5797,"ĠIncreas":5798,"Ġfiber":5799,"Ġmust":5800,"Ġrestor":5801,"CR":5802,"Ġtext":5803,"Ġindices":5804,"Ġsampl":5805,"Ġadmissions":5806,"ĠIVF":5807,"Ġeye":5808,"Ġinternational":5809,"Ġwors":5810,"ropathy":5811,"Ġboys":5812,"ercul":5813,"Ġincremental":5814,"Ġwaist":5815,"ĠCE":5816,"ALY":5817,"ta":5818,"redic":5819,"umer":5820,"Ġhaloperidol":5821,"Ġacceptability":5822,"Ġperception":5823,"the":5824,"ĠSoci":5825,"ĠMarch":5826,"ertain":5827,"ĠAUC":5828,"behavioral":5829,"Ġdeclined":5830,"fenac":5831,"lux":5832,"ĠAssociation":5833,"ĠStr":5834,"Ġclar":5835,"Ġtwenty":5836,"Ġcoup":5837,"Ġstages":5838,"Ġassay":5839,"Ġrecall":5840,"Ġenzyme":5841,"apl":5842,"phrine":5843,"Ġosteoporosis":5844,"atives":5845,"kines":5846,"Ġentire":5847,"ystectomy":5848,"Ġjud":5849,"entanyl":5850,"ief":5851,"ĠHyper":5852,"Ġdiameter":5853,"Ġasymptomatic":5854,"Ġyoga":5855,"Ġinges":5856,"Ġbreastfeeding":5857,"Ġproduction":5858,"Ġvegetable":5859,"Ġprimarily":5860,"icular":5861,"ina":5862,"Ġgene":5863,"Ġintent":5864,"Ġseptic":5865,"ologists":5866,"Ġsurveys":5867,"Ġissues":5868,"Ġalle":5869,"Ġquad":5870,"Ġprediction":5871,"ĠPhase":5872,"wide":5873,"Ġpredom":5874,"enstrual":5875,"Ġcommunities":5876,"Ġalg":5877,"Ġcollection":5878,"Ġallergic":5879,"Ġendometrial":5880,"Ġlabour":5881,"ĠPF":5882,"Ġglyc":5883,"Ġgem":5884,"Ġagon":5885,"arrh":5886,"Ġproject":5887,"azone":5888,"ĠComparison":5889,"Ġcesarean":5890,"Ġproportional":5891,"ĠOF":5892,"Ġrepro":5893,"ĠPO":5894,"lege":5895,"aps":5896,"orous":5897,"ĠACL":5898,"III":5899,"ococc":5900,"Ġproximal":5901,"ĠSR":5902,"ĠÎ²":5903,"ĠSurve":5904,"pril":5905,"Ġcoping":5906,"ĠMater":5907,"avirin":5908,"Ġoccup":5909,"Ġleading":5910,"ensitivity":5911,"idazole":5912,"Ġteach":5913,"Ġech":5914,"Ġresc":5915,"Ġresuscitation":5916,"Ġevaluations":5917,"ĠDr":5918,"ĠTB":5919,"Ġformation":5920,"oun":5921,"thers":5922,"Ġgon":5923,"rose":5924,"Ġimplement":5925,"ĠMulti":5926,"ĠPlasma":5927,"Ġproduce":5928,"ocity":5929,"ĠDel":5930,"hexidine":5931,"ĠPTSD":5932,"Ġagreement":5933,"ending":5934,"Ġangiography":5935,"ĠTraining":5936,"PE":5937,"orvastatin":5938,"ysteine":5939,"Ġvegetables":5940,"ni":5941,"itative":5942,"acting":5943,"inv":5944,"ĠDisc":5945,"Ġlet":5946,"Ġupon":5947,"Ġcorticosteroids":5948,"ositive":5949,"Ġmeal":5950,"Ġpan":5951,"Ġnode":5952,"Ġcarbohydrate":5953,"Ġchanged":5954,"Ġcigarettes":5955,"OT":5956,"aemic":5957,"ordin":5958,"ĠCONSORT":5959,"Ġtowards":5960,"ifically":5961,"oxifen":5962,"Ġautom":5963,"NCE":5964,"ites":5965,"vac":5966,"ĠColl":5967,"ĠPrevious":5968,"help":5969,"Ġwalk":5970,"erculosis":5971,"yroid":5972,"pump":5973,"Ġmassage":5974,"oscler":5975,"Ġresponded":5976,"Ġprovision":5977,"Ġforce":5978,"Ġcruc":5979,"arction":5980,"ĠTen":5981,"onide":5982,"ulations":5983,"Ġwaiting":5984,"Ġrevascularization":5985,"citabine":5986,"tt":5987,"ressure":5988,"ĠJuly":5989,"Ġantagonist":5990,"ĠNeu":5991,"Ġrestriction":5992,"Ġuncertain":5993,"Ġpartners":5994,"Ġtogether":5995,"itions":5996,"Ġgam":5997,"Ġverbal":5998,"only":5999,"Ġway":6000,"oppler":6001,"Ġolog":6002,"mm":6003,"Ġcomorbid":6004,"Ġfoll":6005,"Ġviv":6006,"Ġcholec":6007,"othermia":6008,"Ġfunctions":6009,"erman":6010,"itinib":6011,"Ġsocio":6012,"ĠpH":6013,"Ġdecisions":6014,"bri":6015,"Ġphysiological":6016,"Ġheter":6017,"afen":6018,"Ġlimitations":6019,"Ġparas":6020,"Ġsedation":6021,"Ġ180":6022,"ĠInstitute":6023,"aints":6024,"Ġmarker":6025,"oes":6026,"Ġblack":6027,"cellular":6028,"Ġves":6029,"vements":6030,"ogrel":6031,"Ġsequential":6032,"ĠAnxiety":6033,"ĠPL":6034,"RH":6035,"ĠEffects":6036,"opid":6037,"Ġproposed":6038,"uxim":6039,"Ġtertiary":6040,"Ġec":6041,"Ġeyes":6042,"ĠTime":6043,"Ġaccount":6044,"hn":6045,"orr":6046,"Ġswit":6047,"Ġintermediate":6048,"ophag":6049,"Ġoperating":6050,"opidogrel":6051,"Ġproduct":6052,"Ġestrogen":6053,"ĠCoch":6054,"mentary":6055,"Ġintravenously":6056,"frequency":6057,"Ġsci":6058,"ĠSC":6059,"income":6060,"Ġdox":6061,"ping":6062,"Ġapplic":6063,"Ġoffice":6064,"Ġvirolog":6065,"Ġmanipulation":6066,"Ġpool":6067,"Ġinteractive":6068,"Ġcoeff":6069,"uximab":6070,"Ġschedule":6071,"Ġaccom":6072,"Ġrefractory":6073,"igorous":6074,"ĠStroke":6075,"Ġprotection":6076,"fatal":6077,"hen":6078,"Ġcyclophosphamide":6079,"Ġexplore":6080,"Ġpolicy":6081,"Ġip":6082,"Ġextraction":6083,"Ġothers":6084,"my":6085,"imes":6086,"Ġalmost":6087,"ĠApril":6088,"iclofenac":6089,"vered":6090,"Ġexhibited":6091,"ae":6092,"Ġbelief":6093,"dentif":6094,"Ġtended":6095,"caemic":6096,"Ġbarriers":6097,"orith":6098,"Ġweak":6099,"aline":6100,"ĠClin":6101,"small":6102,"ĠCr":6103,"ipolar":6104,"Ġmagnitude":6105,"ession":6106,"ĠRNA":6107,"Ġinterleukin":6108,"ĠPRO":6109,"bulin":6110,"comfort":6111,"Ġmas":6112,"letes":6113,"Ġather":6114,"Ġhygiene":6115,"Ġscored":6116,"Ã©s":6117,"Ġclasses":6118,"Ġinst":6119,"yc":6120,"asm":6121,"Ġra":6122,"tially":6123,"PAP":6124,"Ġanim":6125,"cles":6126,"brile":6127,"Ġantipsychotic":6128,"ĠBased":6129,"inephrine":6130,"Ġhepatic":6131,"Ġarticle":6132,"Ġoriginal":6133,"ĠCombin":6134,"ĠPP":6135,"Ġfusion":6136,"Ġdevices":6137,"Ġlipids":6138,"Ġrecombinant":6139,"TMS":6140,"throm":6141,"orphine":6142,"Ġmoderately":6143,"ospor":6144,"TEXT":6145,"Ġenvironment":6146,"ĠNT":6147,"CSF":6148,"Ġstrongly":6149,"ĠAEs":6150,"Ġpreferred":6151,"Ġrheumatoid":6152,"ĠCONTEXT":6153,"Ġ1999":6154,"Ġgeriatric":6155,"Ġ1998":6156,"Ġthorac":6157,"Ġrib":6158,"ĠOral":6159,"Ġsynt":6160,"Ġproperties":6161,"Ġmother":6162,"Ġsuppression":6163,"load":6164,"xt":6165,"Ġbroad":6166,"Ġmultidisciplinary":6167,"yond":6168,"Ġinfluenced":6169,"Ġabnormalities":6170,"reening":6171,"eg":6172,"Ġbiomarkers":6173,"Ġeradication":6174,"Ġimplication":6175,"Ġpulse":6176,"Ġvaried":6177,"Ġbupropion":6178,"yline":6179,"ĠFindings":6180,"Ġimmunotherapy":6181,"ĠStudies":6182,"welling":6183,"Ġlive":6184,"Ġgreatest":6185,"Ġligament":6186,"Ġmessages":6187,"ana":6188,"angu":6189,"ilization":6190,"Ġgait":6191,"Ġ2011":6192,"Ġcirrhosis":6193,"Ġexpressed":6194,"tober":6195,"ocl":6196,"Ġthromboembolism":6197,"Ġonline":6198,"Ġadop":6199,"Ġinvestigators":6200,"Ġisolated":6201,"ĠID":6202,"opa":6203,"ĠSup":6204,"Ġprogrammes":6205,"Ġmeta":6206,"Ġautologous":6207,"Ġoxidative":6208,"ee":6209,"Ġadhes":6210,"dis":6211,"Ġmolar":6212,"omp":6213,"ĠTRIAL":6214,"Ġclo":6215,"inally":6216,"orubicin":6217,"Ġrevers":6218,"Ġcream":6219,"ĠSwed":6220,"ĠGerman":6221,"Ġemph":6222,"Ġrace":6223,"Ġsurveillance":6224,"bur":6225,"Ġintakes":6226,"ĠFew":6227,"Ġsinus":6228,"Ġregional":6229,"acheal":6230,"ectin":6231,"Ġtasks":6232,"iop":6233,"ĠACT":6234,"Ġenter":6235,"Ġerror":6236,"riptyline":6237,"illed":6238,"ĠCochrane":6239,"examic":6240,"ĠCHF":6241,"reed":6242,"ACE":6243,"ĠOp":6244,"Ġtransient":6245,"Ġindicators":6246,"imumab":6247,"ixim":6248,"Ġpractitioner":6249,"ĠInv":6250,"Ġgoals":6251,"ested":6252,"Ġmetastatic":6253,"ĠFunctional":6254,"Ġmalignant":6255,"Ġsick":6256,"Ġfully":6257,"Ġexample":6258,"Ġconj":6259,"Ġsuspected":6260,"ĠOctober":6261,"wk":6262,"ĠTENS":6263,"ĠStatistical":6264,"iveness":6265,"Ġalgorith":6266,"Ġexposed":6267,"Ġextract":6268,"Ġunderlying":6269,"ĠCompl":6270,"Ġreliable":6271,"Ġelectrical":6272,"ariable":6273,"Ġconservative":6274,"release":6275,"ĠCenter":6276,"olence":6277,"xicillin":6278,"ects":6279,"Ġtran":6280,"ĠIQR":6281,"item":6282,"tious":6283,"Ġtitr":6284,"enium":6285,"Ġwarranted":6286,"Ġforms":6287,"Ġneither":6288,"Ġerrors":6289,"iximab":6290,"Ġdent":6291,"Ġocclusion":6292,"opathic":6293,"Ġepidem":6294,"Ġturn":6295,"ĠTC":6296,"etr":6297,"Ġdepth":6298,"Ġsuppor":6299,"Ġmind":6300,"ĠGPs":6301,"morph":6302,"ĠDoppler":6303,"ĠAug":6304,"Ġvary":6305,"Ġvelocity":6306,"aryng":6307,"ĠTw":6308,"Ġvitro":6309,"tenatal":6310,"ĠIntra":6311,"ĠSociety":6312,"Ġbasic":6313,"Ġtriple":6314,"Ph":6315,"Ġempir":6316,"Ġcough":6317,"Ġparental":6318,"Ġgains":6319,"Ġelimin":6320,"Ġinteractions":6321,"Ġcaffeine":6322,"omide":6323,"Ġfaster":6324,"Ġisch":6325,"Effectiveness":6326,"Me":6327,"Ġdri":6328,"oxy":6329,"Ġsaliv":6330,"Ġantimicrobial":6331,"Ġdrainage":6332,"Ġrescue":6333,"Ġadip":6334,"amil":6335,"ĠHPV":6336,"Ġinfected":6337,"rontal":6338,"ĠTai":6339,"Ġevaluable":6340,"Ġseparate":6341,"Ġguided":6342,"rogen":6343,"osa":6344,"Ġmechanism":6345,"Ġrelationships":6346,"Ġacetaminophen":6347,"ĠAP":6348,"Ġbeyond":6349,"Ġcontinue":6350,"AA":6351,"ĠINT":6352,"ĠJapanese":6353,"atectomy":6354,"Ġpromotion":6355,"esium":6356,"ĠFeb":6357,"iance":6358,"Ġpair":6359,"Ġhar":6360,"ĠIdentif":6361,"ĠTR":6362,"Ġchlorhexidine":6363,"alli":6364,"Ġroot":6365,"fac":6366,"Ġpredominant":6367,"ĠDSM":6368,"apse":6369,"Ġreminders":6370,"olate":6371,"Ġdiarrh":6372,"ince":6373,"obacter":6374,"Ġmit":6375,"Ġprec":6376,"amiv":6377,"ĠWeight":6378,"Ġtube":6379,"omnia":6380,"Ġfentanyl":6381,"ĠCurrent":6382,"ĠSL":6383,"osing":6384,"Ġfell":6385,"Ġischemia":6386,"Ġhazards":6387,"Ġcomputerized":6388,"ĠRegistration":6389,"Ġattendance":6390,"unted":6391,"cardi":6392,"ecoxib":6393,"oz":6394,"Ġperfusion":6395,"troph":6396,"Ġsizes":6397,"Ġgrafting":6398,"alities":6399,"Ġgran":6400,"Ġsupportive":6401,"Ġatorvastatin":6402,"agen":6403,"rice":6404,"tember":6405,"clusive":6406,"Ġpreference":6407,"ortun":6408,"Ġtamoxifen":6409,"Ġthough":6410,"ultaneous":6411,"emographic":6412,"Ġdispl":6413,"Ġincen":6414,"oscop":6415,"ĠMethod":6416,"odies":6417,"mitte":6418,"Ġextrem":6419,"Ġdiclofenac":6420,"Ġclose":6421,"taz":6422,"Ġfix":6423,"Ġprovider":6424,"ĠIniti":6425,"meth":6426,"ĠIBS":6427,"Ġjournal":6428,"Ġcognition":6429,"ĠThose":6430,"assium":6431,"afenib":6432,"mokers":6433,"Ġreflux":6434,"inol":6435,"ĠMeasurements":6436,"acking":6437,"Ġsupplements":6438,"etry":6439,"Ġcategories":6440,"exp":6441,"ĠChi":6442,"Ġvertebral":6443,"ĠDisability":6444,"Ġaround":6445,"Ġhydroch":6446,"state":6447,"complicated":6448,"Ġdraw":6449,"oxaparin":6450,"Ġneonates":6451,"Ġnever":6452,"Ġmeaning":6453,"Ġmammography":6454,"Ġinadequate":6455,"Ġ1997":6456,")/":6457,"Ġsent":6458,"GT":6459,"Ġpainful":6460,"ĠAim":6461,"ĠDrug":6462,"SI":6463,"Ġmedium":6464,"Ġposttreatment":6465,"Ġchallenge":6466,"nai":6467,"Ġcoh":6468,"ĠOrgan":6469,"stetric":6470,"Ġamoxicillin":6471,"sies":6472,"ĠParkinson":6473,"Ġsm":6474,"ĠSafety":6475,"Ġmuscles":6476,"Ġgained":6477,"ĠForm":6478,"itiz":6479,"Ġsufficient":6480,"Ġmeeting":6481,"Ġstret":6482,"ĠAustralia":6483,"Ġprevalent":6484,"utrition":6485,"efore":6486,"ĠAfrica":6487,"Ġfram":6488,"olip":6489,"Ġdiary":6490,"Ġclassification":6491,"ĠProspective":6492,"Ġcold":6493,"Ġwash":6494,"Ġcoag":6495,"ĠHB":6496,"Ġwait":6497,"ussion":6498,"HC":6499,"Ġpur":6500,"ĠHCC":6501,"ups":6502,"Ġtumour":6503,"ceptib":6504,"ĠCommunity":6505,"ĠSeptember":6506,"osupp":6507,"Ġspent":6508,"Ġgrad":6509,"rog":6510,"ibly":6511,"urys":6512,"Ġpg":6513,"ogenous":6514,"ĠAdj":6515,"Ġclopidogrel":6516,"uretic":6517,"training":6518,"Ġfacilities":6519,"ĠEGFR":6520,"ĠScore":6521,"Ġathletes":6522,"Ġdeviation":6523,"ĠIFN":6524,"edic":6525,"Ġcalls":6526,"Ġformula":6527,"Ġsil":6528,"Ġantioxidant":6529,"Ġbasal":6530,"Ġdop":6531,"Ġnoc":6532,"cul":6533,"Ġdiscomfort":6534,"Ġconsensus":6535,"inter":6536,"Ġvaccination":6537,"ucle":6538,"Ġflexion":6539,"Ġreproduc":6540,"Ġutility":6541,"ectable":6542,"Ġpaclitaxel":6543,"ulum":6544,"Ġforced":6545,"Ġeryth":6546,"ypes":6547,"Ġadvantages":6548,"agmatic":6549,"Ġanalgesics":6550,"Ġcord":6551,"thropo":6552,"eprazole":6553,"ĠSy":6554,"Ġangiotensin":6555,"Ġprednisone":6556,"Ġgemcitabine":6557,"efined":6558,"uments":6559,"Ġstool":6560,"Ġsuffering":6561,"Ġgingival":6562,"Ġfebrile":6563,"Ġrepeat":6564,"Ġvalid":6565,"ĠLI":6566,"arged":6567,"ĠREGI":6568,"vacizumab":6569,"%;":6570,"course":6571,"STR":6572,"owering":6573,"activity":6574,"oids":6575,"Ġstiff":6576,"Ġbupivacaine":6577,"Ġdiscussion":6578,"anguage":6579,"Ġintramuscular":6580,"iltration":6581,"ĠFP":6582,"Ġtuberculosis":6583,"Ġconsequences":6584,"ĠSurgery":6585,"nRH":6586,"Ġuncomplicated":6587,"cepted":6588,"ibration":6589,"pred":6590,"ologically":6591,"utum":6592,"RATION":6593,"Ġradiograph":6594,"Ġrejection":6595,"avy":6596,"Ġrepeti":6597,"Ġadjunct":6598,"ounds":6599,"ponent":6600,"Ġcentre":6601,"Ġinstrument":6602,"uzumab":6603,"car":6604,"economic":6605,"uting":6606,"Ġappoint":6607,"Ġexacerbation":6608,"geal":6609,"Ġlocally":6610,"Ġribavirin":6611,"Ġalb":6612,"ĠIndividual":6613,"ĠBefore":6614,"Ġevident":6615,"Ġoxide":6616,"Ġcurric":6617,"cipar":6618,"Ġhyste":6619,"ĠNP":6620,"Ġbreathing":6621,"Ġsuit":6622,"ote":6623,"Ġnal":6624,"Ġwhat":6625,"Ġkin":6626,"roscopic":6627,"Ġmarrow":6628,"ĠWithin":6629,"Ġlactate":6630,"Ġang":6631,"weekly":6632,"Ġallerg":6633,"udesonide":6634,"Ġserved":6635,"Ġspecifically":6636,"Ġsper":6637,"ĠLA":6638,"Ġnext":6639,"ĠTNF":6640,"ruary":6641,"Ġefficiency":6642,"Ġsampling":6643,"ĠAM":6644,"ĠMultiv":6645,"ĠGrade":6646,"perimental":6647,"Ġtheory":6648,"ciparum":6649,"ĠVis":6650,"hal":6651,"Ġinfarction":6652,"Ġopportun":6653,"Ġechocardi":6654,"Ġpolymorph":6655,"rimin":6656,"litazone":6657,"Ġrot":6658,"Ġchem":6659,"phal":6660,"Ġhaemoglobin":6661,"Ġdeterioration":6662,"Ġcann":6663,"aceu":6664,"odone":6665,"Ġdescri":6666,"Ġbecome":6667,"OVA":6668,"ĠWor":6669,"entanil":6670,"Ġdiarrhoea":6671,"Ġpredicting":6672,"ĠIR":6673,"Ġindicates":6674,"iterrane":6675,"mer":6676,"Ġemployed":6677,"iterranean":6678,"ota":6679,"ĠHem":6680,"Ġunilateral":6681,"ED":6682,"ches":6683,"ĠCB":6684,"ĠWeek":6685,"Ġantenatal":6686,"Ġshowing":6687,"ighted":6688,"ĠEvidence":6689,"center":6690,"Ġane":6691,"uracil":6692,"Ġneuropsych":6693,"Ġ160":6694,"Ġbiopsies":6695,"Ġmeasuring":6696,"Ġrequires":6697,"ĠActivity":6698,"Ġbook":6699,"Ġneurological":6700,"STRATION":6701,"Ġsclerosis":6702,"Ġdeficiency":6703,"BJECTS":6704,"Ġpreoperatively":6705,"Ġdu":6706,"Ġintest":6707,"Ġhumans":6708,"Ġresolution":6709,"thern":6710,"Ġagonist":6711,"Ġselenium":6712,"ĠREGISTRATION":6713,"rous":6714,"ĠAg":6715,"Ġtargeting":6716,"aceutical":6717,"ogenesis":6718,"Ġfalciparum":6719,"Ġcohorts":6720,"Ġvital":6721,"Ġcertain":6722,"Ġprofessionals":6723,"odal":6724,"ivariate":6725,"Ġregions":6726,"ĠFebruary":6727,"ym":6728,"Ġfish":6729,"onazole":6730,"Ġmagnesium":6731,"Ġworld":6732,"Ġaccompan":6733,"Ġfluoxetine":6734,"Ġpressures":6735,"del":6736,"Ġcore":6737,"Ġsteroids":6738,"tice":6739,"ĠSurvey":6740,"Ġmetron":6741,"Ġcystic":6742,"reen":6743,"een":6744,"ĠMy":6745,"Ġ125":6746,"ĠrTMS":6747,"ĠCKD":6748,"Ġsen":6749,"ĠEduc":6750,"ĠDVT":6751,"administered":6752,"Ġpromp":6753,"traum":6754,"Ġ130":6755,"ĠNorth":6756,"Ġreminder":6757,"ĠFuture":6758,"Ġtransfusions":6759,"Ġibular":6760,"Ġ1996":6761,"uity":6762,"ĠPET":6763,"Ġstiffness":6764,"Ġtechnology":6765,"Ġcholecystectomy":6766,"rich":6767,"mittee":6768,"Ġcoordin":6769,"LP":6770,"ĠEE":6771,"Ġcortex":6772,"Ġserving":6773,"Ġdiagnoses":6774,"Ġlymphoma":6775,"Ġnephropathy":6776,"Ġconcerns":6777,"ĠMen":6778,"Ġanastom":6779,"Ġspecimens":6780,"iazep":6781,");":6782,"Ġnow":6783,"Ġ110":6784,"ĠNSA":6785,"Ġpresentation":6786,"Ġdoxorubicin":6787,"body":6788,"Ġmusic":6789,"atus":6790,"Ġperceptions":6791,"Ġmobile":6792,"orouracil":6793,"Ġendometri":6794,"ĠSUBJECTS":6795,"Ġsimultaneous":6796,"tene":6797,"apeutic":6798,"diab":6799,"Ġelevation":6800,"Ġcaregiver":6801,"ovir":6802,"Ġbab":6803,"otinib":6804,"Ġresistant":6805,"areness":6806,"orp":6807,"ĠACE":6808,"direct":6809,"ario":6810,"ectious":6811,"Ġenoxaparin":6812,"Ġide":6813,"Ġge":6814,"ĠEV":6815,"Evaluation":6816,"ontic":6817,"natal":6818,"ĠGnRH":6819,"Ġsummary":6820,"ĠAdherence":6821,"Clinical":6822,"Ġhabits":6823,"Ġefforts":6824,"Ġproven":6825,"Ġethnic":6826,"utable":6827,"Ġreinfor":6828,"Ġabortion":6829,"ĠSBP":6830,"ourses":6831,"Ġsensory":6832,"Ġmail":6833,"Ġlowering":6834,"atocellular":6835,"child":6836,"Ġpotassium":6837,"ĠCPB":6838,"aryngeal":6839,"Ġbin":6840,"ĠTable":6841,"Ġarrest":6842,"Ġinsomnia":6843,"Ġmembrane":6844,"Ġmarginal":6845,"Ġindividualized":6846,"Ġphosphate":6847,"botic":6848,"ĠOl":6849,"pation":6850,"Ġidi":6851,"imensional":6852,"stant":6853,"Ġsupplemented":6854,"ĠNone":6855,"Ġgenetic":6856,"Based":6857,"cm":6858,"Ġreadmission":6859,"Ġvalidation":6860,"Ġtib":6861,"ĠSpec":6862,"Ġtoothbr":6863,"imester":6864,"ĠNur":6865,"Ġhospitalizations":6866,"FT":6867,"oetin":6868,"ĠProject":6869,"rept":6870,"ĠAnti":6871,"inatal":6872,"ĠChe":6873,"troduction":6874,"Ġinstitutional":6875,"Ġallowed":6876,"ĠDouble":6877,"Ġgave":6878,"Ġproportions":6879,"ĠBi":6880,"Ġaffects":6881,"Ġsubsequently":6882,"ocar":6883,"Ġurg":6884,"Ġial":6885,"Ġresting":6886,"Ġprobably":6887,"alliative":6888,"Ġfear":6889,"acetamol":6890,"ĠLS":6891,"Ġ140":6892,"arter":6893,"ĠPlace":6894,"formation":6895,"Ġclinician":6896,"invasive":6897,"orbidity":6898,"ĠBody":6899,"ĠCRC":6900,"Ġintrav":6901,"Ġown":6902,"atide":6903,"Ġminute":6904,"STRACT":6905,"Ġhysterectomy":6906,"Ġaccepted":6907,"Ġsputum":6908,"renatal":6909,"Ġpartner":6910,"ĠÃ©t":6911,"rophil":6912,"Ġtransc":6913,"ĠYo":6914,"RD":6915,"rod":6916,"Ġcourses":6917,"stable":6918,"Ġfailures":6919,"Ġpromoting":6920,"ono":6921,"Ġsoc":6922,"Ġ2012":6923,"Ġlanguage":6924,"ĠMediterranean":6925,"Ġbreath":6926,"Ġproved":6927,"Ġstopped":6928,"ications":6929,"Ġtac":6930,"Ġmanner":6931,"Ġbecame":6932,"iper":6933,"Ġkcal":6934,"acill":6935,"Ġdistric":6936,"ĠFD":6937,"Ġcategor":6938,"Ġpeptide":6939,"aste":6940,"Ġplant":6941,"Ġenvironmental":6942,"oflurane":6943,"Ġgyn":6944,"ophil":6945,"ĠSurv":6946,"ience":6947,"Ġtransp":6948,"ushing":6949,"Ġnerv":6950,"Ġbeliefs":6951,"Ġdressing":6952,"ull":6953,"rie":6954,"orafenib":6955,"Ġ1995":6956,"Ġrup":6957,"Ġtransl":6958,"Ġneuropathy":6959,"MB":6960,"Ġfatal":6961,"ĠIntroduction":6962,"bul":6963,"Ġprep":6964,"Ġidentification":6965,"Ġincision":6966,"Ġglut":6967,"ĠSch":6968,"Ġrequirement":6969,"matched":6970,"birth":6971,"ĠDifferences":6972,"renorphine":6973,"Ġaneurys":6974,"Ġcomplaints":6975,"ispan":6976,"Ġpharmacists":6977,"Ch":6978,"ket":6979,"endit":6980,"ĠCAD":6981,"Ġatheroscler":6982,"Ġstem":6983,"ĠMc":6984,"Ġmetronidazole":6985,"ras":6986,"Ġhot":6987,"Ġerythropo":6988,"ietin":6989,"ĠResponse":6990,"Ġ1994":6991,"Ġpi":6992,"response":6993,"ĠTD":6994,"Ġbipolar":6995,"Ġnumer":6996,"ocom":6997,"ework":6998,"Ġtendon":6999,"Ġingestion":7000,"ĠSmoking":7001,"Ġacuity":7002,"loride":7003,"Ġdiscrimin":7004,"Ġanticoagulation":7005,"Ġstatin":7006,"Ġharm":7007,"ready":7008,"ĠDietary":7009,"ĠSeveral":7010,"Ġburn":7011,"ĠPH":7012,"ĠSchool":7013,"ball":7014,"Ġfixation":7015,"nit":7016,"Ġpow":7017,"ĠDiscussion":7018,"ĠAugust":7019,"Ġcirculating":7020,"Ġpossibly":7021,"ĠCollabor":7022,"rexate":7023,"Ġbudesonide":7024,"restim":7025,"Ġmailed":7026,"containing":7027,"Ġfrail":7028,"Ġleads":7029,"unts":7030,"Ġpreced":7031,"Ġteams":7032,"au":7033,"directed":7034,"Ġformulation":7035,"Ġsatisfied":7036,"Ġvolumes":7037,"EP":7038,"caemia":7039,"Ġcompet":7040,"Ġshif":7041,"ĠICD":7042,"Ġvivo":7043,"Ġoptions":7044,"Ġhypothermia":7045,"Ġmembran":7046,"Ġfacilitate":7047,"ĠBreast":7048,"ĠNI":7049,"Ġultrasonography":7050,"ĠMal":7051,"Ġoes":7052,"Ġdip":7053,"Ġdischarged":7054,"Ġprocesses":7055,"Ġport":7056,"Ġassist":7057,"Ġpostintervention":7058,"Ġsmoke":7059,"Ġirre":7060,"otrexate":7061,"Ġexpendit":7062,"ĠSeven":7063,"Ġtel":7064,"Ġconflic":7065,"affec":7066,"Ġsusceptib":7067,"traline":7068,"Ġmetabolism":7069,"Ġpassive":7070,"Ġextens":7071,"lored":7072,"Ġalready":7073,"ĠAdditional":7074,"Ġendoscopy":7075,"ĠWHO":7076,"ayed":7077,"implant":7078,"ĠBl":7079,"Ġclosed":7080,"Ġconcerning":7081,"Ġheavy":7082,"prednis":7083,"squ":7084,"DCS":7085,"Ġdyspnea":7086,"ĠQALY":7087,"Ġtablet":7088,"Ġintestinal":7089,"ĠMP":7090,"ĠWhe":7091,"Ġnecrosis":7092,"azolam":7093,"Ġinvited":7094,"Ġattributable":7095,"Ġbevacizumab":7096,"ethyl":7097,"Ġanesthetic":7098,"lipid":7099,"sul":7100,"Ġens":7101,"Ġablation":7102,"Î±":7103,"perfusion":7104,"trum":7105,"Ġconn":7106,"fication":7107,"Ġembolism":7108,"mber":7109,"Ġtriglycerides":7110,"Ġ?":7111,"Ġyielded":7112,"ĠTwelve":7113,"Ġreading":7114,"Ġgonad":7115,"Ġdimin":7116,"Ġusually":7117,"Ġtermin":7118,"Ġcruciate":7119,"ART":7120,"vember":7121,"ĠDiagn":7122,"acent":7123,"ĠMany":7124,"Ġtranexamic":7125,"ĠSG":7126,"zil":7127,"mill":7128,"eking":7129,"Ġdifferential":7130,"Ġ800":7131,"Ġscreen":7132,"Ġcontinuing":7133,"ĠVers":7134,"Is":7135,"Ġindirect":7136,"Ġassum":7137,"ĠFund":7138,"Ġhypoglycemia":7139,"vis":7140,"Ġcounter":7141,"monitoring":7142,"room":7143,"oside":7144,"Impact":7145,"ually":7146,"ipramine":7147,"plasia":7148,"eal":7149,"Ġrit":7150,"andomised":7151,"Ġarticles":7152,"ĠDepartment":7153,"ĠAnalyses":7154,"ĠChina":7155,"ĠAustralian":7156,"Ġsuperiority":7157,"ĠEpid":7158,"adjuvant":7159,"Ġobservations":7160,"ĠTI":7161,"Ġvul":7162,"Ġsubset":7163,"ĠMeasures":7164,"Ġpartially":7165,"Ġmotivation":7166,"Ġnar":7167,"Ġattempt":7168,"Ġgeneralized":7169,"Ad":7170,"Ġoccupational":7171,"ĠNSAID":7172,"Ġtit":7173,"icits":7174,"Ġconce":7175,"adiotherapy":7176,"Ġexplained":7177,"Ġcolonization":7178,"kine":7179,"Ġ104":7180,"ĠANOVA":7181,"Ġobtain":7182,"phosph":7183,"low":7184,"ĠNovember":7185,"Ġstatement":7186,"Ġaver":7187,"Ġrare":7188,"Ġthirty":7189,"Ġprobing":7190,"Long":7191,"Ġefficient":7192,"Ġmenstrual":7193,"Ġqualitative":7194,"Ġmeaningful":7195,"mean":7196,"Ġrapidly":7197,"OH":7198,"Ġhepatocellular":7199,"Ġrise":7200,"eta":7201,"Ġneopl":7202,"ĠLBP":7203,"Ġsaturation":7204,"Ġlabel":7205,"quartile":7206,"Ġesophageal":7207,"Ġconsistently":7208,"Ġoccas":7209,"Ġsuitable":7210,"Ġthereafter":7211,"Ġitem":7212,"ĠPrac":7213,"ĠCHO":7214,"Ġheterogene":7215,"lysis":7216,"Ġcarbon":7217,"ĠLC":7218,"paring":7219,"ĠScreening":7220,"ĠTM":7221,"ĠTP":7222,"Ġmodalities":7223,"ailure":7224,"phen":7225,"anol":7226,"ylated":7227,"VP":7228,"FI":7229,"ĠRS":7230,"Ġoccurring":7231,"Ġcocaine":7232,"Ġcultures":7233,"april":7234,"ĠHBV":7235,"adol":7236,"Ġglomer":7237,"ears":7238,"rank":7239,"oman":7240,"Ġdemonstrates":7241,"Ġps":7242,"Ġple":7243,"Ġradio":7244,"ope":7245,"Ġperinatal":7246,"loor":7247,"ĠNeither":7248,"Ġprenatal":7249,"Ġglo":7250,"ĠFam":7251,"Ġmaintaining":7252,"unnel":7253,"Ġleak":7254,"Ġexplored":7255,"Ġmucositis":7256,"Ġconsultations":7257,"mediated":7258,"Ġhernia":7259,"Ġneutrophil":7260,"ostasis":7261,"Ġexplor":7262,"Ġsoy":7263,"Ġsalt":7264,"Ġ1990":7265,"VC":7266,"Ġangioplasty":7267,"amilton":7268,"ees":7269,"cales":7270,"ARCH":7271,"loro":7272,"Ġlargely":7273,"ĠYork":7274,"ococcus":7275,"Ġological":7276,"Ġattempts":7277,"atelet":7278,"readmill":7279,"dial":7280,"istent":7281,"athic":7282,"Ġbacteria":7283,"ble":7284,"Ġbic":7285,"Ġoperations":7286,"Ġinstructions":7287,"formance":7288,"Ġii":7289,"Ġrob":7290,"astro":7291,"Ġfore":7292,"Ġfecal":7293,"ĠASA":7294,"Ġexperiment":7295,"ĠHamilton":7296,"igibility":7297,"Ġoffers":7298,"lotinib":7299,"Ġhydrochloride":7300,"ĠVE":7301,"ifying":7302,"Ġadjunctive":7303,"Ġscoring":7304,"Ġwarm":7305,"Ġvill":7306,"Ġcharacterized":7307,"Ġexperiences":7308,"ĠManagement":7309,"Ġaggressive":7310,"Ġcollaborative":7311,"Ġadding":7312,"ĠFact":7313,"Ġpoll":7314,"Ġsubstit":7315,"achment":7316,"Ġtestosterone":7317,"Ġparox":7318,"Ġassisted":7319,"ĠEffect":7320,"dwelling":7321,"lowering":7322,"Ġdown":7323,"Ġvariety":7324,"ĠPlacebo":7325,"Ġdimens":7326,"Ġserot":7327,"Ġtension":7328,"ĠAdminis":7329,"hion":7330,"tegr":7331,"FU":7332,"Ġinduc":7333,"ĠNa":7334,"Ġfashion":7335,"Ġpredominantly":7336,"ĠHel":7337,"ronutri":7338,"aplan":7339,"Ġanthrop":7340,"ipl":7341,"Ġspecialist":7342,"ograms":7343,"Ġaudit":7344,"anoma":7345,"Ġprostatectomy":7346,"ulator":7347,"Ġtrends":7348,"Ġcurriculum":7349,"Ġdeficits":7350,"Ġpreschool":7351,"azep":7352,"amb":7353,"ĠServ":7354,"Ġmarkedly":7355,"Ġguide":7356,"specified":7357,"ĠEligible":7358,"aster":7359,"Ġrelie":7360,"Ġ102":7361,"ĠKaplan":7362,"Ġpoorly":7363,"Ġsteps":7364,"LC":7365,"Ġhyperch":7366,"otrans":7367,"UN":7368,"aban":7369,"orial":7370,"Americ":7371,"Ġpsychotherapy":7372,"untary":7373,"Ġlatter":7374,"pped":7375,"romuscular":7376,"Ġbelie":7377,"italopram":7378,"ĠInvestig":7379,"Ġinstruction":7380,"Ġeg":7381,"Ġperc":7382,"uits":7383,"Ġspl":7384,"Ġdentif":7385,"ĠCro":7386,"Ġpublication":7387,"Ġcyclospor":7388,"inger":7389,"Ġobjectives":7390,"Ġacceptance":7391,"ĠHER":7392,"Ġalgorithm":7393,"Ġcontrovers":7394,"unced":7395,"ocking":7396,"endronate":7397,"Ġju":7398,"Ġmultivariable":7399,"ĠMultiple":7400,"Ġsum":7401,"ĠBC":7402,"Ġcompleting":7403,"rot":7404,"illing":7405,"Ġmediated":7406,"Ġmindfulness":7407,"ians":7408,"Ġsequence":7409,"Ġsimilarly":7410,"Ġnetwork":7411,"Ag":7412,"Ġrecor":7413,"Ġguidance":7414,"Ġ2013":7415,"Ġunstable":7416,"Ġhousehold":7417,"ĠPM":7418,"astric":7419,"Ġcombining":7420,"oor":7421,"eficiency":7422,"Ġmethotrexate":7423,"Impro":7424,"Ġusage":7425,"Ġaff":7426,"Ġprocessing":7427,"ĠCent":7428,"apent":7429,"Ġtrue":7430,"ĠGroups":7431,"Ġparenteral":7432,"Ġencoun":7433,"thral":7434,"Ġindividually":7435,"Ġglycaemic":7436,"Ġpharmacy":7437,"Ġconges":7438,"Treatment":7439,"Ġpalliative":7440,"ĠCanada":7441,"Ġintroduction":7442,"Ġinsufficiency":7443,"Ġnearly":7444,"centric":7445,"ASH":7446,"ĠRESE":7447,"aparoscopic":7448,"Ġawareness":7449,"Ġproges":7450,"Ġ105":7451,"Ġclusters":7452,"Ġpap":7453,"enef":7454,"ĠDay":7455,"Ġborn":7456,"ĠNA":7457,"Ġmonitor":7458,"Ġfactorial":7459,"Ġcopies":7460,"Ġprogesterone":7461,"Ġsubscale":7462,"ĠÂ£":7463,"traumatic":7464,"onsill":7465,"Ġanat":7466,"semination":7467,"ĠRESEARCH":7468,"Ġseconds":7469,"therl":7470,"ĠMCI":7471,"ansetron":7472,"UNDING":7473,"Ġischaemic":7474,"Ġascer":7475,"Ġneural":7476,"Ġwall":7477,"Ġmutations":7478,"inge":7479,"Ġsubscales":7480,"turnal":7481,"Ġexist":7482,"Ġconsiderable":7483,"ert":7484,"Ġbuprenorphine":7485,"Ġmissing":7486,"ĠFUNDING":7487,"thal":7488,"ologist":7489,"Ex":7490,"Ġperspective":7491,"ĠProf":7492,"Ġinstruments":7493,"Ġdetail":7494,"ĠMedicine":7495,"Ġinvestigator":7496,"albumin":7497,"drug":7498,"Ġventilator":7499,"Ġsumm":7500,"condition":7501,"velopment":7502,"ĠLT":7503,"Ġautomated":7504,"Ġampl":7505,"iry":7506,"Ġmolecular":7507,"Ġrespondents":7508,"Ġapproved":7509,"Ġatopic":7510,"Ġlinked":7511,"Ġdoctors":7512,"%).":7513,"ĠRI":7514,"ĠParen":7515,"Ġtea":7516,"Ġheat":7517,"Ġprescriptions":7518,"Ġpsycho":7519,"ĠCanadian":7520,"ĠNetherl":7521,"Ġazithromycin":7522,"Ġmillion":7523,"dermal":7524,"Ġtiming":7525,"Ġvalve":7526,"Ġpooled":7527,"Ass":7528,"Ġsets":7529,"Ġmembranes":7530,"Ġfiltration":7531,"anish":7532,"adine":7533,"ĠSome":7534,"Ġedema":7535,"ector":7536,"Ġped":7537,"ĠVA":7538,"Ġembryo":7539,"otoxic":7540,"Ġ101":7541,"OD":7542,"Ġimmunosupp":7543,"Ġbalanced":7544,"Ġranging":7545,"ĠtDCS":7546,"erm":7547,"Ġbiological":7548,"Ġrunning":7549,"amous":7550,"generation":7551,"Ġrecogn":7552,"lutide":7553,"Ġlocation":7554,"Ġobstetric":7555,"reach":7556,"Ġouts":7557,"Ġden":7558,"Ġpractical":7559,"Ġirradiation":7560,"zole":7561,"odine":7562,"Ġexperiencing":7563,"ĠWestern":7564,"Ġquin":7565,"Ġunex":7566,"Ġviolence":7567,"Ġdescribes":7568,"UCTION":7569,"ĠABSTRACT":7570,"diabetic":7571,"prednisolone":7572,"oadjuvant":7573,"Ġtreadmill":7574,"Ġseverely":7575,"XA":7576,"eded":7577,"Ġwave":7578,"nes":7579,"ĠHT":7580,"ĠAppro":7581,"Ġorganization":7582,"ĠCoronary":7583,"Ġcitrate":7584,"oster":7585,"ĠPCO":7586,"Ġgenerated":7587,"Ġcontroversial":7588,"anine":7589,"Ġconfounding":7590,"Ġincludes":7591,"Ġfourth":7592,"ROD":7593,"Ġsperm":7594,"Ġasthmatic":7595,"Ġmatching":7596,"oplatin":7597,"naire":7598,"Ġinterquartile":7599,"enh":7600,"avings":7601,"Ġaccurate":7602,"Ġmoder":7603,"Ġextremity":7604,"Ġdecomp":7605,"ĠIdentifier":7606,"Ġpostnatal":7607,"Ġworsening":7608,"ĠMortality":7609,"Ġidiopathic":7610,"//":7611,"side":7612,"Ġfast":7613,"Ġmode":7614,"charge":7615,"Ġfind":7616,"lingual":7617,"Ġlean":7618,"Ġsupports":7619,"Ġchemor":7620,"ades":7621,"ĠGFR":7622,"ĠAlso":7623,"olester":7624,"Ġremoved":7625,"thma":7626,"Ġpolyps":7627,"iprof":7628,"tilization":7629,"here":7630,"Ġpaired":7631,"ĠSingle":7632,"ĠCrohn":7633,"Ġnan":7634,"Ġsurgeons":7635,"Ġq":7636,"ĠOP":7637,"sided":7638,"Ġmultim":7639,"Ġcriterion":7640,"BM":7641,"Ġotitis":7642,"Ġcombinations":7643,"Ac":7644,"ĠPositive":7645,"Ġbenz":7646,"Ġspray":7647,"Ġprevented":7648,"Ġdefinitive":7649,"Ġretrie":7650,"RODUCTION":7651,"opress":7652,"months":7653,"ĠSM":7654,"prot":7655,"cluding":7656,"ĠINTRODUCTION":7657,"atch":7658,"Ġwilling":7659,"Ġinfectious":7660,"NSS":7661,"kets":7662,"Ġsertraline":7663,"Ġtherapist":7664,"Ġstretching":7665,"oter":7666,"ĠSeverity":7667,"://":7668,"Ġcereb":7669,"Ġextensive":7670,"Ġrhinitis":7671,"rences":7672,"ĠMo":7673,"ĠMental":7674,"ispanic":7675,"appropriate":7676,"aters":7677,"lets":7678,"timal":7679,"Ġsexually":7680,"amivudine":7681,"kes":7682,"ĠSince":7683,"docrine":7684,"Ġtools":7685,"Ġerg":7686,"Ġhighl":7687,"025":7688,"ĠSignificantly":7689,"Ġphases":7690,"phylaxis":7691,"Ġdomain":7692,"Ġcoagulation":7693,"isition":7694,"Ġsulfate":7695,"ĠVTE":7696,"Ġ1993":7697,"amycin":7698,"Ġaddressed":7699,"Ġfloor":7700,"ĠAdditionally":7701,"Ġextra":7702,"Ġpractic":7703,"iprofloxacin":7704,"ĠDE":7705,"ĠLH":7706,"Ġsitting":7707,"Ġenteral":7708,"trained":7709,"ferase":7710,"isin":7711,"Ġprostagl":7712,"toler":7713,"Ġmedial":7714,"merg":7715,"Ġfifty":7716,"ĠFF":7717,"ĠDaily":7718,"ĠImpact":7719,"uration":7720,"ĠVer":7721,"Ġfollows":7722,"Ġnonfatal":7723,"rovascular":7724,"ĠSimilarly":7725,"Ġsimvastatin":7726,"osen":7727,"ĠAIDS":7728,"Ġhtt":7729,"Ġprono":7730,"LS":7731,"Ġinterviewed":7732,"Ġcode":7733,"Ġpronounced":7734,"Ġbenign":7735,"Ġaggreg":7736,"Ġanticoagul":7737,"Ġendometriosis":7738,"014":7739,"Ġsph":7740,"Ġscrew":7741,"Ġbehaviours":7742,"Ġclozapine":7743,"Ġcompletely":7744,"session":7745,"Ġpostural":7746,"iliary":7747,"Ġperiodontitis":7748,"Ġgram":7749,"Ġpersisted":7750,"Ġirrit":7751,"Ġrelapsed":7752,"ĠImprovement":7753,"omotor":7754,"imeth":7755,"Ġvag":7756,"feedback":7757,"Ġtoxicities":7758,"Ġerythropoietin":7759,"HI":7760,"onset":7761,"Ġimmunod":7762,"aturated":7763,"Ġforty":7764,"ĠLung":7765,"Ġantibodies":7766,"unting":7767,"012":7768,"Ġcorrected":7769,"aphy":7770,"Ġdifficulty":7771,"Ġros":7772,"Ġsmoked":7773,"ware":7774,"Ġaltered":7775,"obacill":7776,"severe":7777,"ulties":7778,"ĠEX":7779,"ĠItal":7780,"Ġclinically":7781,"ĠVisual":7782,"015":7783,"Ġdetailed":7784,"etite":7785,"ĠPers":7786,"ĠRecent":7787,"Ġnature":7788,"urally":7789,"Ġimages":7790,"tified":7791,"orrhea":7792,"Ġmutation":7793,"Ġattachment":7794,"ocrit":7795,"ĠNO":7796,"Ġtra":7797,"Ġfacility":7798,"ĠAdministration":7799,"pezil":7800,"Ġdopamine":7801,"ĠMaterial":7802,"Ġclearly":7803,"abilities":7804,"Ġliqu":7805,"ifteen":7806,"ĠHRQOL":7807,"Ġsurgeon":7808,"HT":7809,"Ġpostpr":7810,"ĠTS":7811,"Ġepile":7812,"Ġestradiol":7813,"Ġemphas":7814,"ĠVersus":7815,"Ġparenting":7816,"Ġprogress":7817,"Ġwashout":7818,"eling":7819,"Ġinterim":7820,"atinib":7821,"ĠSurvival":7822,"jury":7823,"Ġhoc":7824,"Ġincom":7825,"Ġsusp":7826,"Ġbrach":7827,"ĠÂ·":7828,"asing":7829,"itabine":7830,"Ġthyroid":7831,"ĠMultic":7832,"Ġinfertility":7833,"ĠUr":7834,"Ġhormonal":7835,"ĠMultivariate":7836,"ĠNine":7837,"Ġnonsignificant":7838,"Ps":7839,"Ġhypers":7840,"ĠRegistry":7841,"teroidal":7842,"Ġembryos":7843,"Ġpathway":7844,"Ġrespective":7845,"Ġtacrolimus":7846,"Ġconcept":7847,"ĠCoun":7848,"Ġdeb":7849,"manent":7850,"Ġexplan":7851,"Ġparoxetine":7852,"Ġcomfort":7853,"ĠINR":7854,"Ġconstant":7855,"ĠContinu":7856,"Ġpreferences":7857,"dimensional":7858,"Ġpragmatic":7859,"ĠPhysicians":7860,"ĠCardiac":7861,"trex":7862,"Ġveh":7863,"ĠIndia":7864,"ivol":7865,"Ġ106":7866,"ĠSymptoms":7867,"Ġpretest":7868,"Di":7869,"ĠRet":7870,"Ġsolid":7871,"Ġskill":7872,"Ġrepresents":7873,"Ġcouples":7874,"loid":7875,"Ġsoccer":7876,"codone":7877,"ĠOncology":7878,"Ġconcern":7879,"enous":7880,"ivolumab":7881,"Ġstates":7882,"Ġdropped":7883,"oked":7884,"trial":7885,"Ġvibration":7886,"Ġuncon":7887,"Ġsaturated":7888,"rew":7889,"ĠAge":7890,"ĠFSH":7891,"ĠPub":7892,"otics":7893,"ĠPa":7894,"ĠADL":7895,"unk":7896,"ĠEF":7897,"pharmac":7898,"articular":7899,"Ġprednisolone":7900,"Es":7901,"Ġmesh":7902,"Ġhr":7903,"Ġmanage":7904,"Ġmorph":7905,"rhyth":7906,"Ġanimal":7907,"ationale":7908,"ĠHome":7909,"valence":7910,"ĠFailure":7911,"icline":7912,"Ġconven":7913,"ockers":7914,"Ġ103":7915,"Ġmetastases":7916,"Ġpercenti":7917,"Ġsorafenib":7918,"Ġstrain":7919,"ĠLatin":7920,"ĠPres":7921,"Ġcoverage":7922,"Ġanaemia":7923,"Ġconstruc":7924,"ĠVL":7925,"Ġacquisition":7926,"Ġcontained":7927,"ĠRates":7928,"Ġobstruction":7929,"enem":7930,"arenicline":7931,"Ġ000":7932,"Ġcorrection":7933,"Ġsatisfactory":7934,"Ġperforming":7935,"Ġagreed":7936,"tisone":7937,"ĠChange":7938,"thodontic":7939,"Ġmuscul":7940,"Ġjournals":7941,"St":7942,"Ġaccompanied":7943,"Ġimmunodeficiency":7944,"ented":7945,"ograft":7946,"Ġpsychosis":7947,"astuzumab":7948,"Ġsupplemental":7949,"Ġinsufficient":7950,"Ġrogen":7951,"Ġfractions":7952,"ĠHRQoL":7953,"Ġpsori":7954,"olesterole":7955,"ĠÃł":7956,"riceps":7957,"random":7958,"Ġblocks":7959,"ĠEducation":7960,"rated":7961,"American":7962,"Ġinversely":7963,"Ġster":7964,"Ġune":7965,"roscopy":7966,"Ġnocturnal":7967,"ypical":7968,"Ġcatheterization":7969,"Ġfalling":7970,"Ġlasting":7971,"ager":7972,"Ġperitoneal":7973,"Ġdepri":7974,"Ġsuicide":7975,"verting":7976,"Ġquitting":7977,"ocytop":7978,"Ġcurves":7979,"Ġsun":7980,"gment":7981,"cence":7982,"Ġexact":7983,"Ġtermination":7984,"Ġjus":7985,"Ġneurologic":7986,"vate":7987,"Ġcategory":7988,"ĠEnglish":7989,"Ġavailability":7990,"Ġpharmacological":7991,"Ġond":7992,"Ġrestricted":7993,"Ġmelanoma":7994,"Ġbil":7995,"Ġhouseholds":7996,"Ġdairy":7997,"mitriptyline":7998,"ĠCy":7999,"Ġ109":8000,"Ġindication":8001,"Ġneuromuscular":8002,"Ġinferior":8003,"Ġalendronate":8004,"ĠInfants":8005,"trexone":8006,"ĠHyp":8007,"Ġinstructed":8008,"Ġletter":8009,"urea":8010,"ĠExamination":8011,"onidine":8012,"ĠCY":8013,"Ġimplic":8014,"jected":8015,"Ġglomerular":8016,"ĠCardiovascular":8017,"fast":8018,"Meier":8019,"ĠMDD":8020,"ĠIMP":8021,"change":8022,"Ġcoefficient":8023,"herent":8024,"etom":8025,"Ġdoub":8026,"patients":8027,"Ġcorrelations":8028,"Ġren":8029,"Ġomeprazole":8030,"upport":8031,"Ġcovariates":8032,"square":8033,"ellar":8034,"Ġsafely":8035,"arotene":8036,"Ġresponsiveness":8037,"jured":8038,"Ġshe":8039,"organ":8040,"making":8041,"Ġleukemia":8042,"ocarcinoma":8043,"Ġpump":8044,"ĠHE":8045,"Ġaccum":8046,"Ġlamivudine":8047,"OMAC":8048,"Ġintroduced":8049,"amstr":8050,"ĠIGF":8051,"eless":8052,"ĠAccording":8053,"Ġtriglyceride":8054,"Ġondansetron":8055,"ometh":8056,"Ds":8057,"ah":8058,"ĠImpression":8059,"Ġimage":8060,"Ġappetite":8061,"responders":8062,"Ġsugar":8063,"oli":8064,"Ġlute":8065,"Ġvehicle":8066,"ĠLevel":8067,"Ġmodality":8068,"MSE":8069,"Ġadren":8070,"ĠBI":8071,"tipation":8072,"Ġrin":8073,"riol":8074,"ĠHealthy":8075,"Ġprobiotic":8076,"Ġerlotinib":8077,"Ġcompens":8078,"Ġincid":8079,"Ġidentifying":8080,"Ġvo":8081,"ĠBT":8082,"ĠFirst":8083,"Ġsupporting":8084,"Ġdifficulties":8085,"Ġsecretion":8086,"Ġempirical":8087,"Ġcommerc":8088,"Ġneuropsychological":8089,"Ġskeletal":8090,"Ġtraumatic":8091,"Ġsulph":8092,"eptide":8093,"Ġpill":8094,"Ġdoll":8095,"Ġappra":8096,"olum":8097,"Ġparacetamol":8098,"Ġregistry":8099,"ĠCIN":8100,"Ġseparately":8101,"isal":8102,"linding":8103,"cortisone":8104,"Ġaxillary":8105,"naive":8106,"ĠTK":8107,"ĠCop":8108,"utch":8109,"Ġstructure":8110,"veolar":8111,"Ġblockade":8112,"erobic":8113,"medetom":8114,"Ġsquare":8115,"Ġpairs":8116,"wing":8117,"parative":8118,"ĠAsthma":8119,"ĠSurgical":8120,"medetomidine":8121,"seud":8122,"Ġbegan":8123,"âĢĶ":8124,"plan":8125,"Ġinduce":8126,"Ġmix":8127,"osocom":8128,"ĠOste":8129,"acute":8130,"Ġsimulated":8131,"ordance":8132,"Ġsocioeconomic":8133,"Ġcuff":8134,"org":8135,"ophy":8136,"Ġhypotension":8137,"Ġissue":8138,"tum":8139,"ĠBrief":8140,"Ġkine":8141,"Ġaffecting":8142,"ĠUl":8143,"ĠProv":8144,"amer":8145,"MES":8146,"ococcal":8147,"Ġthought":8148,"Ġvirologic":8149,"Ġbul":8150,"Ġacquired":8151,"ham":8152,"OG":8153,"ulsion":8154,"osocomial":8155,"%),":8156,"ĠVeter":8157,"Ġmethylprednisolone":8158,"ĠAdoles":8159,"Ġlaparoscopy":8160,"Ġtypical":8161,"argine":8162,"Ġciprofloxacin":8163,"Ġcomprom":8164,"Ġproteinuria":8165,"Ġherni":8166,"Ġjump":8167,"Ġundergone":8168,"013":8169,"yster":8170,"gar":8171,"Ġhaemorrh":8172,"Ġframework":8173,"Ġresul":8174,"ĠDC":8175,"Ġsolutions":8176,"generated":8177,"ĠMajor":8178,"Ġconsistency":8179,"Ġmessage":8180,"Ġthoracic":8181,"Wh":8182,"ungal":8183,"Ġbronchi":8184,"Ġtunnel":8185,"Ġintended":8186,"Ġesophag":8187,"Ġpharmacokinetics":8188,"CG":8189,"Ġhttp":8190,"Ġdors":8191,"ĠFl":8192,"Ġau":8193,"Ġsn":8194,"Ġfar":8195,"ĠEP":8196,"Ġmostly":8197,"ĠAmericans":8198,"Ġhere":8199,"Ġpollen":8200,"200":8201,"ocysteine":8202,"ineal":8203,"Ġconstit":8204,"Ġsut":8205,"resh":8206,"Ġdetr":8207,"Ġmaxillary":8208,"DT":8209,"ze":8210,"Ġhypergly":8211,"ĠPractice":8212,"BE":8213,"Ġdrink":8214,"Ġliteracy":8215,"conditioning":8216,"uccess":8217,"uster":8218,"Ġcollagen":8219,"Ġlimits":8220,"zen":8221,"Ġexclusion":8222,"Ġpoore":8223,"hydroxy":8224,"Ġnodes":8225,"Ġseizures":8226,"Ġchosen":8227,"Ġkinase":8228,"relin":8229,"endence":8230,"Ġformer":8231,"Ġminority":8232,"Ġbabies":8233,"Ġtor":8234,"igation":8235,"Ġspir":8236,"Ġgingiv":8237,"Ġpharmacotherapy":8238,"Ġplantar":8239,"oxin":8240,"Ġoverd":8241,"selected":8242,"Ġneoadjuvant":8243,"Ġvirtual":8244,"ĠEpidem":8245,"atonin":8246,"ĠSocial":8247,"ĠBal":8248,"undle":8249,"Ġcortical":8250,"Ġexpenditure":8251,"olution":8252,"ĠKing":8253,"riptan":8254,"Ġintercourse":8255,"Ġeligibility":8256,"ĠMini":8257,"oskeletal":8258,"ju":8259,"Ġexpert":8260,"ĠPANSS":8261,"oy":8262,"terferon":8263,"loon":8264,"Ġclassroom":8265,"Ġsuture":8266,"Ġmobilization":8267,"efitinib":8268,"Ġtechnical":8269,"Ġtendency":8270,"Tr":8271,"ĠDBP":8272,"endazole":8273,"Ġjust":8274,"tiles":8275,"airs":8276,"Ġdigital":8277,"ĠLE":8278,"argets":8279,"Ã¯":8280,"ĠWOMAC":8281,"ĠHz":8282,"Ã¨":8283,"aning":8284,"orie":8285,"igure":8286,"Ġdisp":8287,"ĠAsian":8288,"aprox":8289,"enicillin":8290,"Ġattacks":8291,"Ġdentifrice":8292,"ĠAp":8293,"Ġsucrose":8294,"ey":8295,"ĠAMI":8296,"Ġcharacteristic":8297,"saturated":8298,"ecan":8299,"ĠRenal":8300,"iable":8301,"Ġqueti":8302,"Ġmanaging":8303,"avastatin":8304,"Ġlocalized":8305,"Ġenhancing":8306,"Ġquetiapine":8307,"016":8308,"ĠOnt":8309,"Ġcongestive":8310,"imen":8311,"sp":8312,"Ã³":8313,"omal":8314,"Ġfruits":8315,"ĠClass":8316,"ĠPerformance":8317,"Ġanalyze":8318,"ĠEQ":8319,"ĠGA":8320,"Ġrupture":8321,"Ġliquid":8322,"Ġson":8323,"Ġlowered":8324,"ĠLact":8325,"Ġevening":8326,"Ġcrow":8327,"uclear":8328,"Ġsee":8329,"Ġcontacts":8330,"ĠBehavi":8331,"Ġattributed":8332,"Ġ1992":8333,"Ġenhancement":8334,"Ġinfluences":8335,"DE":8336,"derived":8337,"Ġoperated":8338,"ĠVeterans":8339,"ĠInformation":8340,"ĠNID":8341,"Ġtransdermal":8342,"Ġcarboplatin":8343,"Ġstone":8344,"itors":8345,"ĠCRT":8346,"ighteen":8347,"Ġhaemat":8348,"ĠDutch":8349,"Ġie":8350,"oxia":8351,"ICU":8352,"Ġmasked":8353,"days":8354,"nish":8355,"incter":8356,"ogens":8357,"Ġdefine":8358,"ĠIG":8359,"ĠWil":8360,"Ġbackground":8361,"aglutide":8362,"health":8363,"Ġdrinks":8364,"Ġtranscranial":8365,"Ġunique":8366,"Ġneedle":8367,"Ġsoftware":8368,"Ġinterpretation":8369,"ilimumab":8370,"Ġdiverse":8371,"Ġfed":8372,"ĠPCA":8373,"Ġpsychotic":8374,"Ġcytokines":8375,"Ġchanging":8376,"ĠCGI":8377,"tigm":8378,"Ġaugmentation":8379,"ĠUp":8380,"fem":8381,"weet":8382,"Ġmeals":8383,"He":8384,"ĠOntario":8385,"ĠIntr":8386,"cholesterol":8387,"iotics":8388,"ĠOrganization":8389,"abs":8390,"Ġmuscular":8391,"Ġoutside":8392,"Ġscans":8393,"Ġposts":8394,"Ġoccurs":8395,"Ġmanif":8396,"Ġepinephrine":8397,"Ġflav":8398,"Ġnin":8399,"Ġards":8400,"iasis":8401,"ĠRem":8402,"aproxen":8403,"ĠGS":8404,"Ġdeterminants":8405,"Ġdonepezil":8406,"moderate":8407,"Ġovulation":8408,"ĠMB":8409,"Ġquadriceps":8410,"ĠDIS":8411,"ĠFlu":8412,"ropr":8413,"insulin":8414,"Ġturnover":8415,"Ġamitriptyline":8416,"011":8417,"Ġallergy":8418,"Ġmodeling":8419,"table":8420,"ureus":8421,"ĠAdults":8422,"Ġprolifer":8423,"ucose":8424,"ponin":8425,"Ġmargin":8426,"Ġelic":8427,"ĠPU":8428,"pm":8429,"ĠFO":8430,"Ġarrhyth":8431,"timulation":8432,"017":8433,"Ġvoluntary":8434,"remia":8435,"alant":8436,"coh":8437,"ĠExp":8438,"oline":8439,"ĠPredic":8440,"Ġabut":8441,"RM":8442,"reduc":8443,"Ġhearing":8444,"Ġnebul":8445,"Ġrecommendation":8446,"osity":8447,"aphyl":8448,"Ġdy":8449,"Ġlarg":8450,"Ġexecutive":8451,"Ġsupr":8452,"Ġtargets":8453,"ĠEr":8454,"Ġvisc":8455,"Ġ2014":8456,"Ġkil":8457,"artments":8458,"Ġaureus":8459,"Ġdrawn":8460,"Ġlum":8461,"Ġdonor":8462,"Ġreverse":8463,"ĠAA":8464,"Ġgranul":8465,"juana":8466,"attery":8467,"Ġconstipation":8468,"Ġsavings":8469,"ik":8470,"ĠEG":8471,"Ġglargine":8472,"Ġadequately":8473,"overed":8474,"ĠGermany":8475,"sub":8476,"Ġpref":8477,"Ġdissection":8478,"Ġunf":8479,"Ġintracranial":8480,"fib":8481,"Ġcas":8482,"Ġantidepressants":8483,"delivered":8484,"Ġlargest":8485,"significant":8486,"Ġsyndromes":8487,"Ġadvance":8488,"Ġsynthesis":8489,"ĠCPAP":8490,"Ġflexibility":8491,"Ġmidazolam":8492,"hist":8493,"Ġchemo":8494,"Ġwounds":8495,"Ġwards":8496,"Ġoutreach":8497,"oflav":8498,"ĠHypertension":8499,"coholic":8500,"post":8501,"ticasone":8502,"Ġinspiratory":8503,"Ġreactivity":8504,"Ġincomplete":8505,"ĠTG":8506,"Ġconclusions":8507,"Ġcyclosporine":8508,"nec":8509,"Ġchrom":8510,"tinin":8511,"Ġclients":8512,"actionated":8513,"Ġhypercholesterole":8514,"Ġinappropriate":8515,"Ġdemographics":8516,"Ġextreme":8517,"Ġcapsules":8518,"Ġpay":8519,"Ġabsent":8520,"ĠSupple":8521,"ĠMV":8522,"Ġincreasingly":8523,"Ġradiographs":8524,"Ġborder":8525,"Ġleave":8526,"Ġtrastuzumab":8527,"Ġattenuated":8528,"Ġcamp":8529,"ĠIP":8530,"Ġpharmaceutical":8531,"ilities":8532,"TED":8533,"Ġpotent":8534,"Ġinterviewing":8535,"ĠZeal":8536,"Ġexcessive":8537,"ots":8538,"Ġreperfusion":8539,"night":8540,"Ġhistology":8541,"Ġapart":8542,"enatide":8543,"quired":8544,"Ġhamstr":8545,"Ġmissed":8546,"ĠPharmac":8547,"Ġdoctor":8548,"asi":8549,"Ġdistin":8550,"psia":8551,"faces":8552,"Ġpeg":8553,"Ġsixty":8554,"Ġflexible":8555,"blastom":8556,"Ġanthropometric":8557,"Ġeti":8558,"Ġfalse":8559,"Ġretinopathy":8560,"mark":8561,"psy":8562,"Ġcod":8563,"Ġlib":8564,"Ġtrimester":8565,"Ġ108":8566,"oglitazone":8567,"Ġrecurrences":8568,"Ġbooklet":8569,"beta":8570,"athyroid":8571,"Ġadenocarcinoma":8572,"tolerated":8573,"ming":8574,"onyl":8575,"Ġfa":8576,"leg":8577,"protinin":8578,"Ġchallenges":8579,"exercise":8580,"ĠCPR":8581,"Ġallevi":8582,"ĠÏ":8583,"Th":8584,"Ġlos":8585,"Ġabsorption":8586,"tre":8587,"arijuana":8588,"Ġabstract":8589,"Ġpsoriasis":8590,"Ġstaging":8591,"ĠSyndrom":8592,"ception":8593,"VI":8594,"INE":8595,"Ġprev":8596,"ĠBR":8597,"ĠHRQL":8598,"flow":8599,"Ġacne":8600,"Ġintrauterine":8601,"Ġdefinition":8602,"Ġmolars":8603,"Ġrevised":8604,"Ġassistance":8605,"Ġmediat":8606,"Ġpossibility":8607,"Ġ107":8608,"Ġwoman":8609,"ĠOC":8610,"Ġallergen":8611,"onium":8612,"icobacter":8613,"Ġcollege":8614,"Ġisometric":8615,"Ġrobust":8616,"ĠBD":8617,"dia":8618,"Ġeffort":8619,"ginterferon":8620,"ĠLD":8621,"Ġantiem":8622,"Ġinfusions":8623,"Ġconversion":8624,"ostomy":8625,"Ġreflect":8626,"ĠIgG":8627,"angi":8628,"Ġ*":8629,"ĠSleep":8630,"ĠMet":8631,"ĠCalif":8632,"osp":8633,"Ġquartile":8634,"Ġposttest":8635,"ĠStress":8636,"obia":8637,"arial":8638,"Ġchance":8639,"FC":8640,"Ġaccounted":8641,"RNA":8642,"Ġatypical":8643,"Ġchart":8644,"ustom":8645,"urgery":8646,"therap":8647,"Ġclom":8648,"algia":8649,"Ġstatistics":8650,"Ġdollars":8651,"otecan":8652,"Ġusefulness":8653,"ogeneic":8654,"iction":8655,"ĠSMS":8656,"lline":8657,"Ġschizophrenic":8658,"Ġoxycodone":8659,"Ġemployees":8660,"Ġrelevance":8661,"Ġsplin":8662,"Ġgold":8663,"ĠSte":8664,"entific":8665,"ĠIndi":8666,"ĠFish":8667,"Ġlay":8668,"ĠLVE":8669,"Ġlacking":8670,"Ġtric":8671,"Ġdistrict":8672,"ĠPCOS":8673,"Ġfu":8674,"Ġnoninferiority":8675,"zing":8676,"Ġgast":8677,"ĠGE":8678,"ĠBMC":8679,"icine":8680,"Ġtransmitted":8681,"Ġdisco":8682,"ĠPregn":8683,"Ġlasted":8684,"Ġlaryng":8685,"Ġsublingual":8686,"Cl":8687,"ĠLog":8688,"ifications":8689,"Ġsalivary":8690,"Ġstri":8691,"Ġprinciples":8692,"Ġincome":8693,"Ġlink":8694,"ĠOlder":8695,"ĠMMSE":8696,"Ġpoorer":8697,"ancial":8698,"ĠRespiratory":8699,"Ġrotation":8700,"Ġsitagliptin":8701,"Ġexh":8702,"ĠBone":8703,"ella":8704,"ocket":8705,"ady":8706,"Ġplans":8707,"Ġ240":8708,"ĠEd":8709,"ĠGiven":8710,"ocytopenia":8711,"Ġrecognition":8712,"uman":8713,"Ġinhaler":8714,"Ġaminotrans":8715,"Ġteachers":8716,"SS":8717,"Ġonc":8718,"ĠHP":8719,"ĠAK":8720,"Ġpermanent":8721,"ĠProt":8722,"pal":8723,"Ġnegatively":8724,"restimated":8725,"Ġnas":8726,"Ġnucle":8727,"Ġstronger":8728,"onsillectomy":8729,"BW":8730,"Ġtransf":8731,"ĠPON":8732,"earing":8733,"Ġamounts":8734,"Ġdifferenti":8735,"EF":8736,"Î²":8737,"Ġsimulation":8738,"ĠFinally":8739,"Ġjuice":8740,"ĠWOR":8741,"moid":8742,"atinum":8743,"ocortic":8744,"Ġderm":8745,"MM":8746,"no":8747,"Ġneuropathic":8748,"Ġnivolumab":8749,"Controlled":8750,"leasing":8751,"Ġirrespective":8752,"EPO":8753,"ĠDA":8754,"Ġchloride":8755,"ĠRelative":8756,"ĠBeck":8757,"Ġdocument":8758,"iding":8759,"ĠReview":8760,"ĠLaparoscopic":8761,"Ġthresholds":8762,"Ġsquamous":8763,"ĠPart":8764,"Ġinvestigations":8765,"Ġexists":8766,"amicin":8767,"Ġfulf":8768,"ĠHigher":8769,"Ġhabit":8770,"blastoma":8771,"ĠIA":8772,"ĠHI":8773,"Ġclarithromycin":8774,"ĠModel":8775,"Ġatherosclerosis":8776,"Ġeasy":8777,"wor":8778,"Ġ1991":8779,"Ġvitamins":8780,"Ġcytokine":8781,"ĠProstate":8782,"Ġroutinely":8783,"itary":8784,"Ġboard":8785,"Ġadapted":8786,"Ġtoothbrush":8787,"Ġgingivitis":8788,"ĠNIDDM":8789,"orus":8790,"Ġenal":8791,"Ġdaytime":8792,"Ġ112":8793,"Ġhelpful":8794,"Ġunivariate":8795,"ded":8796,"ĠLim":8797,"Ġcareful":8798,"ĠInterview":8799,"alin":8800,"ĠTreat":8801,"Ġindications":8802,"Ġfolic":8803,"Ġfacial":8804,"Ġmusculoskeletal":8805,"opril":8806,"rolac":8807,"Ġadenomas":8808,"Ġtibial":8809,"HF":8810,"ĠKen":8811,"Ġseizure":8812,"Ġenalapril":8813,"Ġgeneric":8814,"Ġvision":8815,"Ġansw":8816,"Ġnormalized":8817,"Ġexplain":8818,"Ġstimuli":8819,"utation":8820,"Ġvan":8821,"Ġkne":8822,"Ġprivate":8823,"Ġfibrinogen":8824,"Ġdimensions":8825,"Ġketo":8826,"ĠSVR":8827,"ensitive":8828,"Ġmucosal":8829,"Ġpharmacokinetic":8830,"Ġpercentile":8831,"Ġelectrocardi":8832,"lamy":8833,"Ġgrafts":8834,"ĠMTX":8835,"Ġechocardiography":8836,"thir":8837,"Ġcycling":8838,"ĠÎ±":8839,"Res":8840,"Ġserotonin":8841,"Ġnosocomial":8842,"Ġcomorbidity":8843,"Ġatroph":8844,"Ġcovariance":8845,"Ġcontraception":8846,"obacillus":8847,"Ġnonr":8848,"Ġinstitution":8849,"Ġtap":8850,"mob":8851,"Ġdetecting":8852,"ĠITT":8853,"Ġrecovered":8854,"Ġketamine":8855,"ĠNRT":8856,"Ġreadmissions":8857,"Ġdistributed":8858,"500":8859,"Ġ(-":8860,"Ġmovements":8861,"ĠKnee":8862,"Ġpolyp":8863,"energy":8864,"Ġvarenicline":8865,"Ġnatri":8866,"idime":8867,"Ġgrip":8868,"Ġchain":8869,"ĠVari":8870,"Ġensure":8871,"otericin":8872,"019":8873,"irc":8874,"Ġinterrup":8875,"018":8876,"Ġminimally":8877,"Ġhistologic":8878,"ĠCollege":8879,"Ġbreakfast":8880,"Ġipilimumab":8881,"thrombin":8882,"Ġsphincter":8883,"Ġty":8884,"Ġraters":8885,"Ġalterations":8886,"lytic":8887,")=":8888,"actam":8889,"Ġclamp":8890,"Ġclonidine":8891,"Ġmarijuana":8892,"Ġnitrate":8893,"Ġprotect":8894,"Ġballoon":8895,"Ġthromboembolic":8896,"appa":8897,"Ġaveraged":8898,"rocy":8899,"ĠDevelopment":8900,"Ġrank":8901,"Ġsusceptibility":8902,"Ġisoflav":8903,"Ġorigin":8904,"Ġhematocrit":8905,"CUS":8906,"carotene":8907,"alc":8908,"lue":8909,"Ġmenopausal":8910,"ĠHispanic":8911,"Ġregulation":8912,"Ġcot":8913,"ĠEMG":8914,"hydration":8915,"ĠDiet":8916,"SION":8917,"tured":8918,"Ġcraving":8919,"Ġgynec":8920,"Ġepit":8921,"ulous":8922,"Ġvoid":8923,"ĠActive":8924,"mphotericin":8925,"oglobulin":8926,"Ġopioids":8927,"eclam":8928,"ECT":8929,"eclampsia":8930,"Ġstric":8931,"Ġresponsible":8932,"Ġtransition":8933,"albuminuria":8934,"sA":8935,"Ġgefitinib":8936,"Ġdefinite":8937,"ĠPreoperative":8938,"atheter":8939,"cystic":8940,"existing":8941,"ĠInsulin":8942,"ĠCompliance":8943,"Ġfertilization":8944,"Ġseemed":8945,"ĠCost":8946,"ĠHelicobacter":8947,"ĠACS":8948,"aud":8949,"ĠNot":8950,"ĠSweden":8951,"Ġintoler":8952,"Ġemployment":8953,"ĠMedication":8954,"Ġstratification":8955,"Ġstabilization":8956,"surgical":8957,"ĠMass":8958,"Ġpathology":8959,"Ġculturally":8960,"Ġinstability":8961,"Ġrif":8962,"Ġstudent":8963,"Ġround":8964,"Ġbmi":8965,"Ġmicrom":8966,"ĠCluster":8967,"Ġstenting":8968,"ĠCollaboration":8969,"Ġexploratory":8970,"operation":8971,"ardia":8972,"ĠHep":8973,"Ġconfounders":8974,"eno":8975,"Ġtheore":8976,"ĠFifteen":8977,"tazidime":8978,"afil":8979,"opathology":8980,"Ġtoo":8981,"Ġrhyth":8982,"Ġorthodontic":8983,"adren":8984,"Ġhard":8985,"Ġsustain":8986,"Ġgenital":8987,"LED":8988,"Ġnore":8989,"ĠObser":8990,"Ã©r":8991,"aem":8992,"Ġtape":8993,"erol":8994,"ĠEle":8995,"otropin":8996,"comycin":8997,"Ġactivated":8998,"Ġjudged":8999,"ĠIntensive":9000,"ĠIncidence":9001,"Ġeasily":9002,"ĠSyndrome":9003,"rater":9004,"Ġstatic":9005,"ĠROM":9006,"methyl":9007,"ĠLMW":9008,"Ġnaltrexone":9009,"anz":9010,"ĠEB":9011,"Ġmidw":9012,"Ġpersonnel":9013,"Ã¤":9014,"Ġcet":9015,"otype":9016,"Ġsurfaces":9017,"Ġpathological":9018,"Ĥ¬":9019,"ramycin":9020,"Ġadministr":9021,"Ġpeginterferon":9022,"ĠNegative":9023,"Ġfo":9024,"Ġtroponin":9025,"platelet":9026,"Ġcreatine":9027,"Ġescal":9028,"Ġpreceding":9029,"Ġanticoagulant":9030,"ĠSixteen":9031,"Ġnewborns":9032,"cognitive":9033,"Ġcarbonate":9034,"ĠSB":9035,"ĠMus":9036,"ĠWhether":9037,"Ġdermatitis":9038,"okinetic":9039,"ushes":9040,"ranolol":9041,"uro":9042,"Ġfresh":9043,"pread":9044,"Ġelements":9045,"sol":9046,"ĠTechn":9047,"ĠLVEF":9048,"iro":9049,"voflurane":9050,"Ġdeficit":9051,"CATED":9052,"Ġosteop":9053,"ifth":9054,"Ġhydroxy":9055,"Ġaminotransferase":9056,"ci":9057,"Ġventilated":9058,"ĠTRUN":9059,"ĠTRUNCATED":9060,"Ġgent":9061,"Ġdirec":9062,"ĠRepe":9063,"spectively":9064,"Ġunable":9065,"istry":9066,"Ġfrag":9067,"Ġpy":9068,"elior":9069,"Ġdepending":9070,"OX":9071,"score":9072,"Ġsymp":9073,"heless":9074,"Prospective":9075,"Ġinn":9076,"Ġbu":9077,"Ġallogeneic":9078,"Ġepilepsy":9079,"Ġtorque":9080,"termin":9081,"Ġtemporal":9082,"igmoid":9083,"uation":9084,"Ġplatinum":9085,"ĠNH":9086,"Ġdirection":9087,"Ġantipsychotics":9088,"assess":9089,"ĠVAP":9090,"ĠHSV":9091,"Ġlifetime":9092,"pregn":9093,"ostatic":9094,"Ġdosages":9095,"Ġaffective":9096,"ronutrient":9097,"ĠBur":9098,"Ġexamining":9099,"shop":9100,"amate":9101,"Ġexcision":9102,"Ġtitrated":9103,"Ġcurative":9104,"ornia":9105,"ĠReduction":9106,"Ã¯ve":9107,"Ġbases":9108,"Ġvasodil":9109,"CATION":9110,"orph":9111,"olipoprotein":9112,"anth":9113,"Ġscaling":9114,"etics":9115,"ouse":9116,"Ġsimulator":9117,"Ġhistological":9118,"aract":9119,"GE":9120,"MRI":9121,"ico":9122,"Ġprepared":9123,"Ġopin":9124,"Ġsoluble":9125,"Ġbiofeedback":9126,"uric":9127,"Ġappropri":9128,"Ġedent":9129,"Ġcomplicated":9130,"Ġdisturbance":9131,"Hu":9132,"arous":9133,"Ġdisturbances":9134,"ĠIncreased":9135,"ĠCalifornia":9136,"ĠNutrition":9137,"ĠWorld":9138,"apping":9139,"atum":9140,"Ġdisapp":9141,"esity":9142,"asmin":9143,"ĠWORDS":9144,"ached":9145,"Ġcytology":9146,"Ġhand":9147,"aint":9148,"ĠSide":9149,"Ġhydrocortisone":9150,"irom":9151,"Ġprespecified":9152,"ĠAims":9153,"Ġnatriuretic":9154,"Al":9155,"atology":9156,"urinol":9157,"ĠNAC":9158,"Ġshared":9159,"ĠÎĶ":9160,"ĠAdv":9161,"centre":9162,"ĠVitamin":9163,"Ġresident":9164,"Ġreinforce":9165,"Ġinjected":9166,"Ġreproductive":9167,"Ġnaproxen":9168,"Ġdetermining":9169,"idomide":9170,"Ġextracted":9171,"omponent":9172,"Ġrepresentative":9173,"Ġexception":9174,"Ġinhalation":9175,"Ġcav":9176,"Ġanticip":9177,"Ġneutral":9178,"Ġbac":9179,"ifentanil":9180,"ICAL":9181,"Ġvideot":9182,"Ġ114":9183,"Ġcomprising":9184,"Ġstatins":9185,"irolimus":9186,"odipine":9187,"urable":9188,"Ġinfl":9189,"Ġunlike":9190,"IL":9191,"Ġhomocysteine":9192,"Ġuncontrolled":9193,"trophy":9194,"Ġmethodology":9195,"Ġrituximab":9196,"Ġdeprivation":9197,"Ġsports":9198,"ĠKingdom":9199,"gu":9200,"Ġtrunk":9201,"Ġpanel":9202,"Ġmer":9203,"Ġcolony":9204,"formed":9205,"Ġmetabol":9206,"ĠDiagnostic":9207,"LQ":9208,"Ġstrept":9209,"Ġchol":9210,"Ġindometh":9211,"Ġappearance":9212,"idespread":9213,"Ġconjunction":9214,"Ġgiving":9215,"ocation":9216,"atisfaction":9217,"iphene":9218,"www":9219,"ĠDISCUS":9220,"ĠDISCUSSION":9221,"Ġos":9222,"ĠLi":9223,"Ġexpectations":9224,"transplant":9225,"Ġthin":9226,"Ġrestorations":9227,"Ġpioglitazone":9228,"Ġindomethacin":9229,"discharge":9230,"AM":9231,"otropic":9232,"Ġmicrobiological":9233,"Ġappointment":9234,"ĠCar":9235,"Ġangle":9236,"Ġcustom":9237,"ĠSwedish":9238,"Ġcarcin":9239,"Ġdepartments":9240,"ceptor":9241,"ĠHES":9242,"Ġradial":9243,"Ġpackage":9244,"burg":9245,"romy":9246,"ĠSex":9247,"Ġgive":9248,"asic":9249,"Ã©e":9250,"placebo":9251,"astim":9252,"Ġincons":9253,"Ġtracheal":9254,"ĠGuid":9255,"Ġheterogeneity":9256,"Ġhyster":9257,"acquired":9258,"Ġremote":9259,"unate":9260,"Ġcool":9261,"Ġfavourable":9262,"encephal":9263,"Ġsem":9264,"Ġdirected":9265,"ophys":9266,"Ġarthroscopic":9267,"hr":9268,"Ġimplementing":9269,"Ġshift":9270,"Ġequip":9271,"Ġile":9272,"ĠCohort":9273,"faceted":9274,"Ġcalled":9275,"ank":9276,"Ġformal":9277,"Ġallows":9278,"Ġeffusion":9279,"ĠDFS":9280,"riched":9281,"Ġdefects":9282,"Ġ126":9283,"Ġbot":9284,"Ġamelior":9285,"ĠFisher":9286,"Randomised":9287,"ĠDASH":9288,"Ġlocated":9289,"Ġamphotericin":9290,"metic":9291,"ĠMann":9292,"lipidemia":9293,"iral":9294,"Ġmeat":9295,"Ġmyeloma":9296,"Ġbid":9297,"ficial":9298,"itney":9299,"Ġfinancial":9300,"Ġmelatonin":9301,"ĠBo":9302,"olume":9303,"Ġbis":9304,"Ġepoetin":9305,"125":9306,"ĠTAU":9307,"Ġseeking":9308,"Ġhamstring":9309,"Ġaprotinin":9310,"abling":9311,"Ġpathogens":9312,"ĠECG":9313,"ĠFunded":9314,"Ġartem":9315,"Ġ116":9316,"Ġverified":9317,"Ġvulner":9318,"femoral":9319,"Ġpor":9320,"atation":9321,"ĠSH":9322,"Ġ115":9323,"umber":9324,"Ġvarying":9325,"iliter":9326,"Ġintact":9327,"epir":9328,"Ġbiomarker":9329,"verages":9330,"Ġengagement":9331,"Ġsegment":9332,"1000":9333,"agers":9334,"ĠSevere":9335,"ĠCross":9336,"ĠSRP":9337,"traction":9338,"vix":9339,"Ġparameter":9340,"immun":9341,"Ġunivers":9342,"Ġserial":9343,"Ġvariations":9344,"Ġdexmedetomidine":9345,"ĠImprovements":9346,"ĠReport":9347,"Ġstom":9348,"uconazole":9349,"Ġtram":9350,"range":9351,"Ġpolymer":9352,"Ġcontribution":9353,"gens":9354,"Ġgreen":9355,"Ġadhesion":9356,"ferential":9357,"odiazep":9358,"rint":9359,"Ġsuffered":9360,"Ġwrist":9361,"apagliflozin":9362,"ĠFigure":9363,"oxon":9364,"Ġvaluable":9365,"ĠProfile":9366,"aign":9367,"orary":9368,"ĠMMF":9369,"peak":9370,"Ġincentives":9371,"olds":9372,"ĠSO":9373,"Ġenrol":9374,"Ġabstinent":9375,"bu":9376,"peridol":9377,"Ġstones":9378,"Ġprevents":9379,"abis":9380,"Ġdesigned":9381,"Ġrestoration":9382,"ffee":9383,"Ġvertical":9384,"ĠVi":9385,"Ġintense":9386,"Ġunres":9387,"Ġceftazidime":9388,"Ġscen":9389,"ĠHere":9390,"ĠMulticenter":9391,"school":9392,"ĠCsA":9393,"Ġ111":9394,"Ġconsiderably":9395,"Ġpenicillin":9396,"ĠTheir":9397,"Ġpostal":9398,"ĠImpl":9399,"Ġcorrelate":9400,"Ġchemoradiotherapy":9401,"ystal":9402,"Ġinfiltration":9403,"ĠCooperative":9404,"ĠFamily":9405,"vo":9406,"ĠAff":9407,"iciently":9408,"ĠâĤ¬":9409,"opramide":9410,"otide":9411,"Ġpen":9412,"otom":9413,"inyl":9414,"Ġta":9415,"Ġreaching":9416,"ads":9417,"Ġspecies":9418,"ĠStage":9419,"LICATION":9420,"Ġvessel":9421,"DF":9422,"Trial":9423,"WT":9424,"Ġquestionnaire":9425,"Ġresulted":9426,"0005":9427,"ĠTum":9428,"Ġ124":9429,"Ġpreservation":9430,"def":9431,"atran":9432,"Ġgut":9433,"ĠRBC":9434,"ASI":9435,"Ġaneurysm":9436,"Ġinner":9437,"coated":9438,"Ġprefrontal":9439,"Ġfel":9440,"Ġexer":9441,"Ġ118":9442,"idermal":9443,"Ġprolapse":9444,"noea":9445,"BSR":9446,"xia":9447,"Ġincidences":9448,"iprazole":9449,"Ġbirths":9450,"ĠFem":9451,"Ġlimitation":9452,"Ġnarrow":9453,"Ġretained":9454,"ĠParents":9455,"ĠEs":9456,"ocused":9457,"ĠCommittee":9458,"Ġinternet":9459,"Ġvancomycin":9460,"agia":9461,"ĠGM":9462,"ĠPulmonary":9463,"Ġbeverages":9464,"abapent":9465,"0002":9466,"Ġpromise":9467,"behavi":9468,"Ġcomplementary":9469,"Ġcontributed":9470,"oclopramide":9471,"astern":9472,"Ġspace":9473,"Ġwebsite":9474,"Ġphysio":9475,"BNP":9476,"ĠAm":9477,"Ġpremenopausal":9478,"Ġfluorouracil":9479,"Ġfluticasone":9480,"ĠÂµ":9481,"Ġphosphorus":9482,"ilical":9483,"stimulating":9484,"segment":9485,"Ġscar":9486,"Ġpravastatin":9487,"Ġotherwise":9488,"ioblastoma":9489,"uinal":9490,"Ġencourage":9491,"Ġmast":9492,"ĠClinic":9493,"estry":9494,"abapentin":9495,"Does":9496,"ĠUN":9497,"Ġdistant":9498,"Ġextubation":9499,"Ġoncology":9500,"ĠImmun":9501,"advant":9502,"ĠStudents":9503,"Ġscientific":9504,"opurinol":9505,"Ġfollowup":9506,"omycin":9507,"Ġhs":9508,"ero":9509,"eds":9510,"Ġdistinct":9511,"fir":9512,"Ġregularly":9513,"Ġretrospectively":9514,"Ġrs":9515,"umption":9516,"Ġaspart":9517,"Ġthereby":9518,"Ġpredicts":9519,"swestry":9520,"esthe":9521,"Ġconc":9522,"Ġcry":9523,"Ġcataract":9524,"opia":9525,"opulation":9526,"Ġhypn":9527,"Ġdisplayed":9528,"ĠFood":9529,"Ġmulticomponent":9530,"Ã¶":9531,"Ġtin":9532,"Ġwr":9533,"Ġtransport":9534,"ere":9535,"ĠMex":9536,"Ġcolonic":9537,"ione":9538,"Ġpropranolol":9539,"Ġketorolac":9540,"Reduc":9541,"abdominal":9542,"Ġperfor":9543,"Ġ135":9544,"ĠKeny":9545,"CBT":9546,"Ġcelecoxib":9547,"Ġconsidering":9548,"ĠLactobacillus":9549,"ĠProp":9550,"Ġrose":9551,"Ġsupervision":9552,"Ħ¢":9553,"rend":9554,"ĠAdult":9555,"menorrhea":9556,"ĠDisorders":9557,"Rs":9558,"Ġobserver":9559,"Ġsplit":9560,"anasal":9561,"heses":9562,"ĠElderly":9563,"ĠTele":9564,"isure":9565,"ĠOswestry":9566,"Ġartif":9567,"Ġ/=":9568,"asmodium":9569,"xin":9570,"Ġwidespread":9571,"ĠPri":9572,"generative":9573,"Ġtitration":9574,"vitamin":9575,"ĠFMD":9576,"acycline":9577,"Ġbronchial":9578,"Ġdetectable":9579,"sup":9580,"ocular":9581,"atform":9582,"rition":9583,"Ġmol":9584,"osus":9585,"chron":9586,"ĠEighteen":9587,"arox":9588,"Ġamino":9589,"ĠIndividuals":9590,"adox":9591,"Ġexpensive":9592,"acing":9593,"Ġtrain":9594,"Ġpresents":9595,"Ġincentive":9596,"athetic":9597,"Ġamy":9598,"ulsive":9599,"Ġ.<":9600,"Ġappend":9601,"ĠGT":9602,"Ġintentions":9603,"Ġheroin":9604,"ifed":9605,"ĠGH":9606,"Ġcirculation":9607,"ĠMedicare":9608,"Health":9609,"tiometry":9610,"ĠNet":9611,"Ġraised":9612,"Ġvillages":9613,"Do":9614,"Ġcervix":9615,"atase":9616,"Ġroute":9617,"ORTC":9618,"mias":9619,"opressin":9620,"ĠSuch":9621,"Ġcep":9622,"Ġpredefined":9623,"Ġreflected":9624,"Ġstrains":9625,"rosp":9626,"Ġaspiration":9627,"Ġavoidance":9628,"ĠPONV":9629,"Ġheel":9630,"olytic":9631,"Ġble":9632,"Ġ123":9633,"Ġdevelopmental":9634,"Ġapolipoprotein":9635,"Ġestimating":9636,"ĠCLIN":9637,"Ġirritable":9638,"Ġbattery":9639,"illa":9640,"avage":9641,"Ġcontraction":9642,"Ġquantif":9643,"zed":9644,"Ġfifth":9645,"iraglutide":9646,"Ġoccasions":9647,"Ġnoninvasive":9648,"Ġcolpos":9649,"Ġcontinuously":9650,"Ġinserted":9651,"Ġhypoglycaemia":9652,"personal":9653,"ĠFactors":9654,"Ġnmol":9655,"Ġhealed":9656,"ĠUnder":9657,"Ġpam":9658,"Ġreplic":9659,"Ġlessons":9660,"Ġbarrier":9661,"Ġsimultaneously":9662,"ĠAch":9663,"Ġedentulous":9664,"Ġsupine":9665,"Ġspr":9666,"Ġrecording":9667,"BD":9668,"Ġ128":9669,"Ġreflex":9670,"orptiometry":9671,"planned":9672,"Ġdisadvant":9673,"Ġswelling":9674,"orespiratory":9675,"rant":9676,"Ġquick":9677,"Ġworkshop":9678,"ĠEleven":9679,"ĠDex":9680,"Ġdrinkers":9681,"essary":9682,"(+":9683,"Ġtol":9684,"Ġ122":9685,"avail":9686,"Ġadvoc":9687,"Ġdiscrep":9688,"ĠUSA":9689,"ĠService":9690,"osal":9691,"Ġrationale":9692,"oprol":9693,"ĠContinuous":9694,"analyses":9695,"CRP":9696,"ows":9697,"rench":9698,"ĠMid":9699,"Ġdysplasia":9700,"omon":9701,"tonic":9702,"Ġalways":9703,"Ġnonspecific":9704,"Ġproduces":9705,"aparo":9706,"wan":9707,"medication":9708,"ĠPlasmodium":9709,"ĠElec":9710,"Ġtramadol":9711,"ĠTVT":9712,"Ġrepl":9713,"ĠPED":9714,"Ġmanifest":9715,"imb":9716,"Ġcalcit":9717,"Ġsegments":9718,"helium":9719,"Ġeccentric":9720,"high":9721,"Ġsoon":9722,"ripiprazole":9723,"ifedipine":9724,"odg":9725,"Ġ121":9726,"Ġ119":9727,"Ġwithdrew":9728,"cycline":9729,"RR":9730,"Ġfist":9731,"optimal":9732,"tigr":9733,"Ġheld":9734,"ĠCLINICAL":9735,"Ws":9736,"Ġleaf":9737,"ĠComplete":9738,"Ġprincipal":9739,"MIT":9740,"Ġstructural":9741,"ĠHAM":9742,"idge":9743,"dine":9744,"ĠEth":9745,"AB":9746,"ologies":9747,"Ġenhances":9748,"NC":9749,"Ġblinding":9750,"Ġencouraging":9751,"Ġcomorbidities":9752,"ĠInitial":9753,"Ġdiaries":9754,"odgkin":9755,"udden":9756,"otensive":9757,"Ġcaloric":9758,"Ġabsorptiometry":9759,"Ġpsychoeduc":9760,"ecitabine":9761,"Ġef":9762,"Ġforward":9763,"acial":9764,"Ġrule":9765,"Ġgrowing":9766,"Ġdemonstrating":9767,"epsia":9768,"Ġmask":9769,"Ġsickness":9770,"Ġspectrum":9771,"Ġapplications":9772,"Med":9773,"osine":9774,"ĠCheck":9775,"ĠPediatric":9776,"centered":9777,"Blind":9778,"zid":9779,"Ġformat":9780,"Ġincorporated":9781,"oprophylaxis":9782,"Ġeighty":9783,"Ġhaemodynamic":9784,"Ġfollicular":9785,"Ġpercentages":9786,"Ġsuicidal":9787,"Ġworldwide":9788,"Rel":9789,"Ġker":9790,"Ġleuc":9791,"ught":9792,"ĠVal":9793,"ĠEuro":9794,"ept":9795,"ylc":9796,"Ġcured":9797,"Ġrecognized":9798,"LD":9799,"ĠCombined":9800,"person":9801,"ycardia":9802,"ĠIOL":9803,"acillin":9804,"aped":9805,"ĠNHS":9806,"Ġcontinuation":9807,"ĠIgE":9808,"Mental":9809,"abalin":9810,"ĠExperimental":9811,"iotomy":9812,"Ġgeneration":9813,"aden":9814,"phase":9815,"Ġborderline":9816,"Ġ131":9817,"023":9818,"Ġsubcutaneously":9819,"ils":9820,"Ġsuperficial":9821,"ĠDys":9822,"Ġresolved":9823,"itional":9824,"icillin":9825,"ĠMBSR":9826,"ĠEmerg":9827,"agic":9828,"Ġadjacent":9829,"ependence":9830,"umatriptan":9831,"Ġclomiphene":9832,"molecular":9833,"Ġcerebrovascular":9834,"ĠPGE":9835,"Ġthrombocytopenia":9836,"Ġerythrocy":9837,"Ġphysiologic":9838,"asticity":9839,"Ġact":9840,"Ġstimulus":9841,"Ġelimination":9842,"ania":9843,"Ġdisrup":9844,"att":9845,"ĠPap":9846,"ĠDet":9847,"Ġpreparations":9848,"ĠNE":9849,"Ġillnesses":9850,"iliated":9851,"Ġconflict":9852,"%.":9853,"ĠGER":9854,"Ġfolate":9855,"Ġendogenous":9856,"Ġexperts":9857,"Ġpaediatric":9858,"Ġsac":9859,"Ġdiss":9860,"Ġcoffee":9861,"Ġpathologic":9862,"Ġepidemiological":9863,"Ġdiscl":9864,"Ġnested":9865,"adherence":9866,"Ġquasi":9867,"Ġcontral":9868,"Ġencouraged":9869,"Ġalveolar":9870,"ĠKore":9871,"Ġurod":9872,"Ġcapsule":9873,"Ġvigorous":9874,"ĠMic":9875,"ĠRo":9876,"Ġcompares":9877,"Ġurea":9878,"Ġimmuno":9879,"loroquine":9880,"Ġword":9881,"Ġopportunity":9882,"MO":9883,"ĠSal":9884,"ĠBA":9885,"Ġservings":9886,"aind":9887,"Ġsurrog":9888,"Ġways":9889,"Ġbenzodiazep":9890,"IFN":9891,"Ġsevoflurane":9892,"Ġcodeine":9893,"roat":9894,"ceived":9895,"affected":9896,"Ġantiemetic":9897,"Ġmom":9898,"oxazole":9899,"Ġfrequencies":9900,"selves":9901,"Ġstrict":9902,"ĠSEM":9903,"ĠAffairs":9904,"esophageal":9905,"Ġkappa":9906,"romyalgia":9907,"lamydia":9908,"ĠPAC":9909,"Ġconsideration":9910,"ĠIll":9911,"umbilical":9912,"ĠIMPLICATION":9913,"Ġwid":9914,"riend":9915,"Ġseventy":9916,"Ġtissues":9917,"ĠTO":9918,"Ġtrigger":9919,"converting":9920,"Ġmedically":9921,"ĠALT":9922,"fil":9923,"releasing":9924,"Ġriv":9925,"Ġtumours":9926,"Ġti":9927,"ĠSupport":9928,"Ġconver":9929,"PR":9930,"coxon":9931,"oa":9932,"Ġ113":9933,"Ġmeetings":9934,"Ġweakness":9935,"Ġpractices":9936,"Ġunfav":9937,"olimus":9938,"actin":9939,"ramidal":9940,"ypro":9941,"Ġpharmacologic":9942,"Ġoxygenation":9943,"bine":9944,"aten":9945,"olid":9946,"Ġglioblastoma":9947,"ĠCaro":9948,"ĠPCR":9949,"ĠArm":9950,"Ġtach":9951,"Ġcarry":9952,"Ġprosthesis":9953,"Ġaccelerated":9954,"Ġalbendazole":9955,"cons":9956,"icients":9957,"NO":9958,"Ġtender":9959,"Ġfocusing":9960,"ĠFourteen":9961,"Ġcontralateral":9962,"gel":9963,"anib":9964,"ields":9965,"Ġauthor":9966,"eteen":9967,"TC":9968,"tingu":9969,"Ġidentifier":9970,"Ġthemselves":9971,"Ġappraisal":9972,"Ġextrac":9973,"Ġapnea":9974,"clusal":9975,"ĠÃ©tÃ©":9976,"Ġresorption":9977,"ĠOx":9978,"Ġnitric":9979,"],":9980,"Ġexchange":9981,"Ġimipramine":9982,"Ġmalignancy":9983,"assessed":9984,"En":9985,"avirus":9986,"Ġphysiotherap":9987,"Ġoverdent":9988,"Ġsemi":9989,"ĠStrength":9990,"Ġendocrine":9991,"Ġtwelve":9992,"onylurea":9993,"omib":9994,"ĠExper":9995,"Ġthreat":9996,"ulan":9997,"Ġcolor":9998,"Ġcorrelates":9999,"Ġpneumoniae":10000,"Ġcity":10001,"Ġfeel":10002,"fin":10003,"Ġlith":10004,"Ġlosses":10005,"bar":10006,"gabalin":10007,"Ġms":10008,"antel":10009,"Ġclosely":10010,"Ġegg":10011,"ĠLogistic":10012,"renz":10013,"ĠMEDL":10014,"ĠLF":10015,"oclonal":10016,"pub":10017,"Ġove":10018,"Ġplatform":10019,"mouth":10020,"Ġinjured":10021,"Ġ133":10022,"Ġchewing":10023,"Ġdetermination":10024,"olysis":10025,"Ġineffective":10026,"Ġdelivering":10027,"Ġstrongest":10028,"Ġparasit":10029,"ĠFM":10030,"velamer":10031,"epiride":10032,"ĠDI":10033,"Ġdistingu":10034,"Ġgenes":10035,"ĠNSAIDs":10036,"ĠDHA":10037,"ĠThrom":10038,"Ġindicator":10039,"Ġdissemination":10040,"ĠEven":10041,"ĠLR":10042,"Ġmaln":10043,"Ġmgr":10044,"Ġserve":10045,"Ġmacular":10046,"Ġanastomosis":10047,"tel":10048,"Ġforearm":10049,"Early":10050,"ptives":10051,"ĠHRT":10052,"oural":10053,"010":10054,"avulan":10055,"children":10056,"ĠLMWH":10057,"onor":10058,"ley":10059,"unch":10060,"odemographic":10061,"Ġresidential":10062,"ĠOpen":10063,"Ġbinge":10064,"ĠWBV":10065,"Ġnegl":10066,"ĠCYP":10067,"sequently":10068,"Ġbrachial":10069,"Ġfair":10070,"orotic":10071,"gesia":10072,"Ġincrement":10073,"Ġcutoff":10074,"inosa":10075,"ametric":10076,"Ġarch":10077,"Ġpatches":10078,"ĠFrench":10079,"ĠLL":10080,"Ġabdom":10081,"Ġtherapists":10082,"ethnic":10083,"Ġbeverage":10084,"Ġori":10085,"Ġrehospital":10086,"Ġexceeded":10087,"odopa":10088,"ĠBDI":10089,"ressings":10090,"Ġautonomic":10091,"Ġleakage":10092,"ĠBNP":10093,"rolizumab":10094,"Ġnormotensive":10095,"Ġerythromycin":10096,"ĠAut":10097,"Ġannually":10098,"Ġsituations":10099,"Ġuncertainty":10100,"ĠUrinary":10101,"Ġmediators":10102,"Ġgentamicin":10103,"diagn":10104,"long":10105,"Ġvisited":10106,"Ġmetoclopramide":10107,"oracic":10108,"ĠFPG":10109,"ĠPEDro":10110,"leb":10111,"LLED":10112,"Ġrigorous":10113,"Ġimmunization":10114,"ritin":10115,"wave":10116,"Ġsilver":10117,"ĠDem":10118,"Ġ132":10119,"oidectomy":10120,"axine":10121,"Ġfibre":10122,"laf":10123,"Ġalive":10124,"ĠWilcoxon":10125,"Ġrop":10126,"Ġrelapses":10127,"Use":10128,"Ġdans":10129,"ĠeGFR":10130,"odenal":10131,"Ġrenin":10132,"lafaxine":10133,"focused":10134,"Ġwithdrawn":10135,"lovir":10136,"venteen":10137,"ĠFrance":10138,"ropractic":10139,"inergic":10140,"Ġhrs":10141,"ĠEPO":10142,"embrolizumab":10143,"ĠMEDLINE":10144,"Ġcoefficients":10145,"Ġoocytes":10146,"Ġcountry":10147,"ĠComputer":10148,"Ġletters":10149,"Ġuter":10150,"ĠSTI":10151,"Ġabilities":10152,"experimental":10153,"Ġflap":10154,"ĠPeri":10155,"Ġcys":10156,"Ġfluconazole":10157,"ĠCAP":10158,"go":10159,"rim":10160,"ĠUs":10161,"Ġspirom":10162,"acterial":10163,"Ġcos":10164,"Ġdia":10165,"Ġmeditation":10166,"Ġdroperidol":10167,"Ġhaemorrhage":10168,"Ġantiplatelet":10169,"Ġventilatory":10170,"Ġfootball":10171,"Ġunlikely":10172,"ĠCAL":10173,"ĠSensitivity":10174,"Ġ=.":10175,"Ġharms":10176,"ĠLIMIT":10177,"pes":10178,"obese":10179,"ĠRepeated":10180,"aid":10181,"ĠBay":10182,"uncil":10183,"ĠTACE":10184,"Ġexcluding":10185,"ĠChar":10186,"Ġtobramycin":10187,"regulation":10188,"Ġarteries":10189,"Ġpancreatitis":10190,"Ġpolymorphisms":10191,"apyramidal":10192,"Ġnutrient":10193,"Ġdyspepsia":10194,"Ġcorrectly":10195,"arte":10196,"aves":10197,"Ġhydr":10198,"Ġachievement":10199,"Ġradiological":10200,"Ġcellular":10201,"Ġaerug":10202,"SC":10203,"phys":10204,"Ġunde":10205,"Ġreceptors":10206,"anium":10207,"arone":10208,"rectile":10209,"ofovir":10210,"Ġ2015":10211,"Ġexpectant":10212,"Ġatrophy":10213,"orable":10214,"Ġpreconditioning":10215,"grastim":10216,"Ġpopular":10217,"Ġmatter":10218,"Ġemerged":10219,"ĠPilot":10220,"Ġgrass":10221,"orte":10222,"olomide":10223,"took":10224,"chemic":10225,"ĠHAART":10226,"Ġaeruginosa":10227,"uate":10228,"erved":10229,"Ġdoxy":10230,"Ġ117":10231,"Ġhematologic":10232,"BA":10233,"Ġnonsteroidal":10234,"Ġconducting":10235,"ĠPCT":10236,"Ġolig":10237,"Ġremifentanil":10238,"ĠCMV":10239,"ĠTer":10240,"ĠDen":10241,"Ġvirological":10242,"ĠIntravenous":10243,"Ġneoplasia":10244,"Whitney":10245,"ĠLIMITATION":10246,"Ġnail":10247,"Ġoxal":10248,"Ġdiminished":10249,"Ġknees":10250,"Ġdoxycycline":10251,"ectasis":10252,"urg":10253,"Ġcran":10254,"Ġappointments":10255,"uccessful":10256,"ĠIndian":10257,"ylcysteine":10258,"zomib":10259,"Ġoccult":10260,"Ġincorporating":10261,"ky":10262,"Ġthroat":10263,"PAR":10264,"Ġpreserved":10265,"Prevention":10266,"eAg":10267,"iminary":10268,"ĠPopulation":10269,"operatively":10270,"reliminary":10271,"Ġunrelated":10272,"ĠRP":10273,"opherol":10274,"Ġjob":10275,"ĠPEG":10276,"tification":10277,"Ġartificial":10278,"asc":10279,"Ġlob":10280,"ifestyle":10281,"Ġundertook":10282,"placement":10283,"Ġnervous":10284,"lig":10285,"Ġwww":10286,"Ġseparated":10287,"wh":10288,"amip":10289,"tesunate":10290,"Ġmalignancies":10291,"Ġpara":10292,"Ġposttraumatic":10293,"Ġinadequately":10294,"Ġglim":10295,"gression":10296,"itated":10297,"thrombotic":10298,"uthern":10299,"iform":10300,"Ġcontraceptives":10301,"ĠAlcohol":10302,"Ġmicrovascular":10303,"Ġdressings":10304,"Ġcarers":10305,"Ġfluids":10306,"MR":10307,"QOL":10308,"ĠSTE":10309,"Ġaddressing":10310,"rad":10311,"ĠPoly":10312,"Ġplasmin":10313,"Ġcampaign":10314,"nitine":10315,"tailored":10316,"Ġiv":10317,"Ġreceiver":10318,"ĠVEGF":10319,"protected":10320,"Ġcolitis":10321,"Ġmultifaceted":10322,"Ġmicroalbuminuria":10323,"Ġmonoclonal":10324,"ĠBehavioral":10325,"Ġurgent":10326,"Ġprogressed":10327,"ĠAntib":10328,"Ġmach":10329,"Ġadaptation":10330,"ega":10331,"Ġcotinine":10332,"ener":10333,"Ġfiss":10334,"itidine":10335,"ĠIPT":10336,"ĠLabor":10337,"avirenz":10338,"Ġbelieved":10339,"ried":10340,"ĠNY":10341,"ĠKR":10342,"Ġsmear":10343,"NB":10344,"VB":10345,"Ġ127":10346,"FSH":10347,"Ġportal":10348,"aquine":10349,"ou":10350,"esting":10351,"ĠEORTC":10352,"Ġattrition":10353,"Ġpatency":10354,"cost":10355,"ĠADHD":10356,"urethral":10357,"Ġneur":10358,"ecutively":10359,"Ġfelt":10360,"Ġinhibitory":10361,"Ġattitude":10362,"Ġnitrogen":10363,"aec":10364,"Ġtranscutaneous":10365,"021":10366,"Ġinitiating":10367,"ĠLiving":10368,"Ġmodif":10369,"echanical":10370,"Ġsigmoid":10371,"Ġ1986":10372,"Ġcardiorespiratory":10373,"Ġinvestigating":10374,"Ġneurole":10375,"glycer":10376,"omical":10377,"Ġdilation":10378,"Ġnort":10379,"Ġrats":10380,"Ġcoaching":10381,"026":10382,"Ġprobable":10383,"lass":10384,"Ġpounds":10385,"ionate":10386,"ĠUTI":10387,"ĠArth":10388,"pinephrine":10389,"ĠAverage":10390,"027":10391,"Ġexplicit":10392,"ĠSLIT":10393,"junc":10394,"Ġsib":10395,"alls":10396,"ĠcT":10397,"Ġstocking":10398,"ondon":10399,"ĠâĦ¢":10400,"Ġtypically":10401,"Ġappli":10402,"Ġcalculate":10403,"ĠHist":10404,"Ġstrokes":10405,"ĠSTD":10406,"Ġblocker":10407,"ĠCouncil":10408,"ifep":10409,"ĠPPI":10410,"Ġrepresenting":10411,"Ġworkplace":10412,"ristone":10413,"Ġestimation":10414,"ifepristone":10415,"Ġtem":10416,"Ġcutaneous":10417,"Ġput":10418,"Ġglimepiride":10419,"Ġchron":10420,"opaedic":10421,"Ġinnov":10422,"otroph":10423,"Ġmodify":10424,"Inc":10425,"Ġaccurately":10426,"block":10427,"Ġleisure":10428,"ĠWork":10429,"028":10430,"itization":10431,"AG":10432,"poc":10433,"Ġesc":10434,"Ġcategorized":10435,"trozole":10436,"Ġomega":10437,"ystolic":10438,"Ġmeasurable":10439,"Ġ144":10440,"Ġpersonality":10441,"Ã³n":10442,"theless":10443,"Ġoint":10444,"idel":10445,"ĠRadi":10446,"ypt":10447,"Ġalternate":10448,"Ġferritin":10449,"Ġethnicity":10450,"Ġhyperglycemia":10451,"Ġnifedipine":10452,"Ġinterference":10453,"ansion":10454,"gesterone":10455,"Ġminimize":10456,"Ġmixture":10457,"ĠHuman":10458,"Ġsaliva":10459,"Ġcapecitabine":10460,"Ġglycated":10461,"Ġsudden":10462,"Ġdysph":10463,"Ġaddi":10464,"ĠApproximately":10465,"carb":10466,"ony":10467,"ict":10468,"ĠPTH":10469,"Ġ134":10470,"ĠObesity":10471,"ĠEffectiveness":10472,"Ġreferrals":10473,"umatic":10474,"Ġquarter":10475,"ĠSpanish":10476,"Ġglycos":10477,"022":10478,"Ġanaesthetic":10479,"Ġadoption":10480,"Ġpurch":10481,"Man":10482,"Ġstopping":10483,"ĠFewer":10484,"Ġrhythm":10485,"ĠAAA":10486,"Ġsimpl":10487,"Ġmastectomy":10488,"pocamp":10489,"Ġperineal":10490,"Ġconsecutively":10491,"self":10492,"ĠACR":10493,"Ġfungal":10494,"abolic":10495,"teem":10496,"ĠLOS":10497,"ĠICC":10498,"Ġinstitutions":10499,"rac":10500,"Ġneigh":10501,"Ġcover":10502,"ervised":10503,"ĠCombination":10504,"Ġprompt":10505,"Ns":10506,"Re":10507,"dyl":10508,"ether":10509,"Ġenough":10510,"Ġhistor":10511,"metry":10512,"Ġcetuximab":10513,"Ġweights":10514,"Ġwashing":10515,"ĠAG":10516,"Ġarri":10517,"Ġloaded":10518,"Ġalcoholic":10519,"Ġallopurinol":10520,"Ġcrystal":10521,"Ġagitation":10522,"oprot":10523,"Ġurodynamic":10524,"ucas":10525,"Ġurge":10526,"Ġimmunoglobulin":10527,"Ġglucocortic":10528,"Ġgonadotropin":10529,"ĠSan":10530,"ĠLip":10531,"ĠLondon":10532,"Ġsymptomatology":10533,"upported":10534,"Ġpanic":10535,"Ġcannabis":10536,"Ġactions":10537,"Ġardised":10538,"chanter":10539,"ĠRegister":10540,"ĠStrateg":10541,"Ġsinusitis":10542,"Ġvisceral":10543,"zer":10544,"onitis":10545,"ĠWL":10546,"045":10547,"Ġpathways":10548,"bor":10549,"Ġalk":10550,"Ġont":10551,"Ġequation":10552,"Ġviable":10553,"Ġswitched":10554,"oprolol":10555,"Ġdenti":10556,"uptake":10557,"ĠBE":10558,"Ġmultimodal":10559,"Ġpolycystic":10560,"Ġinguinal":10561,"ĠPressure":10562,"ĠMar":10563,"Ġprostheses":10564,"Ġcontractions":10565,"Ġdeliveries":10566,"cription":10567,"Ġunresectable":10568,"arterectomy":10569,"Ġelementary":10570,"ĠMuscle":10571,"WL":10572,"mide":10573,"Ġpersistence":10574,"Predic":10575,"home":10576,"Ġequations":10577,"Ġconditioning":10578,"Ġactivator":10579,"Ġamplitude":10580,"athiop":10581,"ĠMel":10582,"ographically":10583,"Ġprostatic":10584,"oniazid":10585,"Ġfacilitated":10586,"ĠPeople":10587,"ĠNPH":10588,"osol":10589,"ĠOper":10590,"ferent":10591,"ĠImplication":10592,"Ġprote":10593,"Ġsubjected":10594,"ĠContro":10595,"cophen":10596,"ĠStudent":10597,"Ġmucosa":10598,"ozolomide":10599,"Ġextremely":10600,"ĠContr":10601,"lindamycin":10602,"Ġpropri":10603,"Ġhypoxia":10604,"iplatin":10605,"ĠDemographic":10606,"abled":10607,"Ġschedules":10608,"athioprine":10609,"zema":10610,"kinesia":10611,"Ġmonoxide":10612,"ĠRehabilitation":10613,"wards":10614,"tivitis":10615,"ĠAnalog":10616,"yrid":10617,"ĠESRD":10618,"Ġpersonalized":10619,"Ġreinforcement":10620,"ĠHal":10621,"ĠGC":10622,"Ġâ©":10623,"Ġdecompression":10624,"Ġresin":10625,"024":10626,"Ġbecom":10627,"ĠTAC":10628,"otonic":10629,"Ġletrozole":10630,"Ġcontacted":10631,"035":10632,"ĠHRV":10633,"Ġattempted":10634,"liter":10635,"FP":10636,"Ġsumatriptan":10637,"alk":10638,"idents":10639,"Ġrash":10640,"Ġallograft":10641,"overn":10642,"ĠEstim":10643,"olization":10644,"Ġ145":10645,"ĠNumber":10646,"comp":10647,"Ġally":10648,"azard":10649,"icted":10650,"Ġcontraind":10651,"Ġstrengthening":10652,"protein":10653,"ĠBIS":10654,"ĠInjury":10655,"Ġ129":10656,"Ġpolymorphism":10657,"Cost":10658,"Ġsole":10659,"ibrill":10660,"ortezomib":10661,"Ġlevodopa":10662,"Ġpowder":10663,"loss":10664,"infection":10665,"mas":10666,"ĠÂ©":10667,"ĠNeon":10668,"ĠRan":10669,"Ġintim":10670,"Ġdebr":10671,"Ġschoolchildren":10672,"clusively":10673,"Ġseasonal":10674,"enhanced":10675,"Ġ:<":10676,"Ġmodifications":10677,"ĠStatus":10678,"iquet":10679,"Ġstimulated":10680,"Ġutilized":10681,"Ġfavoring":10682,"ĠTKA":10683,"Ġimm":10684,"Ġexamines":10685,"cript":10686,"Ġquintile":10687,"Ġcommittee":10688,"Ġconsuming":10689,"Ġbinding":10690,"Ġtaught":10691,"hyp":10692,"Ġrifamp":10693,"emp":10694,"smokers":10695,"ĠLittle":10696,"ĠCentral":10697,"Ġsummar":10698,"ĠÏĩ":10699,"angl":10700,"Ġhypertonic":10701,"Ġdropout":10702,"Ġetiology":10703,"Ġselect":10704,"Ġ148":10705,"Ġglass":10706,"Ġsociodemographic":10707,"SP":10708,"opedic":10709,"Ġointment":10710,"tiviral":10711,"PSS":10712,"Ġ1989":10713,"Ġopinion":10714,"ĠOUTCOMES":10715,"aparotomy":10716,"rozen":10717,"Ġlymphocyte":10718,"Ġsurveyed":10719,"ĠBraz":10720,"ĠThirteen":10721,"Ġpiper":10722,"tering":10723,"Ġliraglutide":10724,"oreal":10725,"Ġpropionate":10726,"Ġcreated":10727,"outs":10728,"Ġsensation":10729,"ĠMAP":10730,"oprofen":10731,"ĠSystematic":10732,"ĠCriter":10733,"tri":10734,"ĠTV":10735,"Ġdegenerative":10736,"ylate":10737,"Ġsteady":10738,"Ġdapagliflozin":10739,"Ġ136":10740,"Ġcolle":10741,"Ġquantified":10742,"Ġaripiprazole":10743,"ĠDef":10744,"xime":10745,"Ġaids":10746,"Ġgabapentin":10747,"ĠPrior":10748,"ĠIMT":10749,"Ġsubacute":10750,"opause":10751,"Ġveter":10752,"Ġ137":10753,"ciximab":10754,"ont":10755,"kinase":10756,"Ġwillingness":10757,"bearing":10758,"arcom":10759,"Ġinterventional":10760,"Ġepidermal":10761,"Ġhypercholesterolemia":10762,"ĠLower":10763,"Ġapply":10764,"ĠMaternal":10765,"Ġdispens":10766,"tigmine":10767,"ann":10768,"Ġling":10769,"Ġgli":10770,"Ġcostly":10771,"ĠStatistically":10772,"tations":10773,"tosis":10774,"ashes":10775,"Ġscal":10776,"Ġpleural":10777,"berg":10778,"Ġtonsillectomy":10779,"ids":10780,"Ġreadiness":10781,"Ġcoordination":10782,"Ġaging":10783,"Ġsling":10784,"ummy":10785,"ĠCity":10786,"Ġsuboptimal":10787,"Ġureteral":10788,"Ġmouthrin":10789,"ĠNurses":10790,"bundle":10791,"Ġnation":10792,"Ġimmob":10793,"Ġpatellar":10794,"Ġisoniazid":10795,"times":10796,"Ġformulations":10797,"ĠHBeAg":10798,"weetened":10799,"Ġninety":10800,"Ġtted":10801,"allow":10802,"medicine":10803,"osinophil":10804,"fractionated":10805,"vage":10806,"ĠMyocardial":10807,"NI":10808,"eck":10809,"ĠGreat":10810,"ĠUnit":10811,"fed":10812,"ĠDP":10813,"iazide":10814,"Ġovary":10815,"idelity":10816,"Ġlep":10817,"Ġmultis":10818,"respons":10819,"ĠFib":10820,"Ġsevelamer":10821,"ĠCIs":10822,"etitive":10823,"Ġreversible":10824,"Ġtitanium":10825,"ĠRecom":10826,"foot":10827,"curs":10828,"Ġmicromol":10829,"flex":10830,"Ġlis":10831,"Ġemotion":10832,"Ġisolates":10833,"orporeal":10834,"ĠNetwork":10835,"Ġtear":10836,"Ġ1500":10837,"Ġtic":10838,"phylactic":10839,"Ġcausing":10840,"Ġhormones":10841,"otoxicity":10842,"ĠDR":10843,"ĠFA":10844,"stream":10845,"ritish":10846,"Ġcompetence":10847,"omonas":10848,"Ġgroupe":10849,"Ġcovered":10850,"meterol":10851,"Improving":10852,"receptor":10853,"Ġpup":10854,"ĠDD":10855,"046":10856,"LABE":10857,"Ġplasminogen":10858,"TH":10859,"tact":10860,"Ġmodulation":10861,"ynin":10862,"Ġherbal":10863,"Ġantagonists":10864,"etermin":10865,"Ġdan":10866,"Ġfrontal":10867,"Ġtourn":10868,"Ġunaffected":10869,"uresis":10870,"ĠUNLABE":10871,"ĠUNLABELLED":10872,"hat":10873,"ĠrÃ©":10874,"ĠRef":10875,"Ġsche":10876,"yrimeth":10877,"Ġrepetitive":10878,"unsaturated":10879,"butynin":10880,"yrimethamine":10881,"Ġumbilical":10882,"truct":10883,"Ġocclusal":10884,"Ġpathogenesis":10885,"ĠIts":10886,"vertebral":10887,"Ġinterpersonal":10888,"Ġalanine":10889,"racheal":10890,"aphylococcus":10891,"Ġefavirenz":10892,"Be":10893,"Ġppm":10894,"048":10895,"Ġzero":10896,"ĠItaly":10897,"acture":10898,"Ġunadjusted":10899,"Ġkept":10900,"Ġcalorie":10901,"ĠCaucas":10902,"Ġeczema":10903,"Ġpowered":10904,"ĠLIMITATIONS":10905,"users":10906,"ĠROC":10907,"arbonate":10908,"Ġhemodynamics":10909,"ĠPB":10910,"ĠFound":10911,"Ġcalories":10912,"ziness":10913,"esteem":10914,"izziness":10915,"ĠDist":10916,"ĠWell":10917,"Ġrevision":10918,"Ġassumed":10919,"Ġinfliximab":10920,"MC":10921,"Ġexhaus":10922,"olitis":10923,"Ġsubt":10924,"ĠKnow":10925,"047":10926,"Ġfavored":10927,"Ġhighlight":10928,"Ġaggregation":10929,"opre":10930,"ĠOxy":10931,"oxone":10932,"Ġphysically":10933,"orbable":10934,"mail":10935,"Ġbronchodil":10936,"Ġnorepinephrine":10937,"Ġosteoporotic":10938,"EE":10939,"weeks":10940,"AIDS":10941,"Ġque":10942,"plained":10943,"ĠComparing":10944,"Ġmultif":10945,"isode":10946,"Influ":10947,"Ġirrigation":10948,"Ġportion":10949,"036":10950,"Ġpts":10951,"ĠPW":10952,"Ġscanning":10953,"ĠKenya":10954,"Ġpit":10955,"char":10956,"Ġoxidation":10957,"Ġglutamine":10958,"Ġenzy":10959,"Ġequivalence":10960,"entation":10961,"oronary":10962,"upuncture":10963,"ĠDose":10964,"ĠPDT":10965,"tocopherol":10966,"enafil":10967,"thy":10968,"ĠAZ":10969,"Ġbrushing":10970,"Ġbacte":10971,"=-":10972,"proBNP":10973,"ĠCriteria":10974,"Ġpartic":10975,"Ġartesunate":10976,"maximal":10977,"Ġsequel":10978,"ĠTaiwan":10979,"âī":10980,"ĠBalance":10981,"HuEPO":10982,"ĠMem":10983,"ĠGastro":10984,"defined":10985,"Ġactively":10986,"Phase":10987,"Ġuniversal":10988,"irub":10989,"Ġdilatation":10990,"Ġdescriptive":10991,"ala":10992,"Ġorganisms":10993,"Comparative":10994,"Ġaugmented":10995,"Ġinconsistent":10996,"osition":10997,"ĠIPC":10998,"ĠMC":10999,"Ġ153":11000,"Ġpartly":11001,"butamol":11002,"bid":11003,"bow":11004,"Ġweighted":11005,"rix":11006,"Ġsuction":11007,"029":11008,"Ġmarginally":11009,"ĠComplications":11010,"Mul":11011,"Ġ#":11012,"Ġchoices":11013,"osures":11014,"Ġ1200":11015,"Ġindependence":11016,"ĠKey":11017,"obser":11018,"Ġauto":11019,"Ġdocumentation":11020,"Ġunderstood":11021,"Ġascertain":11022,"ford":11023,"onol":11024,"Ġserocon":11025,"Ġintranasal":11026,"Ġproteins":11027,"ĠTherapeutic":11028,"Ġtransferred":11029,"Ġtrack":11030,"Ġexpansion":11031,"Ġempty":11032,"ĠRSV":11033,"Ġretrieved":11034,"ĠAdvanced":11035,"DRS":11036,"Low":11037,"itations":11038,"ulose":11039,"ipt":11040,"bound":11041,"Ġ149":11042,"andin":11043,"Ġunprotected":11044,"isinin":11045,")%":11046,"ĠProm":11047,"ĠAre":11048,"iscarri":11049,"Ã¼":11050,"Ġadenoma":11051,"onuclear":11052,"usp":11053,"ĠFoundation":11054,"ĠVR":11055,"RADE":11056,"Ġallele":11057,"We":11058,"IR":11059,"ĠBrazil":11060,"volume":11061,"Ġrarely":11062,"idement":11063,"ĠAdolescents":11064,"Ġcooling":11065,"afer":11066,"Ġleptin":11067,"clin":11068,"Ġpembrolizumab":11069,"Ġreuptake":11070,"lementation":11071,"Ġ142":11072,"Ġcaesarean":11073,"Ġropivacaine":11074,"pressure":11075,"ĠBar":11076,"Ġprosthetic":11077,"xious":11078,"Ġmobil":11079,"Ġcatech":11080,"naÃ¯ve":11081,"ĠEmergency":11082,"ĠDO":11083,"tests":11084,"ytic":11085,"iazepam":11086,"Ġfaecal":11087,"Ġchloroquine":11088,"ĠLocal":11089,"Ġyouths":11090,"Ġazathioprine":11091,"ano":11092,"Ġmir":11093,"ĠNNT":11094,"Ġcondoms":11095,"ĠRed":11096,"Ġcaution":11097,"Ġfollicle":11098,"affective":11099,"Ġsnack":11100,"Ġquantify":11101,"ontal":11102,"icles":11103,"Ġadopted":11104,"Ġease":11105,"ullip":11106,"Ġunnec":11107,"Ġinfluencing":11108,"Ġascertained":11109,"Ġadditive":11110,"High":11111,"ĠBritish":11112,"rowth":11113,"fluorouracil":11114,"ildagliptin":11115,"Ġquantity":11116,"Ġgranulocyte":11117,"FD":11118,"Ġdab":11119,"Ġbrom":11120,"Ġ141":11121,"ĠScot":11122,"Ġherpes":11123,"Ġendovascular":11124,"Ġimpairments":11125,"Ġpulp":11126,"Ġunexpected":11127,"ĠEmp":11128,"ĠStaphylococcus":11129,"Ġrich":11130,"0003":11131,"Ġuric":11132,"Ġrepresented":11133,"Ġcommercial":11134,"Ġpent":11135,"ĠOsteoarthritis":11136,"vaginal":11137,"Ġconfer":11138,"isetron":11139,"ĠDementia":11140,"ESS":11141,"tinent":11142,"Ġkilogram":11143,"Ġtrough":11144,"ĠMood":11145,"Ġthermal":11146,"Ġmetastasis":11147,"Ġsituation":11148,"enn":11149,"ĠLevels":11150,"Ġgastrectomy":11151,"Ġdin":11152,"ĠPlus":11153,"Ġmicrobi":11154,"factant":11155,"Short":11156,"Ġapplying":11157,"Ġjoints":11158,"Ġmarket":11159,"Ġtemozolomide":11160,"itol":11161,"Ġperit":11162,"ĠEvalu":11163,"ĠEnh":11164,"oscope":11165,"olit":11166,"Ġ152":11167,"Ġengaged":11168,"igatran":11169,"ĠNG":11170,"enefit":11171,"Ġvoice":11172,"Ġvoiding":11173,"Ġisokinetic":11174,"Ġ220":11175,"Ġthrombolysis":11176,"masked":11177,"Ġexenatide":11178,"ipras":11179,"Ġprone":11180,"ĠIndependent":11181,"Ġcontributes":11182,"ĠGERD":11183,"Ġpregabalin":11184,"Ġunexplained":11185,"Ġcavity":11186,"Ġinfused":11187,"Ġcarriers":11188,"ĠÂµg":11189,"iprasidone":11190,"Ġeosinophil":11191,"ĠNC":11192,"ewhat":11193,"Ġrinse":11194,"Ġtransfused":11195,"ishing":11196,"Ġfibromyalgia":11197,"arterial":11198,"retin":11199,"aces":11200,"Ġ750":11201,"nitus":11202,"ĠEffective":11203,"sensitive":11204,"ĠIr":11205,"ĠWhat":11206,"Ġclean":11207,"Ġaccumulation":11208,"cophenolate":11209,"Ġil":11210,"Ġassays":11211,"ĠEI":11212,"Ġobtaining":11213,"Ġrotator":11214,"ĠTra":11215,"Ġ168":11216,"inated":11217,"Ġreactive":11218,"Ġthous":11219,"ĠNever":11220,"Ġoutpatients":11221,"ĠâĪ":11222,"listat":11223,"Ġelectromy":11224,"ophylline":11225,"Ġstap":11226,"tead":11227,"ĠVI":11228,"azepam":11229,"Ġhistorical":11230,"Ġdizziness":11231,"Ġextrapyramidal":11232,"Ġmargins":11233,"Ġretinal":11234,"ĠQALYs":11235,"Ġpsychopathology":11236,"prom":11237,"ĠLP":11238,"Ġulcerative":11239,"Ġlax":11240,"oprazole":11241,"Ġcausal":11242,"ĠCohen":11243,"pretation":11244,"Ġstepwise":11245,"Ġantiviral":11246,"ignment":11247,"ĠOutpatient":11248,"VANCE":11249,"randomized":11250,"paste":11251,"Ġeverolimus":11252,"Ġglycosylated":11253,"Ġcyst":11254,"Ġmiscarri":11255,"ĠMob":11256,"Ġchose":11257,"Ġendotracheal":11258,"Ġerythrocyte":11259,"tivated":11260,"038":11261,"ĠMU":11262,"Ġresten":11263,"ĠHaem":11264,"ĠGe":11265,"Ġwidth":11266,"Ġtourniquet":11267,"rem":11268,"onectin":11269,"ĠPot":11270,"ĠReli":11271,"illes":11272,"Ġmifepristone":11273,"ashing":11274,"ĠLa":11275,"Ġ143":11276,"Ġhypoglycemic":11277,"Ġsomewhat":11278,"edge":11279,"ĠFram":11280,"Ġnonpharmac":11281,"arthel":11282,"Ġdermat":11283,"ĠPRE":11284,"ococci":11285,"Ġrelieving":11286,"Ġinstead":11287,"Ġ175":11288,"Ġhaemodialysis":11289,"Ġkeep":11290,"Ġinactive":11291,"oxicity":11292,"Ġproliferation":11293,"target":11294,"Ġsprint":11295,"Ġemphasis":11296,"omia":11297,"Ġwearing":11298,"bed":11299,"ĠTri":11300,"ĠBID":11301,"carbohydrate":11302,"Ġpolymerase":11303,"Ġapproval":11304,"Ġextend":11305,"rosemide":11306,"Ġlispro":11307,"gestrel":11308,"aroxaban":11309,"%/":11310,"Ġevaluates":11311,"Ġremod":11312,"citonin":11313,"ront":11314,"Ġclindamycin":11315,"Ġmultin":11316,"Ġ170":11317,"Ġphenomen":11318,"Ġdonors":11319,"tegrated":11320,"Ġment":11321,"Ġna":11322,"ĠEEG":11323,"Ġintolerance":11324,"GB":11325,"Ġstents":11326,"ĠCosts":11327,"ĠModerate":11328,"factorial":11329,"HIV":11330,"ĠSV":11331,"ĠSmokers":11332,"requent":11333,"Ġvarnish":11334,"Ġbuc":11335,"Ġgrading":11336,"ietic":11337,"Ġchiropractic":11338,"Ġsense":11339,"Ġleukocyte":11340,"RN":11341,"lum":11342,"Ġlunch":11343,"Ġsequelae":11344,"ets":11345,"Ġthal":11346,"ĠRD":11347,"Ġanimals":11348,"Ġstaining":11349,"DSS":11350,"oriented":11351,"Ġallowing":11352,"Ġsati":11353,"Ġgame":11354,"emerg":11355,"Ġlimbs":11356,"Ġparathyroid":11357,"Ġabciximab":11358,"Ġwhee":11359,"worm":11360,"Ġlect":11361,"ĠGram":11362,"Ġpsychiat":11363,"weighted":11364,"Ġendarterectomy":11365,"Ġresponding":11366,"Ġsurgically":11367,"Ġpolyunsaturated":11368,"ĠSeventeen":11369,"Ġaudi":11370,"Ġsynthetic":11371,"Ġencountered":11372,"Ġepithelial":11373,"Ġ151":11374,"Ġhistologically":11375,"tise":11376,"Ġhippocamp":11377,"zyg":11378,"Ġbronchitis":11379,"solving":11380,"Ġ139":11381,"Ġsealant":11382,"Influence":11383,"sur":11384,"asvir":11385,"uritus":11386,"Ġhemostasis":11387,"Ġsalvage":11388,"Ġmedicines":11389,"ocaloric":11390,"Ġsciatic":11391,"ĠNevertheless":11392,"ĠBV":11393,"Ġintrap":11394,"cedural":11395,"Ġclustering":11396,"Ġneutropenic":11397,"Ġsurrogate":11398,"Ġworker":11399,"ĠYoung":11400,"Ġhypersensitivity":11401,"ĠAKI":11402,"Ġstockings":11403,"Ġintub":11404,"Ġacutely":11405,"Ġswitching":11406,"Ġdescription":11407,"sulf":11408,"Ġexpectancy":11409,"Ġnumerical":11410,"clavulan":11411,"Ġoxybutynin":11412,"Ġlosartan":11413,"Ġscheme":11414,"Ġlesser":11415,"ovudine":11416,"firmed":11417,"Ġcephal":11418,"Ġoxaliplatin":11419,"Ġhair":11420,"lessness":11421,"brid":11422,"ĠBarthel":11423,"ĠIntention":11424,"Ġ156":11425,"Ġopening":11426,"Ġorganizations":11427,"Ġcolloid":11428,"Ġartemether":11429,"ĠTAP":11430,"ĠOff":11431,"Ġresponsive":11432,"Ġideal":11433,"Ġbicarbonate":11434,"Ġyrs":11435,"Risk":11436,"ilt":11437,"ĠLifestyle":11438,"ense":11439,"Ġprobiotics":11440,"Ġpropensity":11441,"aperitoneal":11442,"Ġ154":11443,"Ġoroph":11444,"avid":11445,"Ġsignal":11446,"Ġchallenging":11447,"ĠPUFA":11448,"Ġrestenosis":11449,"trend":11450,"onavir":11451,"Ġpour":11452,"ĠLes":11453,"Ġhousing":11454,"Ġunnecessary":11455,"Ġcitalopram":11456,"Ġapprec":11457,"Ġinsurance":11458,"ĠHead":11459,"ĠDAT":11460,"plemented":11461,"tored":11462,"Ġsympathetic":11463,"Ġcast":11464,"genase":11465,"ĠPregnancy":11466,"uvastatin":11467,"isedronate":11468,"Ġattain":11469,"thood":11470,"Ġmorbid":11471,"Ġlutein":11472,"ĠTask":11473,"Ġdiffuse":11474,"Ġteacher":11475,"ozyg":11476,"ĠTXA":11477,"Ġcarpal":11478,"Ġcrossed":11479,"Ġinterpreted":11480,"gow":11481,"ĠUA":11482,"azepine":11483,"agnetic":11484,"037":11485,"ARY":11486,"OMA":11487,"Ġreversal":11488,"Ġprecision":11489,"Ġbran":11490,"ĠPreliminary":11491,"150":11492,"Ġconvenience":11493,"third":11494,"ĠTanz":11495,"Ġsuspension":11496,"ĠProtocol":11497,"atching":11498,"oriz":11499,"ĠJo":11500,"Ġstepped":11501,"ĠACDF":11502,"ĠBehavior":11503,"dib":11504,"Ġreaders":11505,"Ġtheoretical":11506,"300":11507,"restr":11508,"linked":11509,"Ġtopics":11510,"adoxine":11511,"terodine":11512,"ustr":11513,"grad":11514,"ĠCEA":11515,"ĠNeurop":11516,"iglitazone":11517,"Post":11518,"asgow":11519,"Ġexclusively":11520,"pletion":11521,"Ġ138":11522,"Ġbrush":11523,"osomal":11524,"ĠSCI":11525,"tidine":11526,"Ġspecified":11527,"Ġlatency":11528,"ĠDL":11529,"enders":11530,"iben":11531,"Ġrelatives":11532,"holinergic":11533,"Ġangiographic":11534,"Ġadiposity":11535,"het":11536,"Ġpad":11537,"umed":11538,"Ġbuild":11539,"Ġbortezomib":11540,"sels":11541,"arynx":11542,"Ġtenofovir":11543,"ias":11544,"ĠSW":11545,"ĠFT":11546,"calcitonin":11547,"flux":11548,"Ġadhesive":11549,"ĠPLA":11550,"Ġprocedural":11551,"Ġdefinitions":11552,"Ġhydration":11553,"Term":11554,"retest":11555,"position":11556,"ĠInfection":11557,"ĠNineteen":11558,"Ġdiazepam":11559,"ican":11560,"Ġstyle":11561,"Ġflare":11562,"ĠDT":11563,"nesota":11564,"Ġcrystalloid":11565,"Ġranitidine":11566,"rested":11567,"Ġcanal":11568,"ĠManual":11569,"Ġorthopedic":11570,"ĠAbo":11571,"Ġdiuretic":11572,"Ġdriving":11573,"Ġadver":11574,"Ġ350":11575,"ĠDirect":11576,"ĠInstitutes":11577,"yclovir":11578,"inotecan":11579,"Ġdele":11580,"Ġconfirms":11581,"ĠMinnesota":11582,"Ġradiofrequency":11583,"Ġnullip":11584,"topril":11585,"ĠReporting":11586,"ĠImplant":11587,"Ġdul":11588,"clamide":11589,"Ġcrest":11590,"Ġsalbutamol":11591,"Ġempagliflozin":11592,"Ġaxis":11593,"Ġpolicies":11594,"Ġduct":11595,"Ġleaders":11596,"ibenclamide":11597,"Ġpare":11598,"Ġformed":11599,"Ġmechanically":11600,"alur":11601,"Ġconfirmation":11602,"%âĢĵ":11603,"iacin":11604,"ĠPN":11605,"Ġclarify":11606,"Ġunfavorable":11607,"Ġveterans":11608,"iments":11609,"Ġworkload":11610,"Ġaware":11611,"imp":11612,"Ġnonresponders":11613,"Ġworst":11614,"Ġgenotypes":11615,"Ġname":11616,"Ġequipment":11617,"gent":11618,"uretics":11619,"ĠGlasgow":11620,"Ġverte":11621,"Ġprecise":11622,"ĠUltr":11623,"Ġpiv":11624,"Ġbiliary":11625,"ols":11626,"Ġexclusive":11627,"ĠDer":11628,"ĠNov":11629,"Ġrobotic":11630,"Ġdup":11631,"amn":11632,"Ġrestored":11633,"Ġundet":11634,"049":11635,"osorb":11636,"ĠSatisfaction":11637,"Ġpneumococcal":11638,"Ġpiperacillin":11639,"Ġadvised":11640,"Ġbrace":11641,"Ġapplicable":11642,"onorgestrel":11643,"dri":11644,"ĠMG":11645,"Ġitself":11646,"ĠKT":11647,"asibility":11648,"ĠNep":11649,"Ġsurfactant":11650,"Ġtelev":11651,"Ġord":11652,"Ġtrach":11653,"Ġsemin":11654,"ĠGyn":11655,"Ġhypertrophy":11656,"Ġcharges":11657,"ĠPV":11658,"Ġveins":11659,"Ġpharmacodynamic":11660,"iodarone":11661,"ĠPeak":11662,"Ġsplint":11663,"Ġ165":11664,"Ġinduces":11665,"oprim":11666,"Ġprint":11667,"ĠPharm":11668,"Ġorthopaedic":11669,"Ġanswer":11670,"ĠGreater":11671,"actone":11672,"Ġrecre":11673,"class":11674,"Ġretinol":11675,"Ġdram":11676,"opical":11677,"Ġmonof":11678,"Ġinjectable":11679,"Ġfurosemide":11680,"enoic":11681,"vised":11682,"orage":11683,"ĠDie":11684,"Ġintraocular":11685,"Ġthigh":11686,"ĠORS":11687,"Ġbooster":11688,"Ġisolation":11689,"ogenicity":11690,"osan":11691,"Ġaerosol":11692,"ĠCVC":11693,"Ġplaning":11694,"Ġhourly":11695,"Ġstarch":11696,"Ġhomeless":11697,"ĠSpain":11698,"Ġalbuminuria":11699,"ĠKnowledge":11700,"yt":11701,"Ġdich":11702,"Ġtears":11703,"Ġlaparotomy":11704,"IDE":11705,"Ġsirolimus":11706,"Ġamiodarone":11707,"ĠFDG":11708,"Ġimmunosuppression":11709,"Ġ162":11710,"Ġmultifactorial":11711,"rological":11712,"ierarch":11713,"ĠPATIENT":11714,"Ġactually":11715,"BF":11716,"Ġnondiabetic":11717,"Ġ159":11718,"virapine":11719,"blockers":11720,"Ġauditory":11721,"Ġreceipt":11722,"ĠDecreas":11723,"Phys":11724,"dibular":11725,"orom":11726,"semin":11727,"amel":11728,"Ġconstruct":11729,"adesh":11730,"auc":11731,"Ġenable":11732,"Ġeluc":11733,"Ġstomach":11734,"Ġdebridement":11735,"ĠThrough":11736,"Ġconsists":11737,"034":11738,"Ġblockers":11739,"seudomonas":11740,"Ġfet":11741,"Ġtimed":11742,"Ġ155":11743,"Ġexposures":11744,"032":11745,"ĠOrth":11746,"Ġarrhythmias":11747,"ĠGuidelines":11748,"Ġtetr":11749,"ĠIGT":11750,"Ġsomatic":11751,"Ġdetails":11752,"Ġemptying":11753,"osbu":11754,"Ġprove":11755,"Ġdegeneration":11756,"ĠFVC":11757,"ĠRecently":11758,"osbuvir":11759,"parametric":11760,"Ġdust":11761,"Ġfilled":11762,"Ġsixth":11763,"igr":11764,"ĠRV":11765,"Ġspecimen":11766,"uterol":11767,"Ġovercome":11768,"Ġspeech":11769,"Ġemission":11770,"Ġcoli":11771,"Ġradiography":11772,"insic":11773,"ĠRecru":11774,"Ġmessaging":11775,"Ġepidemiologic":11776,"Ġdiagram":11777,"ĠCervical":11778,"epit":11779,"Ġunselected":11780,"Ġdeclines":11781,"Ġ157":11782,"Ġcement":11783,"ĠNYHA":11784,"ĠTF":11785,"Ġconting":11786,"phthal":11787,"flurane":11788,"Ġimmunosuppressive":11789,"Ġho":11790,"Ġuser":11791,"ĠFatigue":11792,"episode":11793,"dered":11794,"Ġpromoted":11795,"Ġautomatic":11796,"audication":11797,"Ġvulnerable":11798,"Year":11799,"Ġunplanned":11800,"Ġconstructed":11801,"ĠBel":11802,"Ġnets":11803,"Ġexcit":11804,"phosphate":11805,"Ġpruritus":11806,"ĠRESULT":11807,"ameth":11808,"CAM":11809,"glut":11810,"ĠSSI":11811,"Ġadiponectin":11812,"sulosin":11813,"Ġfrozen":11814,"Ġrelating":11815,"Ġchannel":11816,"Ġ1987":11817,"Ġswitch":11818,"cr":11819,"enses":11820,"ĠAtt":11821,"ĠDecision":11822,"oxifene":11823,"Ġalbuterol":11824,"Ġcrowns":11825,"tigraphy":11826,"Ġquar":11827,"Ġdesire":11828,"Ġadversely":11829,"Ġinvolves":11830,"Ġslope":11831,"ĠSupplementation":11832,"Per":11833,"ura":11834,"Ġcontributing":11835,"rexed":11836,"Ġgamma":11837,"Ġassessments":11838,"Ġdyskinesia":11839,"ĠDisorder":11840,"ests":11841,"Ġlines":11842,"Ġdelta":11843,"Ġvenlafaxine":11844,"Ġinnovative":11845,"ipenem":11846,"033":11847,"Ġreflecting":11848,"ĠLatino":11849,"Ġuses":11850,"Ġendoscop":11851,"Ġpeptic":11852,"irubin":11853,"isp":11854,"ĠPK":11855,"ĠRF":11856,"ĠEastern":11857,"ĠAngi":11858,"eeism":11859,"burgh":11860,"nem":11861,"acental":11862,"ĠEN":11863,"ĠGly":11864,"opoietic":11865,"Ġurgency":11866,"triax":11867,"Ġral":11868,"Ġsurvived":11869,"Ġmening":11870,"Ġindexes":11871,"Ġsutures":11872,"Ġenrolment":11873,"chy":11874,"fetil":11875,"Ġhumid":11876,"very":11877,"ĠAmerica":11878,"Ġviewing":11879,"ĠAchilles":11880,"Ġmodes":11881,"Ġhypoth":11882,"Ġ225":11883,"Ġfemur":11884,"refr":11885,"Ġnom":11886,"Ġrandomization":11887,"Ġ1988":11888,"Ġmoist":11889,"Ġproducing":11890,"olitan":11891,"gam":11892,"Ġdefect":11893,"Bs":11894,"Ġans":11895,"Ġinters":11896,"ĠInclusion":11897,"pping":11898,"ĠUF":11899,"ylch":11900,"Ġirinotecan":11901,"ivery":11902,"Ġescitalopram":11903,"des":11904,"Ġmini":11905,"ropolitan":11906,"Ġprinciple":11907,"junctivitis":11908,"aenoic":11909,"ĠDuration":11910,"glucose":11911,"ĠChecklist":11912,"lome":11913,"nity":11914,"Ġcompounds":11915,"quit":11916,"ĠEA":11917,"Ġ161":11918,"reedom":11919,"Ġglobulin":11920,"ascial":11921,"izer":11922,"ĠGL":11923,"Ġsuggestions":11924,"Ġbirthweight":11925,"Ġtriage":11926,"Ġproprio":11927,"Ġcompan":11928,"Ġattained":11929,"AST":11930,"031":11931,"ĠJournal":11932,"isiotomy":11933,"Ġexpulsion":11934,"ĠDenmark":11935,"Ġmite":11936,"ĠSk":11937,"Ġovernight":11938,"039":11939,"ĠDeath":11940,"Ar":11941,"DR":11942,"itum":11943,"Ġcontinence":11944,"ildenafil":11945,"Ġ146":11946,"burn":11947,"Ġlavage":11948,"Ġvildagliptin":11949,"ĠIncreasing":11950,"triaxone":11951,"ulopathy":11952,"Ġvisiting":11953,"Ġsenior":11954,"Ġabutments":11955,"Ġfulfilled":11956,"Ġanticipated":11957,"Ġfinger":11958,"ĠBF":11959,"proven":11960,"Ġnitrous":11961,"Ġfunding":11962,"ĠSTEMI":11963,"dimer":11964,"Ġpocket":11965,"Ġfoam":11966,"behavioural":11967,"Ġated":11968,"Ġpreeclampsia":11969,"Ġolive":11970,"ĠIUI":11971,"oche":11972,"Ġchildbirth":11973,"ribution":11974,"Ġnortriptyline":11975,"044":11976,"enzyme":11977,"Ġseek":11978,"Ġpacing":11979,"ĠSpecific":11980,"Ġsubstitution":11981,"reduction":11982,"emergent":11983,"refractory":11984,"through":11985,"Ġderiv":11986,"irable":11987,"obl":11988,"Ġduodenal":11989,"Ġarrival":11990,"lodipine":11991,"arach":11992,"ĠTBI":11993,"Ġring":11994,"ĠRol":11995,"ĠRinger":11996,"ĠDHE":11997,"ĠRecovery":11998,"lomethasone":11999,"Ġencephal":12000,"ona":12001,"Ġdac":12002,"aser":12003,"vec":12004,"idovudine":12005,"gesic":12006,"Ġcharts":12007,"det":12008,"Ġfocal":12009,"Ġreserve":12010,"Ġ147":12011,"ĠFV":12012,"seling":12013,"Ġpreventable":12014,"Ġsalmeterol":12015,"Ġethinyl":12016,"Ġavoided":12017,"Ġoffering":12018,"ĠQT":12019,"agery":12020,"cious":12021,"Ġocular":12022,"rost":12023,"Ġinsignificant":12024,"Ġbelieve":12025,"erost":12026,"alking":12027,"ĠDanish":12028,"Ġillustr":12029,"Ġadaptive":12030,"Ġworsened":12031,"Ġvessels":12032,"Ġdiscrimination":12033,"rotic":12034,"inel":12035,"ĠItalian":12036,"amipril":12037,"gd":12038,"Ġbus":12039,"cotic":12040,"Ġreasonable":12041,"thema":12042,"Trans":12043,"hundred":12044,"oposide":12045,"ourished":12046,"Ġintegration":12047,"itoneum":12048,"Ġerectile":12049,"ulas":12050,"Ġimpacts":12051,"Ġcytom":12052,"ĠSSRI":12053,"Ġips":12054,"Out":12055,"Ġacyclovir":12056,"Ġphobia":12057,"ĠRELE":12058,"ĠPsychiatric":12059,"estradiol":12060,"Ġsubmaximal":12061,"Ġhypotheses":12062,"ĠVC":12063,"Ġcontain":12064,"step":12065,"incrist":12066,"Ġperitonitis":12067,"oaffective":12068,"Ġgall":12069,"Ġdramatic":12070,"Ġmenopause":12071,"Ġrequested":12072,"Ġ210":12073,"Ġemesis":12074,"HSS":12075,"Ġarom":12076,"Ġbench":12077,"Ġsterile":12078,"400":12079,"supported":12080,"Ġsupplementary":12081,"Ġanastomotic":12082,"incristine":12083,"Ġweaning":12084,"irubicin":12085,"oreg":12086,"esthesi":12087,"ĠRELEVANCE":12088,"ofr":12089,"Ġoptimize":12090,"Ġdextro":12091,"Cognitive":12092,"Ġreality":12093,"vein":12094,"Ġviewed":12095,"Chan":12096,"ĠAbout":12097,"ink":12098,"Ġorders":12099,"ĠGu":12100,"Ġemergence":12101,"Ġbronchiolitis":12102,"ii":12103,"ogastric":12104,"Ġranges":12105,"Ġgradi":12106,"Ġultim":12107,"Ġurethral":12108,"ĠStruct":12109,"Ġepirubicin":12110,"ĠPlan":12111,"fecoxib":12112,"amed":12113,"emet":12114,"Ġrofecoxib":12115,"ĠICSI":12116,"Ġanticholinergic":12117,"Ġbedtime":12118,"ĠConsider":12119,"ĠLongitudinal":12120,"initi":12121,"ifid":12122,"tilage":12123,"Ġdabigatran":12124,"ĠABC":12125,"odia":12126,"Ġdiuretics":12127,"Ġopportunities":12128,"Ġtelevision":12129,"Oral":12130,"col":12131,"arabine":12132,"outine":12133,"Ġcereal":12134,"ĠPCa":12135,"oconjunctivitis":12136,"Ġcolleag":12137,"PET":12138,"Ġrip":12139,"Ġ205":12140,"Ġdihydro":12141,"Ġfluct":12142,"Ġwarrant":12143,"Ġreplaced":12144,"emetrexed":12145,"ĠRandomised":12146,"contact":12147,"ora":12148,"ĠToler":12149,"Ġnav":12150,"acchar":12151,"Ġpert":12152,"tism":12153,"Ġglibenclamide":12154,"Ġbacteremia":12155,"RL":12156,"bic":12157,"reatinine":12158,"Ġanaerobic":12159,"ĠEPA":12160,"mpan":12161,"ĠStrept":12162,"Ġpsychometric":12163,"yright":12164,"arbose":12165,"ĠAppend":12166,"Ġtenderness":12167,"Pati":12168,"va":12169,"threat":12170,"Ġtraine":12171,"Ġ1980":12172,"Ġtertile":12173,"Ġfluo":12174,"Ġphosphatase":12175,"city":12176,"norm":12177,"ĠIPV":12178,"wered":12179,"tomies":12180,"corrected":12181,"ecule":12182,"Ġamlodipine":12183,"Ġapo":12184,"Ġaccordance":12185,"overnment":12186,"Ġmicrobiota":12187,"ĠSci":12188,"Ġmildly":12189,"Ġadjustments":12190,"Ġneurocognitive":12191,"ĠPTCA":12192,"ovirus":12193,"cending":12194,"ictim":12195,"ĠCAM":12196,"Ġreveal":12197,"curonium":12198,"Ġopiate":12199,"acetylcysteine":12200,"ĠMonitoring":12201,"ĠUsual":12202,"Ġaler":12203,"effect":12204,"Ġrestrictive":12205,"Ġfissure":12206,"ustained":12207,"Ġmultivitamin":12208,"Combin":12209,"ĠColorectal":12210,"Ġsore":12211,"cancer":12212,"ĠEM":12213,"Ġconsented":12214,"Ġbioavail":12215,"Ġapproached":12216,"PORT":12217,"Ġextensor":12218,"ĠLy":12219,"ĠCHOP":12220,"ĠCounty":12221,"Ġcarefully":12222,"blocker":12223,"ĠOM":12224,"istos":12225,"Ġspread":12226,"rolide":12227,"ĠNeonatal":12228,"Im":12229,"Ġfriend":12230,"Ġresected":12231,"Ġunfractionated":12232,"ĠICUs":12233,"ĠPsychological":12234,"using":12235,"ĠIF":12236,"Ġorlistat":12237,"ducing":12238,"Ġradius":12239,"Ġgynaec":12240,"ĠTTP":12241,"Ġdentures":12242,"ateness":12243,"Ġprotease":12244,"Safety":12245,"itating":12246,"Ġhoriz":12247,"genital":12248,"asts":12249,"terase":12250,"Ġground":12251,"iger":12252,"ĠAOR":12253,"120":12254,"ĠCalc":12255,"Ġspirometry":12256,"Ġalkaline":12257,"ĠCaucasian":12258,"DP":12259,"ilst":12260,"Ġinvitation":12261,"CAB":12262,"aws":12263,"ĠTCC":12264,"ĠOD":12265,"Ġschizoaffective":12266,"Ġamputation":12267,"Ġpapers":12268,"ycl":12269,"Ġnebulized":12270,"Ġniacin":12271,"ĠWest":12272,"Ġtoothpaste":12273,"ĠCopyright":12274,"threatening":12275,"Ġoocyte":12276,"ĠAMS":12277,"ĠMotor":12278,"De":12279,"ĠAmb":12280,"ensory":12281,"Ġalert":12282,"Ġlevonorgestrel":12283,"600":12284,"ĠLiver":12285,"Ġmoment":12286,"Ġinvas":12287,"meas":12288,"Ġziprasidone":12289,"ĠProgramme":12290,"Ġinfertile":12291,"Ġmorphology":12292,"Ġbronchiectasis":12293,"ĠObserv":12294,"Ġcolleagues":12295,"Ġbath":12296,"Ġdefer":12297,"ROM":12298,"Ġblast":12299,"Ġdominant":12300,"Ġlegs":12301,"oting":12302,"plase":12303,"Ġretrieval":12304,"Ġpig":12305,"icate":12306,"ĠhCG":12307,"ĠFC":12308,"Ġsingleton":12309,"Ġadolescence":12310,"Ġzidovudine":12311,"ĠSchiz":12312,"isinopril":12313,"Ġtinnitus":12314,"ufact":12315,"with":12316,"ĠHip":12317,"Ġgreatly":12318,"Ġhyalur":12319,"titude":12320,"ĠTanzania":12321,"dummy":12322,"Ġcomposed":12323,"book":12324,"Ġbiochem":12325,"Ġconflicting":12326,"ye":12327,"Ġobvious":12328,"uitary":12329,"ĠCSF":12330,"Ġowing":12331,"Ġcalcitriol":12332,"erostomia":12333,"Ġtail":12334,"Ġwestern":12335,"Ġdisabling":12336,"ulty":12337,"Ġcomplement":12338,"Ġ164":12339,"Ġhelping":12340,"Ġingested":12341,"Ġexplanation":12342,"Ġcues":12343,"value":12344,"Ġpassage":12345,"Ġapparently":12346,"Ġpmol":12347,"arp":12348,"Ġhis":12349,"ographs":12350,"ĠPeriod":12351,"agonist":12352,"down":12353,"ĠCase":12354,"Ġprothrombin":12355,"Ġstandardized":12356,"Ġinstrumental":12357,"FE":12358,"coll":12359,"Ġnad":12360,"ada":12361,"ĠUnivers":12362,"ĠSubjective":12363,"Ġerythema":12364,"iclovir":12365,"accept":12366,"Ġdeciliter":12367,"Ġslower":12368,"ĠTDF":12369,"ANCE":12370,"Ġfig":12371,"ulthood":12372,"Ġvast":12373,"Ġmultinational":12374,"ius":12375,"ĠCAS":12376,"Ġparity":12377,"Ġhyperplasia":12378,"ĠImport":12379,"Ġcollaboration":12380,"HDL":12381,"bleeding":12382,"ĠTac":12383,"olidation":12384,"Ġmyof":12385,"imethoprim":12386,"ĠPseudomonas":12387,"ĠNeck":12388,"amivir":12389,"ĠFOBT":12390,"Ġtaste":12391,"Ġpsychomotor":12392,"Ġpharmacies":12393,"tronic":12394,"emed":12395,"ĠSample":12396,"Ġtraction":12397,"ĠGle":12398,"Ġspectro":12399,"126":12400,"Ġeros":12401,"ĠGRADE":12402,"ĠResistance":12403,"ĠCenters":12404,"Group":12405,"Ġhospitalisation":12406,"Ġprobe":12407,"Ġbiases":12408,"ĠModified":12409,"ercept":12410,"omat":12411,"Ġuntrained":12412,"Ġteen":12413,"ĠDepressive":12414,"ĠDiabetic":12415,"Ġorthoses":12416,"epithelial":12417,"ĠVir":12418,"Ġsport":12419,"Ġmetoprolol":12420,"Ġrelapsing":12421,"ĠPhysician":12422,"angladesh":12423,"Ġthrice":12424,"ĠSmall":12425,"Ġexit":12426,"ĠHH":12427,"pectomy":12428,"ĠWhite":12429,"Ġhemorrhagic":12430,"onolactone":12431,"thr":12432,"yles":12433,"ĠProb":12434,"Ġ174":12435,"Ġmanipulative":12436,"Ġbilirubin":12437,"Ġclamping":12438,"Ġrivaroxaban":12439,"Ġdichotom":12440,"aucoma":12441,"field":12442,"ĠBangladesh":12443,"Ġrecover":12444,"Ġdecisional":12445,"Ġflat":12446,"Ġcapillary":12447,"Ġaccounting":12448,"Ġdelays":12449,"coun":12450,"Ġvaccines":12451,"Ġcharacterize":12452,"Ġcaptopril":12453,"ĠRIPC":12454,"oprotective":12455,"ĠMO":12456,"tigma":12457,"Ġcalcul":12458,"Ġaccident":12459,"teplase":12460,"Ġnonsurgical":12461,"Double":12462,"ĠMothers":12463,"yprogesterone":12464,"Ġpure":12465,"Ġbile":12466,"Ġvagin":12467,"Ġbetamethasone":12468,"Ġgynecologic":12469,"Ġprehospital":12470,"Ġchair":12471,"ĠVT":12472,"CHO":12473,"rone":12474,"Ġdf":12475,"Ġperm":12476,"Ġchor":12477,"ĠOT":12478,"aziqu":12479,"ĠQLQ":12480,"Ġdysmenorrhea":12481,"Ġspecialized":12482,"Ġunderestimated":12483,"heumatic":12484,"trin":12485,"Ġprogest":12486,"Ġmotility":12487,"rosine":12488,"Ġtemporary":12489,"Ġrecordings":12490,"ĠHalf":12491,"antrine":12492,"ĠScores":12493,"ĠTHE":12494,"Ġcircumst":12495,"cg":12496,"Ġattr":12497,"ĠQue":12498,"042":12499,"cardiac":12500,"Ġfistula":12501,"IU":12502,"Ġsaph":12503,"ĠMPA":12504,"arrhyth":12505,"Ġambulation":12506,"Ġenzymes":12507,"pin":12508,"ĠEUS":12509,"Ġnevirapine":12510,"Ġtelemedicine":12511,"ĠGleason":12512,"revir":12513,"ĠPath":12514,"Ġexisted":12515,"Ġzol":12516,"ĠCHX":12517,"Ġdyspnoea":12518,"Ġtip":12519,"Ġball":12520,"Ġconjug":12521,"aziquantel":12522,"Ġassessors":12523,"043":12524,"Ġetoposide":12525,"ĠInvestigators":12526,"Ġhysteroscopy":12527,"Ġdioxide":12528,"Ġexperiments":12529,"Ġdetox":12530,"Ġlimiting":12531,"ĠRecomm":12532,"Ġnights":12533,"ACTI":12534,"ĠSpinal":12535,"Ġrepetitions":12536,"Ġimpacted":12537,"ismus":12538,"Intra":12539,"Ġdistricts":12540,"Ġheterogeneous":12541,"Ġgm":12542,"urning":12543,"Ġcalf":12544,"Ġpathophys":12545,"Ġplatelets":12546,"Ġmaxilla":12547,"Ġatherosclerotic":12548,"ĠRC":12549,"ĠFasting":12550,"Ġparts":12551,"Ġnovo":12552,"Ġsuggestive":12553,"Ġalternating":12554,"ĠApgar":12555,"Ġelicited":12556,"spe":12557,"Ġanore":12558,"ĠDoc":12559,"ĠFL":12560,"etiti":12561,"Ġnm":12562,"Ġdiver":12563,"Ġnumerous":12564,"Ġsonography":12565,"terminal":12566,"Ġvin":12567,"openia":12568,"limiting":12569,"ĠInitiative":12570,"Assess":12571,"randomised":12572,"Ġclaudication":12573,"ĠProble":12574,"Ġceftriaxone":12575,"Ġanatomic":12576,"ĠâĢĲ":12577,"Ġvincristine":12578,"Ġterminal":12579,"Ġrosiglitazone":12580,"Ġleaflet":12581,"Ġrig":12582,"Ġadulthood":12583,"Ġtracking":12584,"athione":12585,"Ġendothelium":12586,"oglyc":12587,"Ġprogressively":12588,"Ġtolterodine":12589,"Ġhop":12590,"Ġvictim":12591,"antadine":12592,"ACHE":12593,"Ġspecialists":12594,"ĠSwit":12595,"Ġripening":12596,"ĠSchizophren":12597,"Can":12598,"haps":12599,"nT":12600,"Ġcartilage":12601,"Ġ177":12602,"Ġpublications":12603,"utamide":12604,"Ġbeats":12605,"Ġpowerful":12606,"iodine":12607,"Ġescalation":12608,"ibrillator":12609,"ĠAppendix":12610,"tos":12611,"Ġgap":12612,"Ġdissemin":12613,"Ġlearned":12614,"Ġpedometer":12615,"dosterone":12616,"Ġsafer":12617,"Ġheavi":12618,"ynam":12619,"Ġgonadotroph":12620,"Ġintrace":12621,"prof":12622,"ĠCollaborative":12623,"Ġergometer":12624,"Ġbuccal":12625,"Ġinterdisciplinary":12626,"Ġbeclomethasone":12627,"Ġmatrix":12628,"Ġginger":12629,"Ġadministrative":12630,"Ġmouthrinse":12631,"Ġmiscarriage":12632,"pyrimethamine":12633,"ĠSa":12634,"otting":12635,"Ġ158":12636,"ĠServices":12637,"Ġcommercially":12638,"Co":12639,"Ġlumb":12640,"Ġcontemp":12641,"chain":12642,"Ġ1985":12643,"mitting":12644,"upus":12645,"0004":12646,"valent":12647,"Ġeveryday":12648,"Ġantioxidants":12649,"tumor":12650,"ĠFemale":12651,"ĠMinim":12652,"Ġlatent":12653,"Ġipsilateral":12654,"Ġrisedronate":12655,"LH":12656,"rd":12657,"ulitis":12658,"Ġmeter":12659,"iban":12660,"gnostic":12661,"Ġillicit":12662,"aturity":12663,"Ġsocietal":12664,"Ġnodal":12665,"Ġmultifocal":12666,"Ġinput":12667,"ĠEvents":12668,"opositive":12669,"ĠDue":12670,"exper":12671,"Ġ230":12672,"Ġutilizing":12673,"ĠSexual":12674,"oking":12675,"ands":12676,"istics":12677,"eligible":12678,"aware":12679,"heres":12680,"ĠToxic":12681,"ĠIIb":12682,"Ġarteri":12683,"Ġretard":12684,"Ġreflects":12685,"ĠConsecutive":12686,"Ġoppos":12687,"administration":12688,"Ġhabitual":12689,"Ġcosmetic":12690,"Ġreoperation":12691,"ĠMild":12692,"Ġneuros":12693,"arcoma":12694,"Ġdietiti":12695,"Ġcalculation":12696,"Ġsegmental":12697,"hydroxyvitamin":12698,"Ġoverdentures":12699,"Ġchronically":12700,"ĠCQ":12701,"ĠNRS":12702,"iliac":12703,"Ġideation":12704,"ĠPerioperative":12705,"%]":12706,"oice":12707,"ĠRadiation":12708,"ĠLarge":12709,"efantrine":12710,"Ġpolys":12711,"ĠADT":12712,"bohydrates":12713,"Ġanatomical":12714,"Ġtransit":12715,"ordant":12716,"Ġinducing":12717,"Ġtraject":12718,"ĠâĪ¼":12719,"restricted":12720,"injury":12721,"Ġrules":12722,"ĠCSA":12723,"minth":12724,"Ġ167":12725,"ustine":12726,"Ġvolunteer":12727,"ĠBlack":12728,"driven":12729,"Master":12730,"ĠIHD":12731,"Ġelbow":12732,"Ġgastroesophageal":12733,"Ġnorms":12734,"AN":12735,"usor":12736,"Ġimagery":12737,"ĠInt":12738,"Ġswallow":12739,"Ġspontaneously":12740,"Ġabutment":12741,"Ep":12742,"QoL":12743,"Ġrestr":12744,"ĠBPD":12745,"ĠCareg":12746,"Ġviews":12747,"ĠDATA":12748,"VO":12749,"Ġpositions":12750,"Ġelectric":12751,"Ġspecialty":12752,"Ġmolecule":12753,"Ġeluci":12754,"Ġfigures":12755,"Us":12756,"Ġconv":12757,"adian":12758,"Ġrosuvastatin":12759,"Ġlam":12760,"ĠLess":12761,"ĠConventional":12762,"ĠDifferent":12763,"ĠAdjusted":12764,"Ġharmful":12765,"Pl":12766,"ĠPRI":12767,"ĠVol":12768,"Ġproton":12769,"compliance":12770,"Ġiii":12771,"Ġluteal":12772,"Ġfetus":12773,"Ġlac":12774,"Ġmodule":12775,"Ġmanufact":12776,"venth":12777,"Ġseroconversion":12778,"Ġ}":12779,"rotein":12780,"ĠPat":12781,"ĠBG":12782,"ĠCommon":12783,"holm":12784,"Ġethanol":12785,"Ġtamsulosin":12786,"Ġcoc":12787,"ĠHLA":12788,"iceal":12789,"Ġsmart":12790,"ĠAir":12791,"llation":12792,"forming":12793,"Ġsupply":12794,"Ġmicronutrient":12795,"anding":12796,"ĠPo":12797,"Ġcontinues":12798,"Ġsouth":12799,"Ġcircuit":12800,"iuria":12801,"usive":12802,"Ġplane":12803,"Ġshortened":12804,"infant":12805,"ĠInvestigation":12806,"Ġisoflavones":12807,"gressive":12808,"Ġlists":12809,"ĠHOMA":12810,"Ġscr":12811,"Ġhyd":12812,"Ġsuppressed":12813,"Ġexcitability":12814,"Sc":12815,"seeking":12816,"Ġdispar":12817,"Ġsuppress":12818,"Ġcontamination":12819,"Ġfeelings":12820,"ĠCentre":12821,"copically":12822,"COVA":12823,"Ġzone":12824,"umptions":12825,"Ġmilitary":12826,"ĠIran":12827,"tran":12828,"confirmed":12829,"Ġmofetil":12830,"Ġ163":12831,"etro":12832,"udy":12833,"Ġcreate":12834,"ĠPlaque":12835,"ĠIntraoperative":12836,"ĠFraming":12837,"ĠPPD":12838,"trimester":12839,"Ġ190":12840,"Ġhomeostasis":12841,"ĠAPACHE":12842,"ĠmRNA":12843,"ĠTMD":12844,"ĠMIC":12845,"ques":12846,"Ġmultilevel":12847,"Ġsuffer":12848,"titial":12849,"Ġrehydration":12850,"Ġdeform":12851,"ĠOSA":12852,"Ġ179":12853,"Ġdeterminant":12854,"Ġappropriately":12855,"Ġremodeling":12856,"septic":12857,"Ġmetropolitan":12858,"ĠPrevalence":12859,"ĠExpl":12860,"Ġprolactin":12861,"ĠFinl":12862,"Ġgradually":12863,"ĠPCS":12864,"oresc":12865,"ĠSubst":12866,"Ġglycer":12867,"supplemented":12868,"Ġabdomin":12869,"spr":12870,"uous":12871,"Ġlign":12872,"affiliated":12873,"noid":12874,"Ġintell":12875,"plus":12876,"Ġmycophenolate":12877,"Ġ2016":12878,"ĠMind":12879,"ĠChemotherapy":12880,"Ġblue":12881,"eluting":12882,"Ġprin":12883,"ĠLG":12884,"Ġvisible":12885,"Ġnervosa":12886,"baseline":12887,"Ġcongenital":12888,"ĠCES":12889,"Ġfasc":12890,"ĠImproved":12891,"Ġvideotape":12892,"ĠTelephone":12893,"Ġcard":12894,"Ġexercised":12895,"Ġelastic":12896,"Ġterminated":12897,"Ġprostaglandin":12898,"hetamine":12899,"arachnoid":12900,"cher":12901,"istan":12902,"Ġabnorm":12903,"akening":12904,"ĠAnd":12905,"Ġweigh":12906,"ĠAOM":12907,"Ġleaving":12908,"Ġnoise":12909,"ĠLos":12910,"ĠMeth":12911,"Ġworksite":12912,"Ġlymphocytes":12913,"Ġpupils":12914,"Ġbar":12915,"Ġ900":12916,"ĠKong":12917,"Ġsufficiently":12918,"Ġfavorably":12919,"Ġendometrium":12920,"Ġmicrobial":12921,"Ġjustif":12922,"Ġoverestimated":12923,"Ġscalp":12924,"Ġsubtypes":12925,"Ġundetectable":12926,"eng":12927,"uma":12928,"ĠInhib":12929,"Ġevolution":12930,"Ġ172":12931,"ĠSubgroup":12932,"vs":12933,"ĠSAP":12934,"Ġbeam":12935,"cope":12936,"Ġspati":12937,"Ġproductivity":12938,"Ġdysphagia":12939,"Ġcatechol":12940,"Ġimipenem":12941,"Ġ450":12942,"Ġfertility":12943,"ĠACTRN":12944,"ĠRetro":12945,"ĠStreptococcus":12946,"ĠBio":12947,"Ġcarbohydrates":12948,"Ġstimulating":12949,"Ġregister":12950,"ĠSUI":12951,"Ġsulfonylurea":12952,"Ġdisappeared":12953,"Ġtachycardia":12954,"Ġnuts":12955,"Ġimpression":12956,"Ġnormalization":12957,"Ġsubstances":12958,"ĠImplementation":12959,"Ġadequacy":12960,"Ġintegrity":12961,"Ġimplicated":12962,"ĠIllness":12963,"orescence":12964,"tium":12965,"therapeutic":12966,"Ġmono":12967,"Ġtrich":12968,"ĠQI":12969,"ossible":12970,"Ġglucagon":12971,"Ġsprains":12972,"Ġrehospitalization":12973,"Ġsciatica":12974,"ĠAV":12975,"ĠRad":12976,"continence":12977,"Ġdeemed":12978,"Ġconscious":12979,"Ġbroch":12980,"Ġextracorporeal":12981,"Ġphysiotherapist":12982,"clavulanate":12983,"non":12984,"ĠFACT":12985,"median":12986,"Ġaddiction":12987,"ĠBiom":12988,"Ġfrailty":12989,"Form":12990,"zine":12991,"Ġbread":12992,"ĠLoss":12993,"Ġconsolidation":12994,"Ġiodine":12995,"Ġ169":12996,"Ġgeneraliz":12997,"ĠFactor":12998,"Ġvon":12999,"Ġassumptions":13000,"Ġdisplacement":13001,"expensive":13002,"Ġsusceptible":13003,"Ġdiscrepancies":13004,"olizumab":13005,"ĠFOL":13006,"Ġpulsed":13007,"Ġabsenteeism":13008,"cap":13009,"xual":13010,"Ġramipril":13011,"Ġlisinopril":13012,"Ġdepot":13013,"Ġsecre":13014,"Ġdigoxin":13015,"Ġcategorical":13016,"Ġimmunohist":13017,"ride":13018,"agent":13019,"Ġtubes":13020,"adig":13021,"Ġunaware":13022,"Ġinsec":13023,"Ġlithium":13024,"cel":13025,"elec":13026,"reness":13027,"Ġisoflurane":13028,"ostat":13029,"ĠThail":13030,"orrhoea":13031,"IDENCE":13032,"Ġic":13033,"Ġosc":13034,"Ġobservers":13035,"Ġligation":13036,"ĠFramingham":13037,"Rec":13038,"Ġadherent":13039,"Ġdiabetics":13040,"VEL":13041,"Ġengage":13042,"ĠMBCT":13043,"observer":13044,"ionic":13045,"ĠOnce":13046,"ĠPRACTI":13047,"ĠTumor":13048,"Ġcircumstances":13049,"Ġmcg":13050,"amazepine":13051,"neu":13052,"ynchron":13053,"Ġacupressure":13054,"head":13055,"osamine":13056,"ĠSkin":13057,"Ġmodifying":13058,"Ġtransvaginal":13059,"ukast":13060,"ĠEVIDENCE":13061,"Ġkinetics":13062,"telukast":13063,"Ġencephalopathy":13064,"TA":13065,"ĠFit":13066,"Ġ202":13067,"Ġinsight":13068,"Ġelectroly":13069,"inemia":13070,"Ġoverl":13071,"Ġepisodic":13072,"Ġparasite":13073,"To":13074,"eft":13075,"Ġ360":13076,"Ġinconclusive":13077,"vable":13078,"ĠUg":13079,"Ġpol":13080,"Ġcompound":13081,"Ġenvelop":13082,"Ġyou":13083,"ĠTransplant":13084,"Ġophthal":13085,"Ġfilling":13086,"Ġlap":13087,"Ġperip":13088,"Ġmatch":13089,"Ġfunded":13090,"umeric":13091,"Ġmalnutrition":13092,"ued":13093,"Ġ171":13094,"Ġnulliparous":13095,"Ġtaper":13096,"ĠHong":13097,"Ġeducated":13098,"etition":13099,"trogens":13100,"Ġbecoming":13101,"alimumab":13102,"aclitaxel":13103,"020":13104,"ĠActivities":13105,"Ġclassic":13106,"Ġadaptations":13107,"Ġassistants":13108,"Hz":13109,"ĠRoutine":13110,"ĠBleeding":13111,"loquine":13112,"Ġunaccept":13113,"Ġ166":13114,"Ġviol":13115,"ĠStatement":13116,"borhood":13117,"uspension":13118,"social":13119,"Ġfen":13120,"ictor":13121,"Ġones":13122,"renone":13123,"Ġperhaps":13124,"Ġxerostomia":13125,"Ġstere":13126,"Ġvivax":13127,"ĠIRR":13128,"ĠStrategies":13129,"ifidobacter":13130,"sparing":13131,"Ġtrimethoprim":13132,"Ġreplication":13133,"Ġcollect":13134,"Ġsexes":13135,"Ġgradient":13136,"dam":13137,"estive":13138,"ĠBW":13139,"ĠGLP":13140,"ĠKorean":13141,"Ġexhaustion":13142,"igong":13143,"ĠDPP":13144,"oneph":13145,"Ġchec":13146,"living":13147,"ĠSystolic":13148,"ĠDelta":13149,"Ġcrucial":13150,"Ġwaitlist":13151,"hep":13152,"ĠHer":13153,"Ġobserve":13154,"Ġbacteriological":13155,"ĠNorway":13156,"Ġsigmoidoscopy":13157,"TNF":13158,"Ġpills":13159,"ĠDN":13160,"fep":13161,"Ġswim":13162,"ĠMDI":13163,"Ġextremities":13164,"arate":13165,"Ġracial":13166,"ĠCap":13167,"ĠCere":13168,"orel":13169,"bour":13170,"Ġtympan":13171,"icy":13172,"Ġinexpensive":13173,"atric":13174,"imod":13175,"Ġyearly":13176,"ĠLine":13177,"Ġroles":13178,"Ġvariants":13179,"ĠPrevent":13180,"Ġmediast":13181,"Asp":13182,"Ġsilic":13183,"ĠkJ":13184,"Ġspondyl":13185,"Ġconvenient":13186,"Ġpamph":13187,"DC":13188,"Ġgo":13189,"usitis":13190,"Ġate":13191,"Ġpremedication":13192,"Ġ206":13193,"oides":13194,"Ġrequest":13195,"ĠCPT":13196,"GTT":13197,"sal":13198,"tress":13199,"tioned":13200,"peridine":13201,"Ġbenefited":13202,"ĠMcMaster":13203,"Ġperforation":13204,"Ġmyofascial":13205,"Sel":13206,"ĠPPT":13207,"ĠSOC":13208,"Ġinvolve":13209,"chanteric":13210,"Ġhunger":13211,"ovidone":13212,"athecal":13213,"omyopathy":13214,"Ġgenotyp":13215,"Ġrepetition":13216,"etermined":13217,"tase":13218,"Ġintensified":13219,"Ġrecruit":13220,"Ġalternatives":13221,"Ġhomogene":13222,"ĠConsumption":13223,"Ġconcurrently":13224,"Ġsulphate":13225,"ĠBurch":13226,"igine":13227,"ocytic":13228,"Ġtemporom":13229,"Ġthrombotic":13230,"Ġechocardiographic":13231,"uated":13232,"sets":13233,"TIC":13234,"gingival":13235,"Ġoesophageal":13236,"ĠGeor":13237,"Ġlor":13238,"ĠLo":13239,"Ġassessor":13240,"minent":13241,"Ġcorrec":13242,"Ġhybrid":13243,"Ġkerat":13244,"clo":13245,"mitment":13246,"molol":13247,"Ġdrops":13248,"ĠMonth":13249,"ĠFamilies":13250,"HP":13251,"VAS":13252,"not":13253,"Ġconsul":13254,"Ġresponder":13255,"Ġ182":13256,"Ġboost":13257,"Ġanorexia":13258,"cision":13259,"losan":13260,"asant":13261,"iling":13262,"Ġ5000":13263,"Ġscin":13264,"ĠWales":13265,"Ġgastroenter":13266,"Ġamygd":13267,"ĠPEF":13268,"Ġdenture":13269,"Ġswe":13270,"ĠTim":13271,"Ġprocalcitonin":13272,"component":13273,"Ġflushes":13274,"Ġmember":13275,"Ġethical":13276,"ĠNorthern":13277,"Ġafford":13278,"TR":13279,"ĠSm":13280,"Ġexam":13281,"Ġ192":13282,"Ġepisiotomy":13283,"Ġdetrusor":13284,"mis":13285,"ĠPRP":13286,"epoetin":13287,"Ġnutrients":13288,"Ġhydroxyethyl":13289,"Ġgrouped":13290,"Ġassessable":13291,"Ġcontinuity":13292,"versus":13293,"Ġawakening":13294,"Ġcaroten":13295,"Ġpalsy":13296,"Ġalgorithms":13297,"sartan":13298,"enriched":13299,"Ġpemetrexed":13300,"alone":13301,"ago":13302,"ofloxacin":13303,"250":13304,"Ġsouthern":13305,"Ġdetrimental":13306,"ĠKRAS":13307,"ĠScotl":13308,"sts":13309,"Ġregener":13310,"ĠMADRS":13311,"RAF":13312,"oagulation":13313,"Ġbenzodiazepine":13314,"Ġanswered":13315,"Ġaort":13316,"Ġdal":13317,"ĠRM":13318,"ociations":13319,"ĠLp":13320,"oxamine":13321,"Ġalongside":13322,"ĠImprove":13323,"factor":13324,"Ġmos":13325,"Ġtrab":13326,"ĠCharacter":13327,"Dose":13328,"onding":13329,"Ġanesthe":13330,"Ġplain":13331,"key":13332,"geries":13333,"Ġtransurethral":13334,"pirin":13335,"Ġsle":13336,"enth":13337,"ighed":13338,"Ġstated":13339,"ĠCell":13340,"sew":13341,"ĠWM":13342,"ĠMDA":13343,"opathological":13344,"Ġoriginally":13345,"olipid":13346,"ĠEMS":13347,"otrigine":13348,"ĠRecruitment":13349,"ĠHar":13350,"Ġprobabilities":13351,"ĠBMT":13352,"ĠHRs":13353,"Ġmethylation":13354,"Ġgames":13355,"Ġsildenafil":13356,"Ġwear":13357,"ifier":13358,"ĠProcess":13359,"ĠPAD":13360,"Ġdiscectomy":13361,"ĠArtery":13362,"Ġconsequence":13363,"Ġreadings":13364,"Dietary":13365,"Ġspironolactone":13366,"DNA":13367,"tures":13368,"Ġsway":13369,"Ġthick":13370,"oserelin":13371,"Ġrefused":13372,"Ġchoose":13373,"RQ":13374,"molar":13375,"ÃŃ":13376,"Ġmononuclear":13377,"Ġuniform":13378,"ĠArter":13379,"MWD":13380,"visit":13381,"LR":13382,"ĠREC":13383,"Ġmaternity":13384,"Ġoptimum":13385,"Ġacarbose":13386,"instit":13387,"ĠMedicaid":13388,"Ġwords":13389,"lasting":13390,"Ġrice":13391,"Ġimplanted":13392,"Ġcompliant":13393,"Ġketoprofen":13394,"Ġischaemia":13395,"ĠRankin":13396,"Ġduloxetine":13397,"smoking":13398,"Ġsections":13399,"ocyst":13400,"Ġpraziquantel":13401,"041":13402,"Ã¥":13403,"itre":13404,"ida":13405,"ĠAMD":13406,"Ġpostdischarge":13407,"Ġsoreness":13408,"Ġmesal":13409,"Ġfreedom":13410,"Ġplacental":13411,"adiated":13412,"Ġbiweekly":13413,"Ġbisphosph":13414,"ĠBayes":13415,"ĠSchizophrenia":13416,"Ġplays":13417,"box":13418,"Ġrhinoconjunctivitis":13419,"Ġintrad":13420,"Ġtendin":13421,"Ġnasoph":13422,"ylcholine":13423,"aight":13424,"Ġsound":13425,"anercept":13426,"Ġbox":13427,"activated":13428,"phi":13429,"Ġcanagliflozin":13430,"ishop":13431,"Ġlipoproteins":13432,"ĠNeuropsych":13433,"Patient":13434,"llular":13435,"Ġimatinib":13436,"diastolic":13437,"astrozole":13438,"Hodgkin":13439,"ĠPPV":13440,"Ġsurgeries":13441,"phalan":13442,"Ġesophagus":13443,"Ġprinted":13444,"Ġcomparator":13445,"Ġ176":13446,"ĠPEP":13447,"Ġintravascular":13448,"Ġlowers":13449,"Ġstraight":13450,"Ġtubal":13451,"Ġpuncture":13452,"ustry":13453,"etts":13454,"earman":13455,"Ġpriori":13456,"Ġentering":13457,"exposed":13458,"ĠMexican":13459,"Ġinvasion":13460,"mar":13461,"renal":13462,"Ġmanagers":13463,"Ġbaby":13464,"ĠPublic":13465,"ĠPRACTICE":13466,"ienced":13467,"ĠPoor":13468,"ilol":13469,"vedilol":13470,"Ġenl":13471,"Ġcardiover":13472,"Ġsurviving":13473,"Ġinvestigational":13474,"Ġimmunologic":13475,"embolization":13476,"scores":13477,"Ġvaric":13478,"Ġpseud":13479,"ĠAuth":13480,"Ġamongst":13481,"cessation":13482,"Ġpolyphen":13483,"Ġtopic":13484,"Ġhepat":13485,"ĠTeam":13486,"Ġorientation":13487,"Ġphenomenon":13488,"Ġadjud":13489,"Ġmouthw":13490,"ĠMRSA":13491,"ĠGlucose":13492,"lyometric":13493,"Ġinterven":13494,"ĠHY":13495,"ĠRegular":13496,"limited":13497,"ronutrients":13498,"ĠAdolescent":13499,"ĠGynec":13500,"Ġamni":13501,"Ġprematurely":13502,"Ġgeometric":13503,"uan":13504,"itÃ©":13505,"Ġfidelity":13506,"ĠCNS":13507,"ĠSNP":13508,"ĠGeriatric":13509,"Ġrisky":13510,"ĠORR":13511,"LISA":13512,"Ġextensively":13513,"Ġconverted":13514,"Rep":13515,"Up":13516,"ingly":13517,"Ġhall":13518,"teparin":13519,"Ġgraph":13520,"Ġfruct":13521,"Ġpsychoeducational":13522,"Ġmodifiable":13523,"ashington":13524,"Ġible":13525,"Ġbuff":13526,"Ġdoubling":13527,"ĠRFA":13528,"Ġ1984":13529,"ĠKidney":13530,"igarette":13531,"baric":13532,"DN":13533,"ĠIUD":13534,"Ġwhy":13535,"Ġseventh":13536,"Ġinsti":13537,"Ġepidemic":13538,"arbepoetin":13539,"Ġscarce":13540,"Ġgross":13541,"ĠCN":13542,"ĠFU":13543,"ĠGDM":13544,"ĠAltern":13545,"Ġdependency":13546,"Ġathle":13547,"joy":13548,"Ġwedge":13549,"ĠTarget":13550,"Ġparadig":13551,"ypass":13552,"Ġenamel":13553,"rectal":13554,"Ġworth":13555,"ikacin":13556,"Ġbioavailability":13557,"Ġanthr":13558,"ĠConf":13559,"ogenetic":13560,"Ġfractional":13561,"Ġampicillin":13562,"sensitivity":13563,"Ġtone":13564,"omn":13565,"Ġbiologic":13566,"hemat":13567,"Ġcytotoxic":13568,"Ġstabilized":13569,"Ġhyperstimulation":13570,"ĠMVPA":13571,"chymal":13572,"bes":13573,"orin":13574,"Ġstain":13575,"Ġwhipl":13576,"ĠCont":13577,"Ġtranslation":13578,"axagliptin":13579,"Ġreviews":13580,"Ġdescribing":13581,"ullary":13582,"Ġaneurysms":13583,"Ġquartiles":13584,"Ġwhiplash":13585,"urity":13586,"Ġproactive":13587,"ĠNormal":13588,"arios":13589,"Ġspecially":13590,"Ġflora":13591,"Ġregarded":13592,"Ġbacteriuria":13593,"Ġcleaning":13594,"Ġglutathione":13595,"asteride":13596,"Ġtow":13597,"Ġhierarch":13598,"lina":13599,"ĠNutri":13600,"achus":13601,"Ġnonoperative":13602,"Ġdesired":13603,"Ġwarrants":13604,"Ġreversed":13605,"Ġcolposuspension":13606,"Ġperox":13607,"ĠVenous":13608,"Ġinterested":13609,"Exercise":13610,"Ġinsemination":13611,"ĠStimulation":13612,"ĠBowel":13613,"artum":13614,"Ġepic":13615,"Ġimmunological":13616,"Ġunsup":13617,"ĠNeuro":13618,"ĠMemory":13619,"achusetts":13620,"olateral":13621,"ĠTob":13622,"Ġ185":13623,"Ġmicroscopy":13624,"Ġlymphaden":13625,"Ġcultural":13626,"unior":13627,"ĠDental":13628,"ĠSpearman":13629,"ĠAdjuvant":13630,"ulse":13631,"Ġunblinded":13632,"Ġprospectively":13633,"ĠMassachusetts":13634,"Ġbari":13635,"Ġdecades":13636,"Ġended":13637,"Ġ198":13638,"Ġwalked":13639,"Ġbreakthrough":13640,"Ã¨s":13641,"ĠCarolina":13642,"Ġsatiety":13643,"Ġstigma":13644,"Ġunw":13645,"ĠMcG":13646,"Ġpenetr":13647,"othermic":13648,"Ġpositioning":13649,"ibizumab":13650,"obactam":13651,"Ġfibrinolysis":13652,"tazapine":13653,"ophilus":13654,"nitol":13655,"Ġoesophag":13656,"sweetened":13657,"Î¼":13658,"Ġwant":13659,"ello":13660,"Ġevoked":13661,"itilig":13662,"Ġ204":13663,"ĠANCOVA":13664,"Ġexhibit":13665,"Ġattenuate":13666,"Ġsclerotherapy":13667,"orris":13668,"ĠPHQ":13669,"bre":13670,"variate":13671,"Ġaten":13672,"ĠFIT":13673,"Ġclub":13674,"ĠAction":13675,"ĠBut":13676,"Ġgenerate":13677,"Ġvitality":13678,"Ġmattress":13679,"egal":13680,"fate":13681,"ritic":13682,"ĠBup":13683,"ĠNiger":13684,"Ġ181":13685,"Ġglaucoma":13686,"Ġconcordance":13687,"icylic":13688,"Ġatenolol":13689,"Ġranibizumab":13690,
[...]
